<unk>	0
<s>	0
</s>	0
▁t	-0
he	-1
▁a	-2
▁the	-3
nd	-4
▁s	-5
▁w	-6
in	-7
▁o	-8
ha	-9
▁and	-10
re	-11
ou	-12
▁b	-13
or	-14
▁of	-15
▁m	-16
hi	-17
▁f	-18
ll	-19
er	-20
▁to	-21
es	-22
it	-23
en	-24
ed	-25
▁c	-26
on	-27
▁d	-28
ing	-29
▁in	-30
▁th	-31
▁hi	-32
▁he	-33
is	-34
▁n	-35
▁be	-36
▁p	-37
▁ha	-38
ar	-39
▁A	-40
om	-41
▁l	-42
at	-43
▁I	-44
an	-45
▁y	-46
hat	-47
▁g	-48
ot	-49
se	-50
▁sha	-51
▁u	-52
ve	-53
ay	-54
as	-55
▁that	-56
ord	-57
▁e	-58
ho	-59
▁for	-60
id	-61
ut	-62
od	-63
▁you	-64
▁shall	-65
▁And	-66
le	-67
ld	-68
▁L	-69
▁is	-70
▁him	-71
▁his	-72
st	-73
gh	-74
ith	-75
ce	-76
▁wi	-77
ow	-78
▁sa	-79
▁not	-80
et	-81
▁Lord	-82
▁G	-83
▁T	-84
▁with	-85
her	-86
ch	-87
ent	-88
▁them	-89
▁they	-90
ver	-91
▁on	-92
▁it	-93
▁re	-94
ir	-95
ght	-96
ri	-97
▁will	-98
▁thou	-99
am	-100
▁me	-101
▁we	-102
th	-103
▁J	-104
▁my	-105
ra	-106
▁thy	-107
▁as	-108
el	-109
▁k	-110
▁fr	-111
▁who	-112
ur	-113
▁God	-114
▁all	-115
ion	-116
▁up	-117
▁have	-118
ore	-119
▁from	-120
ly	-121
▁S	-122
ess	-123
▁said	-124
▁an	-125
▁was	-126
ad	-127
ak	-128
▁whi	-129
▁The	-130
to	-131
▁se	-132
▁B	-133
▁com	-134
ain	-135
ro	-136
and	-137
▁man	-138
if	-139
▁'	-140
us	-141
il	-142
al	-143
est	-144
▁thee	-145
▁which	-146
▁H	-147
ven	-148
hou	-149
▁thi	-150
▁are	-151
au	-152
▁their	-153
lt	-154
▁st	-155
red	-156
▁go	-157
fore	-158
▁un	-159
ame	-160
▁there	-161
▁whe	-162
▁this	-163
▁de	-164
▁F	-165
▁hear	-166
▁has	-167
▁sp	-168
▁out	-169
▁M	-170
▁but	-171
im	-172
▁ye	-173
▁by	-174
sel	-175
▁do	-176
ings	-177
ok	-178
rou	-179
ter	-180
▁say	-181
▁your	-182
ive	-183
▁day	-184
▁W	-185
ight	-186
ab	-187
▁one	-188
ation	-189
▁into	-190
▁were	-191
▁son	-192
ct	-193
ers	-194
▁P	-195
▁For	-196
▁C	-197
ine	-198
.'	-199
ant	-200
▁v	-201
ple	-202
▁He	-203
all	-204
ren	-205
em	-206
ake	-207
▁pe	-208
ness	-209
▁E	-210
▁at	-211
▁kn	-212
▁us	-213
pt	-214
▁her	-215
▁upon	-216
▁Is	-217
ud	-218
▁O	-219
▁al	-220
one	-221
ather	-222
ac	-223
▁hand	-224
▁bec	-225
▁ne	-226
▁D	-227
ast	-228
▁when	-229
▁before	-230
ong	-231
▁ag	-232
▁ho	-233
▁shalt	-234
▁had	-235
ace	-236
▁wor	-237
▁am	-238
our	-239
so	-240
ity	-241
▁ab	-242
os	-243
▁things	-244
▁no	-245
▁know	-246
▁li	-247
▁come	-248
rael	-249
ist	-250
▁ever	-251
ause	-252
▁Israel	-253
▁br	-254
▁j	-255
▁men	-256
reat	-257
▁con	-258
▁so	-259
urn	-260
▁chi	-261
▁again	-262
▁peo	-263
▁came	-264
oun	-265
▁ri	-266
ous	-267
▁people	-268
▁fe	-269
▁ear	-270
ves	-271
other	-272
li	-273
ru	-274
▁hou	-275
▁our	-276
ved	-277
pp	-278
▁or	-279
▁But	-280
▁lo	-281
▁h	-282
ge	-283
▁fi	-284
▁if	-285
▁af	-286
▁N	-287
▁land	-288
self	-289
▁child	-290
▁su	-291
▁pl	-292
res	-293
▁she	-294
ep	-295
ise	-296
ose	-297
we	-298
ted	-299
▁ser	-300
▁word	-301
▁saying	-302
▁king	-303
ck	-304
ice	-305
▁did	-306
own	-307
ies	-308
han	-309
▁these	-310
ass	-311
▁also	-312
hold	-313
▁Jes	-314
▁Jesus	-315
ath	-316
▁pr	-317
▁unto	-318
ke	-319
▁sin	-320
▁children	-321
▁pro	-322
▁house	-323
les	-324
▁let	-325
▁went	-326
▁great	-327
▁bl	-328
ard	-329
▁father	-330
▁ar	-331
av	-332
▁against	-333
▁ac	-334
▁because	-335
ment	-336
▁right	-337
▁earth	-338
ount	-339
▁over	-340
▁heart	-341
▁what	-342
way	-343
▁may	-344
▁sou	-345
▁ex	-346
▁mad	-347
out	-348
▁shou	-349
▁every	-350
▁down	-351
▁even	-352
▁made	-353
▁good	-354
▁see	-355
▁should	-356
eth	-357
▁comm	-358
▁those	-359
▁hast	-360
nder	-361
mb	-362
ul	-363
▁way	-364
▁acc	-365
▁le	-366
ome	-367
vant	-368
hed	-369
ust	-370
ill	-371
▁gl	-372
▁tim	-373
qu	-374
ic	-375
▁en	-376
▁wh	-377
▁away	-378
▁been	-379
eous	-380
▁Be	-381
vil	-382
▁te	-383
▁lif	-384
ks	-385
▁give	-386
avid	-387
are	-388
▁David	-389
ance	-390
▁fo	-391
rought	-392
ans	-393
▁dis	-394
▁any	-395
hen	-396
▁(	-397
▁servant	-398
hr	-399
orn	-400
ving	-401
ry	-402
ther	-403
▁then	-404
▁off	-405
▁per	-406
▁wat	-407
ound	-408
▁spe	-409
▁pass	-410
ave	-411
▁di	-412
▁wr	-413
aven	-414
▁name	-415
▁after	-416
▁call	-417
▁command	-418
▁rem	-419
oice	-420
▁jud	-421
▁forth	-422
ol	-423
hrist	-424
▁Christ	-425
▁co	-426
▁make	-427
▁days	-428
oth	-429
▁la	-430
ould	-431
▁place	-432
oses	-433
▁They	-434
ach	-435
▁city	-436
ide	-437
▁glor	-438
▁thine	-439
▁righteous	-440
ind	-441
▁under	-442
▁tw	-443
▁where	-444
wn	-445
▁des	-446
▁now	-447
ken	-448
▁nor	-449
▁whom	-450
▁R	-451
▁words	-452
▁brought	-453
▁like	-454
▁Moses	-455
ts	-456
aul	-457
▁time	-458
fe	-459
▁spok	-460
▁mu	-461
ng	-462
▁evil	-463
led	-464
▁sons	-465
▁ang	-466
▁bre	-467
▁dest	-468
▁might	-469
ish	-470
▁than	-471
ag	-472
ood	-473
▁among	-474
▁accord	-475
▁soul	-476
rough	-477
▁heaven	-478
irit	-479
▁brother	-480
▁del	-481
▁take	-482
ward	-483
ree	-484
▁r	-485
▁took	-486
▁fa	-487
▁through	-488
▁ey	-489
ations	-490
▁according	-491
▁life	-492
selves	-493
▁heard	-494
ars	-495
▁ro	-496
▁There	-497
itt	-498
▁hands	-499
ale	-500
▁Ab	-501
▁pri	-502
▁about	-503
▁eat	-504
▁Thou	-505
▁gi	-506
▁set	-507
ered	-508
ning	-509
▁wom	-510
▁bring	-511
▁himself	-512
gy	-513
ure	-514
ig	-515
▁sent	-516
dom	-517
par	-518
▁more	-519
▁turn	-520
gypt	-521
▁Egypt	-522
ever	-523
ate	-524
erc	-525
▁speak	-526
▁would	-527
ite	-528
ither	-529
▁many	-530
▁therefore	-531
ew	-532
▁own	-533
ff	-534
ci	-535
pe	-536
▁saw	-537
..	-538
▁mount	-539
▁When	-540
▁judg	-541
▁ke	-542
phe	-543
ob	-544
▁tr	-545
▁As	-546
ence	-547
aught	-548
▁bo	-549
▁ans	-550
▁priest	-551
▁rep	-552
▁Jer	-553
ction	-554
roy	-555
▁called	-556
▁water	-557
▁pre	-558
▁behold	-559
▁destroy	-560
ort	-561
▁Now	-562
▁If	-563
▁app	-564
▁put	-565
▁str	-566
me	-567
ful	-568
ue	-569
▁hu	-570
ost	-571
▁cl	-572
▁Let	-573
▁law	-574
?'	-575
▁Y	-576
▁merc	-577
very	-578
▁glory	-579
med	-580
▁sw	-581
get	-582
▁eyes	-583
cri	-584
ert	-585
te	-586
▁voice	-587
▁neither	-588
outh	-589
▁ent	-590
▁bless	-591
ied	-592
▁unt	-593
▁mouth	-594
▁sm	-595
▁Jud	-596
ink	-597
alem	-598
▁fir	-599
▁rece	-600
ened	-601
ress	-602
▁other	-603
usalem	-604
▁Behold	-605
round	-606
▁pray	-607
▁Jerusalem	-608
ull	-609
▁until	-610
ces	-611
▁cha	-612
▁gave	-613
▁found	-614
ities	-615
▁fire	-616
▁end	-617
▁Saul	-618
▁works	-619
▁Jo	-620
▁two	-621
less	-622
pa	-623
row	-624
ffer	-625
▁face	-626
▁faith	-627
ried	-628
be	-629
▁holy	-630
ft	-631
well	-632
▁tell	-633
▁ra	-634
▁first	-635
▁spoke	-636
▁death	-637
▁depar	-638
▁given	-639
▁fall	-640
▁Then	-641
wered	-642
▁answered	-643
ign	-644
▁mountain	-645
▁dwell	-646
▁art	-647
▁rej	-648
uth	-649
▁fear	-650
▁love	-651
▁ca	-652
▁enem	-653
▁look	-654
▁Am	-655
▁very	-656
▁prophe	-657
▁po	-658
▁ret	-659
▁tak	-660
▁world	-661
amp	-662
▁yet	-663
▁keep	-664
▁mult	-665
▁having	-666
hy	-667
herit	-668
ments	-669
▁done	-670
▁inherit	-671
▁beg	-672
cer	-673
gether	-674
lesh	-675
▁flesh	-676
▁par	-677
able	-678
▁nations	-679
▁sl	-680
▁head	-681
▁angel	-682
▁servants	-683
▁woman	-684
▁hath	-685
▁return	-686
▁righteousness	-687
▁together	-688
tter	-689
▁mercy	-690
alk	-691
rie	-692
igh	-693
lie	-694
▁Who	-695
▁daught	-696
▁can	-697
▁cast	-698
cl	-699
▁fl	-700
▁im	-701
llow	-702
▁long	-703
▁saith	-704
▁another	-705
▁don	-706
▁rest	-707
▁Therefore	-708
▁ru	-709
▁gra	-710
ty	-711
ower	-712
▁sea	-713
ap	-714
his	-715
▁Father	-716
▁dr	-717
▁Pha	-718
▁ad	-719
ble	-720
▁cont	-721
▁thyself	-722
▁how	-723
▁tru	-724
▁blood	-725
▁whole	-726
▁So	-727
▁bu	-728
▁god	-729
umb	-730
▁bod	-731
▁its	-732
▁hearken	-733
oin	-734
stand	-735
▁left	-736
▁wife	-737
▁mid	-738
ack	-739
ond	-740
▁light	-741
▁Sp	-742
iver	-743
▁belie	-744
hes	-745
▁aff	-746
▁work	-747
▁mother	-748
oved	-749
▁Spirit	-750
▁har	-751
▁concer	-752
per	-753
ished	-754
emb	-755
age	-756
hip	-757
reng	-758
▁ord	-759
▁night	-760
▁sc	-761
▁dead	-762
▁bread	-763
ark	-764
▁does	-765
▁sins	-766
ertain	-767
▁power	-768
hing	-769
▁wild	-770
▁become	-771
▁streng	-772
▁stand	-773
▁tri	-774
▁sinn	-775
▁concerning	-776
▁ask	-777
▁comp	-778
▁disci	-779
▁pres	-780
▁themselves	-781
▁seen	-782
▁understand	-783
ples	-784
▁Phi	-785
▁taken	-786
▁thing	-787
ea	-788
▁hel	-789
▁affli	-790
ines	-791
itud	-792
▁peace	-793
▁cities	-794
▁commanded	-795
▁test	-796
▁drink	-797
▁It	-798
ews	-799
ove	-800
▁being	-801
▁spirit	-802
ors	-803
▁Jac	-804
▁coun	-805
▁qu	-806
cked	-807
▁Jacob	-808
▁In	-809
▁pra	-810
▁walk	-811
▁judgment	-812
ph	-813
ang	-814
ias	-815
▁body	-816
▁young	-817
att	-818
▁exce	-819
▁years	-820
▁certain	-821
ef	-822
ote	-823
▁op	-824
▁wise	-825
ia	-826
ret	-827
▁thir	-828
▁midst	-829
▁wis	-830
▁both	-831
▁sword	-832
▁enemies	-833
ions	-834
▁burn	-835
▁mine	-836
▁wilt	-837
▁multitud	-838
ne	-839
▁sec	-840
▁sto	-841
▁Juda	-842
eld	-843
uit	-844
▁die	-845
▁truth	-846
▁delive	-847
ged	-848
▁fathers	-849
mon	-850
lean	-851
▁some	-852
▁cons	-853
▁live	-854
▁deliver	-855
▁without	-856
▁My	-857
cted	-858
ived	-859
▁gat	-860
▁find	-861
▁feet	-862
itten	-863
▁What	-864
▁just	-865
bit	-866
lled	-867
▁didst	-868
▁three	-869
▁fruit	-870
▁si	-871
▁Man	-872
ified	-873
▁seven	-874
list	-875
sand	-876
▁tem	-877
▁only	-878
▁well	-879
▁thousand	-880
▁war	-881
▁sacri	-882
▁Son	-883
▁bel	-884
▁sacrif	-885
...	-886
▁old	-887
ures	-888
▁Apa	-889
▁far	-890
▁ple	-891
▁...	-892
▁wrath	-893
▁delivered	-894
oy	-895
ire	-896
here	-897
ised	-898
▁disciples	-899
un	-900
▁cho	-901
▁pur	-902
ason	-903
▁sat	-904
▁unc	-905
▁high	-906
▁strong	-907
um	-908
iqu	-909
rew	-910
▁gold	-911
ps	-912
▁much	-913
▁poor	-914
▁iniqu	-915
▁ung	-916
atter	-917
den	-918
oss	-919
▁ungod	-920
for	-921
▁happ	-922
▁Philist	-923
▁nothing	-924
▁departed	-925
▁sk	-926
▁tre	-927
offer	-928
▁able	-929
▁turned	-930
hn	-931
aron	-932
▁full	-933
▁receive	-934
▁mon	-935
▁lord	-936
▁blessed	-937
!'	-938
bs	-939
▁sil	-940
▁four	-941
▁ways	-942
▁rememb	-943
▁near	-944
▁back	-945
▁seek	-946
ener	-947
ittle	-948
▁thus	-949
▁count	-950
▁utter	-951
▁wisdom	-952
right	-953
▁Ho	-954
▁wa	-955
▁Sam	-956
▁didn	-957
▁gods	-958
venant	-959
▁This	-960
▁spoken	-961
imon	-962
▁send	-963
▁gener	-964
▁mighty	-965
▁covenant	-966
▁dark	-967
ched	-968
▁res	-969
▁John	-970
▁fool	-971
▁follow	-972
ary	-973
▁Aaron	-974
▁little	-975
▁written	-976
of	-977
ely	-978
▁Th	-979
▁each	-980
▁strength	-981
▁Jos	-982
▁hid	-983
erness	-984
iz	-985
eter	-986
▁became	-987
ify	-988
ily	-989
▁His	-990
▁field	-991
▁known	-992
▁ungodly	-993
▁wilderness	-994
ndred	-995
▁wine	-996
▁hundred	-997
▁Gal	-998
▁Holy	-999
▁trou	-1000
▁stood	-1001
▁cause	-1002
▁contin	-1003
▁hon	-1004
▁sal	-1005
▁enter	-1006
ites	-1007
▁tab	-1008
▁seed	-1009
▁wicked	-1010
ua	-1011
ses	-1012
iled	-1013
▁wit	-1014
▁Se	-1015
▁joy	-1016
▁help	-1017
▁repro	-1018
▁remain	-1019
oud	-1020
▁We	-1021
▁car	-1022
▁prin	-1023
▁brothers	-1024
▁sh	-1025
▁part	-1026
az	-1027
aled	-1028
▁dra	-1029
▁sle	-1030
▁gone	-1031
▁Phara	-1032
▁toward	-1033
▁daughter	-1034
▁conf	-1035
▁lest	-1036
▁destroyed	-1037
▁Philistines	-1038
hua	-1039
ins	-1040
ctor	-1041
▁capt	-1042
▁told	-1043
soever	-1044
▁Pharao	-1045
▁rejoice	-1046
▁multitude	-1047
▁bet	-1048
▁thr	-1049
▁numb	-1050
▁round	-1051
▁Joshua	-1052
ult	-1053
ship	-1054
▁bro	-1055
▁ind	-1056
▁Paul	-1057
▁hope	-1058
ointed	-1059
▁inheritance	-1060
▁hold	-1061
▁kind	-1062
▁trans	-1063
ner	-1064
▁dev	-1065
▁fam	-1066
▁gar	-1067
ern	-1068
hered	-1069
▁Jews	-1070
▁same	-1071
ians	-1072
▁arm	-1073
▁beast	-1074
▁An	-1075
▁supp	-1076
semb	-1077
▁comes	-1078
▁serve	-1079
▁priests	-1080
,'	-1081
▁gu	-1082
vation	-1083
attle	-1084
▁coming	-1085
lee	-1086
ones	-1087
▁mar	-1088
▁Abra	-1089
▁offer	-1090
▁sheep	-1091
▁eld	-1092
▁rec	-1093
▁while	-1094
▁darkness	-1095
ub	-1096
nds	-1097
thing	-1098
▁char	-1099
▁fell	-1100
▁host	-1101
▁sign	-1102
orning	-1103
▁witness	-1104
▁yourselves	-1105
iles	-1106
ictor	-1107
▁cried	-1108
▁pleas	-1109
▁salvation	-1110
▁understanding	-1111
uel	-1112
ious	-1113
▁died	-1114
▁laid	-1115
▁poss	-1116
▁kings	-1117
▁assemb	-1118
▁living	-1119
▁You	-1120
▁filled	-1121
▁morning	-1122
ally	-1123
vent	-1124
▁sun	-1125
ens	-1126
gress	-1127
ordan	-1128
▁here	-1129
▁such	-1130
▁judge	-1131
ruction	-1132
▁Jordan	-1133
oe	-1134
ear	-1135
▁Je	-1136
orrow	-1137
▁need	-1138
▁sub	-1139
▁must	-1140
▁reve	-1141
▁year	-1142
chi	-1143
ock	-1144
▁Jon	-1145
▁lay	-1146
▁neigh	-1147
▁praise	-1148
▁counsel	-1149
ices	-1150
▁frie	-1151
▁never	-1152
▁iniquity	-1153
▁transgress	-1154
ek	-1155
pl	-1156
▁cry	-1157
▁swe	-1158
▁neighb	-1159
oney	-1160
▁lab	-1161
▁says	-1162
▁Peter	-1163
▁whose	-1164
▁new	-1165
ernac	-1166
▁none	-1167
▁sake	-1168
▁wait	-1169
▁going	-1170
The	-1171
▁Ar	-1172
ated	-1173
read	-1174
▁vis	-1175
▁fore	-1176
▁knew	-1177
▁sight	-1178
▁gathered	-1179
▁tabernac	-1180
▁Go	-1181
▁decl	-1182
▁dist	-1183
▁silver	-1184
oc	-1185
ray	-1186
▁How	-1187
▁Thus	-1188
▁grie	-1189
▁tong	-1190
▁stone	-1191
▁times	-1192
▁believe	-1193
▁utterly	-1194
aces	-1195
▁All	-1196
ledge	-1197
▁desire	-1198
▁reason	-1199
ie	-1200
eed	-1201
sed	-1202
▁born	-1203
▁asked	-1204
▁div	-1205
▁Gent	-1206
▁happened	-1207
▁read	-1208
▁side	-1209
▁month	-1210
▁Samuel	-1211
▁unclean	-1212
▁alt	-1213
illed	-1214
▁forg	-1215
▁river	-1216
▁Gentiles	-1217
▁affliction	-1218
ase	-1219
ham	-1220
▁enc	-1221
iness	-1222
▁sacrifice	-1223
▁sho	-1224
thren	-1225
▁mind	-1226
▁begin	-1227
▁grace	-1228
▁depart	-1229
▁brethren	-1230
oured	-1231
▁smote	-1232
▁strang	-1233
▁temple	-1234
ird	-1235
over	-1236
raid	-1237
athan	-1238
▁Sion	-1239
▁bord	-1240
▁inst	-1241
▁want	-1242
▁teach	-1243
▁es	-1244
▁cur	-1245
▁gif	-1246
▁save	-1247
▁rose	-1248
▁chief	-1249
▁ordin	-1250
▁beloved	-1251
▁prophet	-1252
▁received	-1253
ius	-1254
the	-1255
und	-1256
▁mak	-1257
▁bear	-1258
▁knowledge	-1259
ances	-1260
aster	-1261
▁fast	-1262
▁angels	-1263
▁prophets	-1264
▁tabernacle	-1265
usb	-1266
eding	-1267
habit	-1268
usband	-1269
▁elders	-1270
▁indeed	-1271
▁Ba	-1272
ween	-1273
▁inc	-1274
▁sure	-1275
▁hearts	-1276
▁tongue	-1277
▁between	-1278
▁compass	-1279
▁continu	-1280
▁daughters	-1281
day	-1282
ared	-1283
ient	-1284
omin	-1285
rown	-1286
▁exal	-1287
▁matter	-1288
offering	-1289
▁husband	-1290
),	-1291
▁afraid	-1292
▁mountains	-1293
ages	-1294
ense	-1295
▁stri	-1296
▁gather	-1297
▁possess	-1298
▁returned	-1299
▁neighbour	-1300
▁commandments	-1301
bes	-1302
iat	-1303
man	-1304
ches	-1305
▁dece	-1306
▁anger	-1307
▁suffer	-1308
ison	-1309
▁tree	-1310
▁myself	-1311
▁inhabit	-1312
▁testimon	-1313
ip	-1314
▁sold	-1315
▁altar	-1316
▁troub	-1317
▁trust	-1318
▁thanks	-1319
▁throne	-1320
▁country	-1321
▁worship	-1322
You	-1323
elt	-1324
ilt	-1325
ingdom	-1326
▁Abess	-1327
▁ground	-1328
arn	-1329
▁cal	-1330
▁weep	-1331
▁means	-1332
▁number	-1333
▁wherein	-1334
▁ears	-1335
▁houses	-1336
▁nation	-1337
▁entered	-1338
▁presence	-1339
▁food	-1340
▁vine	-1341
▁wall	-1342
▁tribe	-1343
▁looked	-1344
▁princes	-1345
wer	-1346
ring	-1347
▁bow	-1348
▁sit	-1349
▁glad	-1350
▁pers	-1351
og	-1352
thy	-1353
▁opp	-1354
▁why	-1355
▁care	-1356
lessed	-1357
▁doesn	-1358
als	-1359
▁sn	-1360
▁qui	-1361
pared	-1362
▁door	-1363
▁kingdom	-1364
aid	-1365
irc	-1366
ots	-1367
ling	-1368
oseph	-1369
▁hour	-1370
▁kept	-1371
▁prov	-1372
▁though	-1373
aw	-1374
sy	-1375
aby	-1376
ints	-1377
reet	-1378
▁Why	-1379
▁Joseph	-1380
▁exceeding	-1381
▁ark	-1382
▁cut	-1383
▁est	-1384
▁rich	-1385
▁remember	-1386
ants	-1387
▁One	-1388
▁Thy	-1389
▁tra	-1390
▁book	-1391
▁passed	-1392
ute	-1393
alse	-1394
anct	-1395
▁esc	-1396
▁lips	-1397
▁shew	-1398
▁twel	-1399
▁creat	-1400
▁encamp	-1401
▁saints	-1402
▁heavens	-1403
▁beginning	-1404
eal	-1405
ulf	-1406
▁dw	-1407
ined	-1408
post	-1409
▁ten	-1410
▁ones	-1411
▁sick	-1412
▁dwelt	-1413
▁false	-1414
▁opened	-1415
cha	-1416
lon	-1417
▁Le	-1418
▁Joab	-1419
▁open	-1420
▁above	-1421
▁cloud	-1422
▁sound	-1423
▁perish	-1424
▁sky	-1425
ircum	-1426
▁heal	-1427
▁better	-1428
ten	-1429
▁Ye	-1430
▁Him	-1431
▁red	-1432
▁meet	-1433
abylon	-1434
▁Where	-1435
lf	-1436
alom	-1437
bath	-1438
rise	-1439
▁ter	-1440
▁Hear	-1441
▁fulf	-1442
▁wind	-1443
▁alone	-1444
▁women	-1445
▁Babylon	-1446
▁nam	-1447
▁ref	-1448
▁draw	-1449
▁twelve	-1450
▁certainly	-1451
▁exceedingly	-1452
▁vain	-1453
ircumc	-1454
▁abund	-1455
eds	-1456
ild	-1457
▁gr	-1458
pped	-1459
▁mour	-1460
▁tent	-1461
▁sanct	-1462
▁third	-1463
▁sinned	-1464
▁greatly	-1465
▁Abessalom	-1466
sec	-1467
uke	-1468
▁bes	-1469
▁six	-1470
▁lead	-1471
▁rock	-1472
▁second	-1473
▁destruction	-1474
oke	-1475
▁Al	-1476
ased	-1477
▁Cha	-1478
▁spo	-1479
▁camp	-1480
▁till	-1481
▁loved	-1482
▁Jonathan	-1483
▁appointed	-1484
ey	-1485
lly	-1486
sen	-1487
▁most	-1488
▁feast	-1489
▁saved	-1490
▁declare	-1491
▁prepared	-1492
HE	-1493
eng	-1494
ows	-1495
▁ob	-1496
ully	-1497
▁Isa	-1498
ement	-1499
▁enemy	-1500
▁commit	-1501
ail	-1502
ced	-1503
aked	-1504
▁appear	-1505
▁prison	-1506
▁whether	-1507
▁wrought	-1508
abl	-1509
ons	-1510
ives	-1511
▁Che	-1512
▁eye	-1513
cause	-1514
ought	-1515
▁clot	-1516
▁Blessed	-1517
▁assembly	-1518
▁ordinances	-1519
ile	-1520
ains	-1521
ized	-1522
▁def	-1523
▁lam	-1524
▁slay	-1525
▁could	-1526
▁broken	-1527
▁faithful	-1528
up	-1529
cept	-1530
raim	-1531
tend	-1532
▁Rem	-1533
▁att	-1534
▁rul	-1535
ighty	-1536
▁caus	-1537
▁chosen	-1538
▁lifted	-1539
▁repent	-1540
▁surely	-1541
▁borders	-1542
▁generation	-1543
then	-1544
ting	-1545
▁cle	-1546
▁reg	-1547
▁Good	-1548
▁Take	-1549
▁flee	-1550
▁hung	-1551
▁rise	-1552
▁stra	-1553
▁troubled	-1554
▁Egyptians	-1555
▁ourselves	-1556
op	-1557
reg	-1558
▁mo	-1559
asse	-1560
fter	-1561
just	-1562
ured	-1563
▁Eph	-1564
▁pat	-1565
▁tou	-1566
ister	-1567
▁nigh	-1568
▁rejo	-1569
iately	-1570
▁prayer	-1571
▁Ephraim	-1572
mediately	-1573
ss	-1574
rem	-1575
uch	-1576
▁Do	-1577
▁Mo	-1578
▁On	-1579
▁ba	-1580
▁wo	-1581
rose	-1582
▁weak	-1583
▁arose	-1584
▁build	-1585
▁sought	-1586
▁sinners	-1587
ae	-1588
ms	-1589
▁Sy	-1590
amin	-1591
aves	-1592
▁low	-1593
▁van	-1594
hamed	-1595
▁vill	-1596
▁desol	-1597
▁fight	-1598
▁leave	-1599
▁money	-1600
▁shame	-1601
▁abomin	-1602
▁secret	-1603
▁waters	-1604
▁Pharise	-1605
▁ashamed	-1606
▁reproach	-1607
cc	-1608
uri	-1609
iful	-1610
▁ass	-1611
▁pit	-1612
▁Chan	-1613
asting	-1614
▁bound	-1615
▁gives	-1616
▁establ	-1617
▁multip	-1618
▁unright	-1619
▁believed	-1620
ery	-1621
▁No	-1622
▁ce	-1623
▁bur	-1624
▁mis	-1625
ached	-1626
▁foot	-1627
▁hard	-1628
▁port	-1629
▁prom	-1630
▁true	-1631
▁order	-1632
▁still	-1633
▁beasts	-1634
▁friend	-1635
▁labour	-1636
▁unrighteous	-1637
▁To	-1638
ways	-1639
▁vir	-1640
▁last	-1641
▁mess	-1642
▁sleep	-1643
▁honour	-1644
▁anything	-1645
▁hearkened	-1646
▁testimony	-1647
aut	-1648
ime	-1649
ues	-1650
▁Ad	-1651
lind	-1652
▁oil	-1653
▁Moab	-1654
▁dost	-1655
▁hill	-1656
▁blind	-1657
▁think	-1658
▁garments	-1659
Be	-1660
ah	-1661
ned	-1662
not	-1663
ible	-1664
ises	-1665
▁bapt	-1666
▁These	-1667
▁souls	-1668
▁sevent	-1669
▁Because	-1670
▁evening	-1671
▁exalted	-1672
▁whatsoever	-1673
enj	-1674
▁Em	-1675
▁Or	-1676
pect	-1677
▁Lev	-1678
▁lie	-1679
ained	-1680
ience	-1681
▁Benj	-1682
▁cong	-1683
▁angry	-1684
▁answer	-1685
▁cattle	-1686
▁desert	-1687
▁places	-1688
▁thereof	-1689
▁whatever	-1690
ib	-1691
iv	-1692
omp	-1693
ides	-1694
▁ate	-1695
▁kill	-1696
▁prof	-1697
▁sing	-1698
▁beaut	-1699
▁forty	-1700
▁knows	-1701
▁watch	-1702
▁always	-1703
▁thought	-1704
ai	-1705
ough	-1706
side	-1707
yond	-1708
▁Eli	-1709
ision	-1710
▁aside	-1711
▁reign	-1712
▁beyond	-1713
▁Abraham	-1714
▁stranger	-1715
▁wickedness	-1716
lic	-1717
burn	-1718
▁Her	-1719
▁THE	-1720
▁pie	-1721
alley	-1722
burnt	-1723
▁fled	-1724
▁ship	-1725
▁burnt	-1726
▁accept	-1727
▁fallen	-1728
▁longer	-1729
▁sorrow	-1730
▁worthy	-1731
▁present	-1732
▁followed	-1733
▁revealed	-1734
els	-1735
mer	-1736
▁id	-1737
bser	-1738
iced	-1739
cious	-1740
▁five	-1741
▁purs	-1742
▁wond	-1743
▁crown	-1744
▁congreg	-1745
▁portion	-1746
▁Benjamin	-1747
aad	-1748
eem	-1749
What	-1750
ired	-1751
▁Sab	-1752
▁fif	-1753
▁corn	-1754
▁wood	-1755
▁flock	-1756
▁lives	-1757
▁perfe	-1758
▁spoil	-1759
▁Galaad	-1760
▁raised	-1761
▁foolish	-1762
na	-1763
ect	-1764
tha	-1765
▁De	-1766
fied	-1767
tern	-1768
▁hate	-1769
▁quick	-1770
▁stret	-1771
▁compan	-1772
▁valley	-1773
▁Pharisees	-1774
▁continually	-1775
aim	-1776
ian	-1777
ual	-1778
▁Re	-1779
▁act	-1780
▁cor	-1781
acher	-1782
▁chan	-1783
▁cove	-1784
▁fors	-1785
▁plag	-1786
▁stay	-1787
▁began	-1788
▁consu	-1789
▁hosts	-1790
▁cannot	-1791
▁manner	-1792
▁stones	-1793
▁within	-1794
▁encamped	-1795
▁congregation	-1796
mor	-1797
ider	-1798
pher	-1799
yard	-1800
▁rod	-1801
cript	-1802
▁bird	-1803
▁built	-1804
▁etern	-1805
▁gates	-1806
▁small	-1807
▁Abraam	-1808
▁anyone	-1809
▁belong	-1810
offerings	-1811
hind	-1812
owed	-1813
▁med	-1814
▁News	-1815
▁Isaac	-1816
▁soldi	-1817
▁battle	-1818
▁behind	-1819
▁master	-1820
▁reward	-1821
▁carried	-1822
▁Es	-1823
▁few	-1824
▁wid	-1825
asure	-1826
▁After	-1827
▁apost	-1828
▁disob	-1829
▁naked	-1830
▁visit	-1831
▁speaking	-1832
He	-1833
ont	-1834
pet	-1835
vers	-1836
▁cour	-1837
▁drew	-1838
▁lion	-1839
▁proce	-1840
▁fellow	-1841
▁redeem	-1842
▁shouldest	-1843
▁inhabitants	-1844
ech	-1845
Lord	-1846
lied	-1847
pent	-1848
ught	-1849
▁led	-1850
fully	-1851
▁free	-1852
▁Jerem	-1853
▁except	-1854
▁mayest	-1855
▁persec	-1856
▁wonder	-1857
▁eternal	-1858
▁blessing	-1859
▁fulfilled	-1860
gs	-1861
vest	-1862
▁Bar	-1863
▁inf	-1864
▁mur	-1865
▁pay	-1866
▁pun	-1867
▁gate	-1868
▁heed	-1869
▁humb	-1870
liness	-1871
▁Pause	-1872
▁chari	-1873
▁demon	-1874
▁obser	-1875
▁smite	-1876
▁write	-1877
▁perfor	-1878
▁vineyard	-1879
law	-1880
aint	-1881
alth	-1882
ange	-1883
orns	-1884
▁Pis	-1885
▁She	-1886
ently	-1887
uring	-1888
▁gift	-1889
▁pros	-1890
▁rain	-1891
▁wept	-1892
entius	-1893
ounded	-1894
▁south	-1895
▁spread	-1896
▁strengthen	-1897
ron	-1898
▁Ag	-1899
osed	-1900
▁Gab	-1901
▁bar	-1902
▁che	-1903
▁imp	-1904
▁show	-1905
▁break	-1906
born	-1907
oura	-1908
ying	-1909
▁bit	-1910
▁cro	-1911
peror	-1912
▁cond	-1913
▁shut	-1914
▁learn	-1915
▁lived	-1916
▁hidden	-1917
▁garment	-1918
▁Pisentius	-1919
ead	-1920
eph	-1921
▁sy	-1922
fort	-1923
pherd	-1924
▁Come	-1925
▁east	-1926
▁path	-1927
▁perce	-1928
▁procl	-1929
▁signs	-1930
▁thirst	-1931
▁circumc	-1932
▁messeng	-1933
ats	-1934
ney	-1935
uted	-1936
▁den	-1937
▁gro	-1938
ilies	-1939
otten	-1940
uthor	-1941
▁Duke	-1942
▁Give	-1943
▁once	-1944
▁scri	-1945
mighty	-1946
▁curse	-1947
▁sweet	-1948
▁Script	-1949
▁forget	-1950
▁unjust	-1951
▁account	-1952
▁compassion	-1953
▁commandment	-1954
▁By	-1955
▁ox	-1956
ided	-1957
lech	-1958
ream	-1959
▁add	-1960
▁inn	-1961
▁calf	-1962
▁deal	-1963
▁slew	-1964
▁womb	-1965
ervant	-1966
▁guard	-1967
▁Manasse	-1968
▁Almighty	-1969
▁desolate	-1970
eli	-1971
▁ir	-1972
enty	-1973
▁ast	-1974
ember	-1975
▁hair	-1976
▁Judea	-1977
▁clean	-1978
▁instru	-1979
▁poured	-1980
▁remove	-1981
▁strange	-1982
▁afterward	-1983
▁glorified	-1984
▁everything	-1985
If	-1986
men	-1987
ols	-1988
rom	-1989
run	-1990
orted	-1991
venge	-1992
▁rule	-1993
▁bones	-1994
▁exult	-1995
▁moved	-1996
▁ready	-1997
▁author	-1998
▁fruits	-1999
▁recomp	-2000
▁wealth	-2001
▁comfort	-2002
▁Jeremias	-2003
▁standing	-2004
▁afflicted	-2005
▁judgments	-2006
rs	-2007
ank	-2008
ape	-2009
hood	-2010
▁Don	-2011
▁Job	-2012
▁fin	-2013
▁hat	-2014
▁obe	-2015
▁Amor	-2016
▁bold	-2017
▁fail	-2018
▁jour	-2019
▁virg	-2020
Behold	-2021
▁early	-2022
▁incre	-2023
▁marve	-2024
▁since	-2025
lasting	-2026
▁caused	-2027
▁pieces	-2028
▁prayed	-2029
▁tribes	-2030
▁Emperor	-2031
▁supplic	-2032
▁Remember	-2033
▁shepherd	-2034
▁generations	-2035
ades	-2036
ilig	-2037
race	-2038
▁Woe	-2039
▁ves	-2040
▁heat	-2041
▁pure	-2042
▁tomb	-2043
▁boast	-2044
▁dilig	-2045
▁fount	-2046
▁plant	-2047
▁bitter	-2048
▁charge	-2049
▁judged	-2050
▁sister	-2051
▁vessel	-2052
▁forever	-2053
▁journey	-2054
▁removed	-2055
▁trouble	-2056
▁weeping	-2057
▁pleasure	-2058
▁straight	-2059
▁immediately	-2060
hon	-2061
oked	-2062
▁min	-2063
eared	-2064
▁Gali	-2065
▁desp	-2066
▁disc	-2067
▁goes	-2068
▁skin	-2069
edient	-2070
ressed	-2071
▁Every	-2072
▁alive	-2073
▁gifts	-2074
▁habit	-2075
▁satis	-2076
▁separ	-2077
▁table	-2078
▁healed	-2079
▁others	-2080
▁sinner	-2081
▁Sabbath	-2082
▁knowing	-2083
▁respect	-2084
▁serpent	-2085
▁anointed	-2086
▁proclaim	-2087
▁iniquities	-2088
▁remembered	-2089
ffe	-2090
pha	-2091
ued	-2092
▁En	-2093
agog	-2094
▁val	-2095
ected	-2096
ition	-2097
▁Most	-2098
▁seem	-2099
▁shad	-2100
▁Simon	-2101
▁devil	-2102
▁stumb	-2103
▁youth	-2104
▁escape	-2105
▁greater	-2106
▁appeared	-2107
▁multitudes	-2108
▁sacrifices	-2109
cess	-2110
rupt	-2111
▁reb	-2112
▁ris	-2113
nagog	-2114
▁Gaba	-2115
▁serv	-2116
▁birds	-2117
▁hated	-2118
▁trees	-2119
rection	-2120
▁overth	-2121
▁report	-2122
▁twenty	-2123
▁vanity	-2124
▁friends	-2125
▁perfect	-2126
▁prosper	-2127
▁quickly	-2128
▁testify	-2129
▁wonders	-2130
▁families	-2131
My	-2132
▁dri	-2133
rians	-2134
▁beha	-2135
▁bore	-2136
▁deep	-2137
▁dust	-2138
▁half	-2139
▁iron	-2140
▁pill	-2141
▁Ammon	-2142
▁arise	-2143
▁doing	-2144
▁manif	-2145
imelech	-2146
▁helper	-2147
▁person	-2148
▁synagog	-2149
▁everyone	-2150
avi	-2151
▁da	-2152
▁hy	-2153
This	-2154
anus	-2155
pare	-2156
wise	-2157
▁Sin	-2158
▁fav	-2159
▁Aben	-2160
▁drun	-2161
▁slain	-2162
▁tempt	-2163
▁deceit	-2164
▁famine	-2165
▁thence	-2166
▁thirty	-2167
▁Galilee	-2168
▁multiplied	-2169
ax	-2170
tt	-2171
.''	-2172
iss	-2173
ates	-2174
azar	-2175
vern	-2176
ekias	-2177
▁Amen	-2178
▁list	-2179
▁neck	-2180
▁talk	-2181
ealous	-2182
▁carry	-2183
▁evils	-2184
▁north	-2185
▁breast	-2186
▁devour	-2187
▁offered	-2188
▁glorious	-2189
▁teaching	-2190
▁villages	-2191
▁authority	-2192
xt	-2193
pes	-2194
rus	-2195
▁Bo	-2196
▁St	-2197
aped	-2198
arch	-2199
urbs	-2200
▁cover	-2201
▁medit	-2202
▁spake	-2203
▁captiv	-2204
▁speech	-2205
▁proceed	-2206
▁suburbs	-2207
▁apostles	-2208
▁soldiers	-2209
ma	-2210
int	-2211
aced	-2212
aren	-2213
atha	-2214
▁Dan	-2215
▁age	-2216
▁Achi	-2217
▁past	-2218
▁grass	-2219
▁heads	-2220
▁honey	-2221
▁loves	-2222
▁white	-2223
▁condem	-2224
▁dishon	-2225
▁preach	-2226
▁season	-2227
▁endures	-2228
▁reported	-2229
▁everlasting	-2230
).	-2231
let	-2232
now	-2233
ror	-2234
▁Ca	-2235
▁em	-2236
with	-2237
▁Nab	-2238
▁dro	-2239
▁fat	-2240
▁hor	-2241
▁mag	-2242
▁Beth	-2243
▁Savi	-2244
▁fine	-2245
▁sitt	-2246
▁cloth	-2247
▁conce	-2248
▁wrong	-2249
▁wrote	-2250
▁formed	-2251
▁itself	-2252
▁charged	-2253
▁whoever	-2254
▁chariots	-2255
▁abundance	-2256
▁captivity	-2257
▁supplication	-2258
amb	-2259
ges	-2260
hel	-2261
ease	-2262
▁bed	-2263
▁dry	-2264
▁lod	-2265
▁run	-2266
▁too	-2267
▁lift	-2268
▁loud	-2269
▁prev	-2270
▁refu	-2271
▁wish	-2272
asures	-2273
ention	-2274
▁eaten	-2275
▁tears	-2276
▁terri	-2277
▁wives	-2278
▁around	-2279
▁killed	-2280
▁seeing	-2281
▁street	-2282
▁Abenner	-2283
▁confess	-2284
▁looking	-2285
▁perform	-2286
▁consider	-2287
▁rejoiced	-2288
Who	-2289
iel	-2290
▁ve	-2291
▁Gad	-2292
▁cup	-2293
▁sur	-2294
▁yea	-2295
ality	-2296
▁gird	-2297
▁subj	-2298
▁dream	-2299
▁idols	-2300
▁pride	-2301
▁snare	-2302
▁ceased	-2303
▁comple	-2304
▁punish	-2305
▁taught	-2306
▁walked	-2307
▁covered	-2308
▁created	-2309
▁seventh	-2310
▁upright	-2311
▁continue	-2312
▁Abimelech	-2313
end	-2314
ize	-2315
ped	-2316
▁er	-2317
amel	-2318
nant	-2319
▁cru	-2320
▁ran	-2321
▁rel	-2322
ready	-2323
▁Assy	-2324
▁arri	-2325
▁join	-2326
▁lust	-2327
▁next	-2328
▁pour	-2329
▁purp	-2330
ephtha	-2331
▁Herod	-2332
▁innoc	-2333
▁paths	-2334
▁raise	-2335
▁stars	-2336
▁venge	-2337
▁Chanan	-2338
▁astray	-2339
▁golden	-2340
▁served	-2341
▁vision	-2342
▁already	-2343
▁outside	-2344
▁manifest	-2345
▁vengeance	-2346
ere	-2347
▁vi	-2348
athi	-2349
bron	-2350
lies	-2351
oned	-2352
▁adv	-2353
▁dou	-2354
▁ren	-2355
▁hide	-2356
▁adult	-2357
▁belly	-2358
▁breat	-2359
▁cease	-2360
▁horse	-2361
▁makes	-2362
▁happen	-2363
▁prepare	-2364
▁therein	-2365
▁abundant	-2366
▁consumed	-2367
▁stretched	-2368
▁established	-2369
▁unrighteousness	-2370
ec	-2371
ls	-2372
Why	-2373
bed	-2374
sal	-2375
▁aw	-2376
cend	-2377
ited	-2378
mpet	-2379
▁Sar	-2380
▁Whi	-2381
▁Yet	-2382
▁dep	-2383
▁disp	-2384
▁lamp	-2385
▁oath	-2386
▁honor	-2387
▁sware	-2388
▁hungry	-2389
▁plague	-2390
▁shadow	-2391
▁afflict	-2392
▁trumpet	-2393
▁finished	-2394
▁thousands	-2395
▁abomination	-2396
jour	-2397
▁Pil	-2398
▁tor	-2399
iving	-2400
▁Esau	-2401
▁kins	-2402
▁west	-2403
▁Judas	-2404
▁deeds	-2405
▁image	-2406
▁named	-2407
▁ought	-2408
▁Pilate	-2409
▁feared	-2410
▁judges	-2411
▁sojour	-2412
▁observe	-2413
▁promise	-2414
▁towards	-2415
▁strangers	-2416
▁possession	-2417
by	-2418
ety	-2419
irs	-2420
xed	-2421
pass	-2422
▁get	-2423
▁lot	-2424
aring	-2425
orses	-2426
▁That	-2427
▁grow	-2428
▁pain	-2429
▁reap	-2430
▁wast	-2431
▁Amale	-2432
▁appro	-2433
▁grief	-2434
▁ruler	-2435
▁scatt	-2436
▁govern	-2437
▁horses	-2438
▁rulers	-2439
▁Chebron	-2440
▁counten	-2441
▁restore	-2442
▁scribes	-2443
▁numbered	-2444
▁Assyrians	-2445
▁scattered	-2446
IN	-2447
non	-2448
ury	-2449
hall	-2450
irth	-2451
▁nat	-2452
areth	-2453
▁Even	-2454
▁Mary	-2455
▁amaz	-2456
▁enqu	-2457
▁fill	-2458
▁gard	-2459
▁requ	-2460
▁eight	-2461
▁names	-2462
▁attend	-2463
▁failed	-2464
▁rather	-2465
▁riches	-2466
▁clothed	-2467
▁forsake	-2468
▁oppress	-2469
▁remnant	-2470
▁baptized	-2471
▁rejected	-2472
▁committed	-2473
▁messengers	-2474
It	-2475
We	-2476
ee	-2477
aan	-2478
asso	-2479
vous	-2480
▁Jeb	-2481
▁Mic	-2482
▁ins	-2483
▁mil	-2484
udden	-2485
▁Adam	-2486
▁beat	-2487
▁boat	-2488
arents	-2489
▁Chald	-2490
▁parts	-2491
▁widow	-2492
▁confid	-2493
▁family	-2494
▁letter	-2495
▁loaves	-2496
▁perver	-2497
▁profit	-2498
▁jealous	-2499
▁kinsman	-2500
▁knowest	-2501
▁parents	-2502
▁service	-2503
▁precious	-2504
▁household	-2505
▁countenance	-2506
ene	-2507
iam	-2508
acha	-2509
aded	-2510
uben	-2511
▁Tha	-2512
▁spr	-2513
▁High	-2514
▁maid	-2515
▁Micha	-2516
▁bonds	-2517
▁bride	-2518
ication	-2519
▁beauty	-2520
▁buried	-2521
▁clouds	-2522
▁endure	-2523
▁fourth	-2524
▁preser	-2525
▁speaks	-2526
▁corrupt	-2527
▁patient	-2528
▁remains	-2529
▁sitting	-2530
▁distress	-2531
▁fountain	-2532
▁moreover	-2533
▁yourself	-2534
▁Wherefore	-2535
▁satisfied	-2536
▁wonderful	-2537
▁possessions	-2538
Don	-2539
ber	-2540
ift	-2541
lst	-2542
▁At	-2543
▁El	-2544
eans	-2545
icho	-2546
maid	-2547
roud	-2548
▁Mad	-2549
▁From	-2550
▁aton	-2551
▁doth	-2552
▁moon	-2553
▁puri	-2554
▁rele	-2555
▁wash	-2556
▁Ruben	-2557
▁groan	-2558
▁mourn	-2559
assover	-2560
uddenly	-2561
▁excell	-2562
▁captain	-2563
▁prayers	-2564
iah	-2565
brew	-2566
ires	-2567
mber	-2568
rias	-2569
ries	-2570
▁Bas	-2571
▁Car	-2572
▁bad	-2573
▁obt	-2574
▁Eust	-2575
▁feed	-2576
▁milk	-2577
▁obey	-2578
▁root	-2579
▁sand	-2580
▁Devil	-2581
▁doors	-2582
▁grant	-2583
▁liken	-2584
▁plain	-2585
▁proud	-2586
aughter	-2587
oreover	-2588
servant	-2589
▁Hebrew	-2590
▁bodies	-2591
▁breath	-2592
▁burden	-2593
▁choose	-2594
▁comfor	-2595
▁former	-2596
▁hither	-2597
▁months	-2598
▁unless	-2599
▁Jericho	-2600
▁escaped	-2601
▁glorify	-2602
▁harvest	-2603
▁grievous	-2604
▁handmaid	-2605
▁mourning	-2606
▁patience	-2607
▁Chaldeans	-2608
▁afterwards	-2609
▁appearance	-2610
▁instruction	-2611
▁OF	-2612
▁el	-2613
hose	-2614
▁Ara	-2615
▁dec	-2616
▁occ	-2617
aving	-2618
ility	-2619
ometh	-2620
▁Many	-2621
▁With	-2622
▁bran	-2623
▁mark	-2624
erable	-2625
▁Shall	-2626
▁offic	-2627
▁spare	-2628
▁suffe	-2629
▁teeth	-2630
▁regard	-2631
▁stayed	-2632
▁virgin	-2633
▁burning	-2634
▁measure	-2635
▁streets	-2636
▁touched	-2637
urrection	-2638
▁merciful	-2639
▁offering	-2640
▁witnesses	-2641
▁recompense	-2642
ala	-2643
min	-2644
oll	-2645
rac	-2646
ames	-2647
oint	-2648
omes	-2649
▁cra	-2650
▁exh	-2651
▁pal	-2652
▁ram	-2653
▁Heli	-2654
▁bond	-2655
▁flow	-2656
▁gain	-2657
▁lamb	-2658
▁pity	-2659
▁tres	-2660
▁viol	-2661
avened	-2662
▁along	-2663
▁close	-2664
▁needy	-2665
ameless	-2666
▁brings	-2667
▁favour	-2668
▁making	-2669
▁spoils	-2670
▁divided	-2671
▁herself	-2672
▁incense	-2673
▁whereas	-2674
▁Moreover	-2675
▁clothing	-2676
▁suddenly	-2677
▁trespass	-2678
▁atonement	-2679
▁blameless	-2680
▁justified	-2681
du	-2682
▁;	-2683
cho	-2684
cus	-2685
ial	-2686
sol	-2687
urt	-2688
ases	-2689
empt	-2690
iven	-2691
part	-2692
▁cre	-2693
▁met	-2694
aches	-2695
ailed	-2696
chief	-2697
▁Turn	-2698
▁best	-2699
▁monk	-2700
▁murd	-2701
▁oxen	-2702
ibanus	-2703
▁array	-2704
▁arrow	-2705
▁flame	-2706
▁risen	-2707
▁smoke	-2708
▁wheat	-2709
▁Bethle	-2710
▁amazed	-2711
▁border	-2712
▁during	-2713
▁humble	-2714
▁hunger	-2715
▁prince	-2716
▁scatter	-2717
▁forgotten	-2718
▁diligently	-2719
▁disobedient	-2720
cy	-2721
ug	-2722
bul	-2723
cil	-2724
eon	-2725
its	-2726
ook	-2727
▁Ez	-2728
aken	-2729
edge	-2730
nest	-2731
osom	-2732
▁May	-2733
▁emb	-2734
▁sum	-2735
ander	-2736
asphe	-2737
▁Caes	-2738
▁afar	-2739
▁army	-2740
▁coll	-2741
▁drag	-2742
▁fish	-2743
▁lost	-2744
▁meat	-2745
▁resc	-2746
▁sack	-2747
▁song	-2748
▁stor	-2749
▁Phili	-2750
▁accus	-2751
▁fifty	-2752
▁keeps	-2753
▁memor	-2754
▁overc	-2755
▁short	-2756
▁spear	-2757
▁takes	-2758
▁wings	-2759
▁wound	-2760
▁Amalec	-2761
▁Heaven	-2762
▁Madiam	-2763
▁demons	-2764
▁shaken	-2765
▁blasphe	-2766
▁desires	-2767
▁hearing	-2768
▁parable	-2769
▁dwelling	-2770
▁suffered	-2771
▁thoughts	-2772
▁following	-2773
▁acceptable	-2774
▁habitation	-2775
sp	-2776
ara	-2777
hor	-2778
jah	-2779
shi	-2780
▁Yes	-2781
▁env	-2782
▁inv	-2783
▁sel	-2784
▁sow	-2785
iment	-2786
issed	-2787
rance	-2788
▁Baet	-2789
▁Cher	-2790
▁bull	-2791
▁fing	-2792
▁form	-2793
▁herd	-2794
▁psal	-2795
▁seat	-2796
▁shar	-2797
reated	-2798
▁Bring	-2799
▁Samar	-2800
▁daily	-2801
▁least	-2802
▁swear	-2803
edience	-2804
▁behalf	-2805
▁cometh	-2806
▁garden	-2807
▁rivers	-2808
▁silent	-2809
▁whilst	-2810
▁worshi	-2811
▁Chanaan	-2812
▁forgive	-2813
▁pleased	-2814
▁commands	-2815
▁forgiven	-2816
▁preached	-2817
▁provoked	-2818
▁synagogue	-2819
▁repentance	-2820
▁circumcision	-2821
▁resurrection	-2822
▁transgressors	-2823
art	-2824
bon	-2825
lem	-2826
mel	-2827
▁eag	-2828
▁sab	-2829
▁sor	-2830
▁top	-2831
▁Syri	-2832
▁disg	-2833
▁soon	-2834
athius	-2835
morrow	-2836
▁Their	-2837
▁flour	-2838
▁often	-2839
▁quiet	-2840
▁scour	-2841
▁seeks	-2842
▁throw	-2843
▁touch	-2844
▁pillar	-2845
▁thrown	-2846
▁wouldn	-2847
▁counted	-2848
▁earnest	-2849
▁purpose	-2850
▁sabbath	-2851
▁gladness	-2852
▁remained	-2853
▁Scripture	-2854
▁creatures	-2855
▁strengthened	-2856
ys	-2857
che	-2858
ell	-2859
son	-2860
atan	-2861
much	-2862
rust	-2863
▁Did	-2864
▁Ged	-2865
▁See	-2866
▁bas	-2867
▁fig	-2868
▁inj	-2869
▁tax	-2870
eterm	-2871
mbers	-2872
▁Fear	-2873
▁bind	-2874
▁cruc	-2875
▁else	-2876
▁fair	-2877
▁furn	-2878
▁male	-2879
▁prud	-2880
▁shed	-2881
▁unle	-2882
▁bosom	-2883
▁coast	-2884
▁hills	-2885
▁inter	-2886
▁stead	-2887
▁tremb	-2888
▁abound	-2889
▁bright	-2890
▁choice	-2891
▁determ	-2892
▁dwells	-2893
▁flocks	-2894
▁refuge	-2895
▁sanctu	-2896
▁Ezekias	-2897
▁defiled	-2898
▁bringing	-2899
▁mischief	-2900
▁receives	-2901
▁comforted	-2902
▁compassed	-2903
▁Eustathius	-2904
▁punishment	-2905
▁testimonies	-2906
Do	-2907
TH	-2908
ier	-2909
och	-2910
odu	-2911
▁Im	-2912
▁Me	-2913
▁Ne	-2914
akim	-2915
mell	-2916
ompl	-2917
reed	-2918
▁Mel	-2919
▁Pro	-2920
▁bus	-2921
▁won	-2922
ament	-2923
aries	-2924
▁Levi	-2925
▁Your	-2926
▁cust	-2927
▁exam	-2928
▁grew	-2929
▁hail	-2930
▁home	-2931
▁sees	-2932
▁stir	-2933
▁used	-2934
▁Baeth	-2935
▁Basan	-2936
▁chast	-2937
▁domin	-2938
▁faces	-2939
▁fools	-2940
▁lying	-2941
theless	-2942
▁advers	-2943
▁exhort	-2944
▁lament	-2945
▁listen	-2946
▁tables	-2947
▁Libanus	-2948
▁accompl	-2949
▁arrived	-2950
▁grieved	-2951
▁raiment	-2952
▁release	-2953
▁beautiful	-2954
▁continued	-2955
▁establish	-2956
▁determined	-2957
--	-2958
bt	-2959
eep	-2960
ets	-2961
leb	-2962
▁Ty	-2963
adab	-2964
ging	-2965
inen	-2966
phan	-2967
▁Ant	-2968
▁Del	-2969
▁Rom	-2970
▁ban	-2971
▁ele	-2972
▁hum	-2973
▁int	-2974
▁pet	-2975
▁sex	-2976
joice	-2977
onoun	-2978
osthe	-2979
verty	-2980
▁Gree	-2981
▁Jess	-2982
▁Samp	-2983
▁Will	-2984
▁acts	-2985
▁empt	-2986
▁harm	-2987
▁held	-2988
▁magn	-2989
▁murm	-2990
▁rebu	-2991
▁road	-2992
▁tort	-2993
▁Again	-2994
▁broke	-2995
▁cross	-2996
▁exist	-2997
▁hoped	-2998
▁infor	-2999
▁persu	-3000
▁produ	-3001
▁sharp	-3002
▁swall	-3003
▁caught	-3004
▁fought	-3005
▁necess	-3006
▁orphan	-3007
▁someth	-3008
▁thorns	-3009
▁Sampson	-3010
▁poverty	-3011
▁pronoun	-3012
▁thirsty	-3013
▁village	-3014
▁willing	-3015
▁dominion	-3016
▁governor	-3017
▁innocent	-3018
▁ordinance	-3019
▁sanctuary	-3020
▁something	-3021
▁treasures	-3022
▁uncircumc	-3023
▁wherewith	-3024
▁assemblies	-3025
OR	-3026
Let	-3027
ama	-3028
irm	-3029
ran	-3030
use	-3031
▁Ma	-3032
olom	-3033
peak	-3034
ubim	-3035
▁bra	-3036
▁buy	-3037
▁dam	-3038
▁exp	-3039
▁lau	-3040
under	-3041
ursed	-3042
▁Have	-3043
▁Thee	-3044
▁crus	-3045
▁dire	-3046
▁firm	-3047
▁harl	-3048
▁harp	-3049
▁prop	-3050
▁spot	-3051
asmuch	-3052
olomon	-3053
▁Satan	-3054
▁Those	-3055
▁folly	-3056
▁hears	-3057
▁horns	-3058
▁linen	-3059
▁oppos	-3060
▁Gedeon	-3061
▁Philip	-3062
▁double	-3063
▁maketh	-3064
▁pursue	-3065
▁spring	-3066
▁Amorite	-3067
▁Saviour	-3068
▁Solomon	-3069
▁Whoever	-3070
▁besides	-3071
▁council	-3072
▁delight	-3073
▁descend	-3074
▁justice	-3075
▁kindled	-3076
▁labours	-3077
▁seeking	-3078
▁seventy	-3079
▁smitten	-3080
▁devoured	-3081
▁pleasing	-3082
▁secretly	-3083
▁Chananite	-3084
▁nakedness	-3085
▁wherefore	-3086
▁sufferings	-3087
▁throughout	-3088
▁unleavened	-3089
bb	-3090
oz	-3091
fty	-3092
arge	-3093
live	-3094
▁Jab	-3095
▁Not	-3096
▁Sed	-3097
▁Sel	-3098
cloth	-3099
stood	-3100
▁Make	-3101
▁anim	-3102
▁defe	-3103
▁exec	-3104
▁sail	-3105
▁suff	-3106
▁yoke	-3107
▁James	-3108
▁Never	-3109
▁While	-3110
▁cheer	-3111
▁drunk	-3112
▁exalt	-3113
▁immor	-3114
▁pract	-3115
▁store	-3116
▁tried	-3117
▁crying	-3118
▁cursed	-3119
▁region	-3120
▁seized	-3121
▁strife	-3122
▁Levites	-3123
▁condemn	-3124
▁praises	-3125
▁reveren	-3126
▁spirits	-3127
▁Amorites	-3128
▁Bethleem	-3129
▁adultery	-3130
▁deceived	-3131
▁disciple	-3132
▁prophesy	-3133
▁separate	-3134
▁treasure	-3135
▁sackcloth	-3136
▁slaughter	-3137
▁stumbling	-3138
▁testified	-3139
▁Scriptures	-3140
▁foundation	-3141
Go	-3142
ME	-3143
ari	-3144
dle	-3145
kes	-3146
ocr	-3147
ogn	-3148
thi	-3149
▁vo	-3150
pocr	-3151
ters	-3152
▁Gai	-3153
▁Jew	-3154
▁cam	-3155
▁dif	-3156
▁due	-3157
▁lep	-3158
▁rid	-3159
icing	-3160
▁Galg	-3161
▁Lamb	-3162
▁heav	-3163
▁mort	-3164
▁salt	-3165
▁tast	-3166
ounted	-3167
ourage	-3168
▁Hades	-3169
▁apart	-3170
▁greet	-3171
▁trave	-3172
▁damsel	-3173
▁eating	-3174
▁kissed	-3175
▁nought	-3176
▁recogn	-3177
▁waited	-3178
▁Hearken	-3179
▁Jephtha	-3180
▁chamber	-3181
▁changed	-3182
▁heathen	-3183
▁praying	-3184
▁walking	-3185
▁younger	-3186
▁Cherubim	-3187
▁multiply	-3188
▁perceive	-3189
▁perceived	-3190
▁Philistine	-3191
▁confounded	-3192
▁Immediately	-3193
ER	-3194
ON	-3195
lo	-3196
▁.	-3197
abb	-3198
ana	-3199
ked	-3200
ott	-3201
raw	-3202
▁Ch	-3203
arel	-3204
arer	-3205
haps	-3206
road	-3207
ware	-3208
▁Arab	-3209
▁Name	-3210
▁scar	-3211
▁seal	-3212
▁self	-3213
▁stat	-3214
▁brass	-3215
▁brook	-3216
▁chose	-3217
▁court	-3218
▁drank	-3219
▁drive	-3220
▁elder	-3221
▁empty	-3222
▁godly	-3223
▁hates	-3224
▁occas	-3225
▁plead	-3226
▁storm	-3227
▁tents	-3228
▁Jessae	-3229
▁abroad	-3230
▁armour	-3231
▁begged	-3232
▁fields	-3233
▁hypocr	-3234
▁profan	-3235
▁bondage	-3236
▁captive	-3237
▁company	-3238
▁despise	-3239
▁forward	-3240
▁thither	-3241
▁believes	-3242
▁captains	-3243
▁eastward	-3244
▁goodness	-3245
▁perished	-3246
▁prevailed	-3247
af	-3248
fo	-3249
agg	-3250
cks	-3251
ism	-3252
mit	-3253
nas	-3254
oli	-3255
abas	-3256
angu	-3257
apha	-3258
ield	-3259
room	-3260
▁Dam	-3261
▁Sal	-3262
▁dew	-3263
▁ign	-3264
▁ill	-3265
▁rus	-3266
▁use	-3267
There	-3268
Where	-3269
eness	-3270
▁Barn	-3271
▁ends	-3272
▁horn	-3273
▁leng	-3274
▁lies	-3275
▁myst	-3276
▁play	-3277
▁sell	-3278
▁sore	-3279
▁wear	-3280
▁Cades	-3281
▁Greet	-3282
▁advan	-3283
▁depth	-3284
▁goats	-3285
▁langu	-3286
▁olive	-3287
▁seize	-3288
▁tenth	-3289
▁thief	-3290
▁threw	-3291
▁truly	-3292
▁waste	-3293
▁Gabaon	-3294
▁betray	-3295
▁custom	-3296
▁forces	-3297
▁search	-3298
▁taking	-3299
▁terror	-3300
▁washed	-3301
▁weight	-3302
▁apparel	-3303
▁consume	-3304
▁courage	-3305
▁pursued	-3306
▁stretch	-3307
▁wounded	-3308
▁Barnabas	-3309
▁Jephthae	-3310
▁branches	-3311
▁declared	-3312
▁forsaken	-3313
▁crucified	-3314
▁increased	-3315
▁shepherds	-3316
▁suffering	-3317
▁confidence	-3318
▁sanctified	-3319
▁foundations	-3320
▁straightway	-3321
▁Nevertheless	-3322
fy	-3323
How	-3324
hom	-3325
osp	-3326
▁Ep	-3327
Take	-3328
ares	-3329
fast	-3330
idon	-3331
teen	-3332
▁Nay	-3333
▁Sad	-3334
▁dar	-3335
▁equ	-3336
▁isn	-3337
▁saf	-3338
groom	-3339
ution	-3340
▁Gosp	-3341
▁Hast	-3342
▁Some	-3343
▁news	-3344
▁veil	-3345
eacher	-3346
▁Arise	-3347
▁Sidon	-3348
▁birth	-3349
▁clear	-3350
▁deser	-3351
▁front	-3352
▁grave	-3353
▁guide	-3354
▁ignor	-3355
▁overt	-3356
▁quest	-3357
▁Elijah	-3358
▁Having	-3359
▁please	-3360
▁shewed	-3361
▁Neither	-3362
▁breasts	-3363
▁desired	-3364
▁furnace	-3365
▁learned	-3366
▁plagues	-3367
▁planted	-3368
▁gracious	-3369
▁increase	-3370
▁likewise	-3371
▁opposite	-3372
▁unjustly	-3373
▁rejoicing	-3374
;'	-3375
aal	-3376
ael	-3377
ley	-3378
▁Pl	-3379
Most	-3380
alon	-3381
emin	-3382
erty	-3383
onia	-3384
reth	-3385
secr	-3386
▁Ele	-3387
▁Our	-3388
▁Par	-3389
▁Pra	-3390
▁dog	-3391
▁fly	-3392
▁nin	-3393
▁sim	-3394
▁tit	-3395
arrow	-3396
▁Only	-3397
▁acqu	-3398
▁cave	-3399
▁cent	-3400
▁crow	-3401
▁dise	-3402
▁dism	-3403
▁eats	-3404
▁incl	-3405
▁orac	-3406
▁sits	-3407
▁weap	-3408
spring	-3409
▁Apost	-3410
▁Chett	-3411
▁Damas	-3412
▁Speak	-3413
▁ashes	-3414
▁asses	-3415
▁drawn	-3416
▁dried	-3417
▁goods	-3418
▁shine	-3419
▁smell	-3420
▁speed	-3421
▁walls	-3422
▁Gospel	-3423
▁Nathan	-3424
▁bought	-3425
▁burned	-3426
▁course	-3427
▁divide	-3428
▁enough	-3429
▁graven	-3430
▁helped	-3431
▁images	-3432
▁length	-3433
▁placed	-3434
▁rebuke	-3435
▁sexual	-3436
▁threat	-3437
▁widows	-3438
▁Rejoice	-3439
▁Samaria	-3440
▁clothes	-3441
▁consecr	-3442
▁drunken	-3443
▁general	-3444
▁mention	-3445
▁reigned	-3446
▁subject	-3447
▁trusted	-3448
▁vessels	-3449
▁whither	-3450
▁holiness	-3451
▁memorial	-3452
▁perverse	-3453
▁redeemed	-3454
▁troubles	-3455
▁weakness	-3456
▁whenever	-3457
▁overthrow	-3458
▁persecute	-3459
▁instructed	-3460
▁prosperity	-3461
▁uncleanness	-3462
▁transgressor	-3463
▁transgressions	-3464
vi	-3465
▁z	-3466
eps	-3467
sha	-3468
whi	-3469
▁(?	-3470
▁Az	-3471
Come	-3472
alks	-3473
chor	-3474
dume	-3475
held	-3476
most	-3477
osor	-3478
ross	-3479
vere	-3480
▁Art	-3481
▁Bet	-3482
▁Naz	-3483
▁Say	-3484
arted	-3485
place	-3486
▁Booz	-3487
▁Tyre	-3488
▁Whom	-3489
▁blot	-3490
▁case	-3491
▁conc	-3492
▁hurt	-3493
▁lack	-3494
▁quen	-3495
▁ruin	-3496
▁trav	-3497
giving	-3498
ifully	-3499
overed	-3500
ttered	-3501
▁Idume	-3502
▁Jebus	-3503
▁Syria	-3504
▁abide	-3505
▁dealt	-3506
▁desir	-3507
▁falls	-3508
▁grain	-3509
▁large	-3510
▁price	-3511
▁state	-3512
▁thres	-3513
▁yield	-3514
▁barley	-3515
▁barren	-3516
▁causes	-3517
▁cleans	-3518
▁consci	-3519
▁harlot	-3520
▁health	-3521
▁inside	-3522
▁sprink	-3523
▁whence	-3524
▁fasting	-3525
▁humbled	-3526
▁perhaps	-3527
▁teacher	-3528
▁Damascus	-3529
▁advanced	-3530
▁hardened	-3531
▁jealousy	-3532
▁sickness	-3533
▁excellent	-3534
▁inhabited	-3535
▁offspring	-3536
▁bridegroom	-3537
▁understood	-3538
▁abominations	-3539
ix	-3540
don	-3541
fru	-3542
char	-3543
hest	-3544
inks	-3545
irac	-3546
leep	-3547
sing	-3548
▁Lab	-3549
▁Tim	-3550
▁ext	-3551
▁fet	-3552
ables	-3553
adise	-3554
ining	-3555
iting	-3556
urely	-3557
▁Anti	-3558
▁Chus	-3559
▁Ethi	-3560
▁Geth	-3561
▁bask	-3562
▁braz	-3563
▁edge	-3564
▁fain	-3565
▁feel	-3566
▁virt	-3567
stance	-3568
▁Amnon	-3569
▁Gabaa	-3570
▁Judge	-3571
▁Maced	-3572
▁Masse	-3573
▁added	-3574
▁lusts	-3575
▁steal	-3576
▁tower	-3577
▁tread	-3578
▁walks	-3579
▁attack	-3580
▁clothe	-3581
▁finger	-3582
▁giving	-3583
▁latter	-3584
▁lawful	-3585
▁minist	-3586
▁resist	-3587
▁baptism	-3588
▁instead	-3589
▁lawless	-3590
▁peoples	-3591
▁stumble	-3592
▁uncover	-3593
▁uttered	-3594
▁disgrace	-3595
▁distance	-3596
▁greatest	-3597
▁instruct	-3598
▁minister	-3599
▁possible	-3600
▁sanctify	-3601
▁conceived	-3602
▁earnestly	-3603
▁greatness	-3604
▁inherited	-3605
▁reverence	-3606
▁spiritual	-3607
▁whosoever	-3608
▁conscience	-3609
▁immorality	-3610
▁overthrown	-3611
▁remembrance	-3612
▁transgressed	-3613
But	-3614
For	-3615
ctr	-3616
har	-3617
phi	-3618
ppa	-3619
rer	-3620
▁Ap	-3621
▁cu	-3622
▁pi	-3623
ands	-3624
hand	-3625
head	-3626
ulon	-3627
utes	-3628
▁Cho	-3629
▁Ese	-3630
▁Sea	-3631
▁Yea	-3632
▁sad	-3633
▁tid	-3634
▁unb	-3635
▁woe	-3636
▁Edom	-3637
▁Send	-3638
▁aven	-3639
▁bury	-3640
▁forn	-3641
▁lame	-3642
▁mock	-3643
▁faint	-3644
▁fully	-3645
▁laugh	-3646
▁relie	-3647
▁scorn	-3648
▁slumb	-3649
▁swift	-3650
▁withd	-3651
▁Achito	-3652
▁Esebon	-3653
▁Idumea	-3654
▁brazen	-3655
▁concub	-3656
▁counse	-3657
▁hasted	-3658
▁height	-3659
▁joined	-3660
▁reject	-3661
▁sealed	-3662
▁Deliver	-3663
▁However	-3664
▁healing	-3665
▁reached	-3666
▁rebuked	-3667
▁reprove	-3668
▁tidings	-3669
▁deserted	-3670
▁heavenly	-3671
▁likeness	-3672
▁meditate	-3673
▁obtained	-3674
▁overcome	-3675
▁terrible	-3676
▁Macedonia	-3677
▁dishonour	-3678
▁preaching	-3679
▁preserved	-3680
▁substance	-3681
▁abundantly	-3682
▁persecuted	-3683
▁worshipped	-3684
▁afflictions	-3685
▁accomplished	-3686
go	-3687
ING	-3688
ORD	-3689
ade	-3690
een	-3691
hys	-3692
rib	-3693
tic	-3694
▁Ph	-3695
They	-3696
When	-3697
ably	-3698
ault	-3699
ayed	-3700
othy	-3701
rest	-3702
▁Acc	-3703
▁Are	-3704
▁Day	-3705
▁Mac	-3706
▁amb	-3707
▁anx	-3708
▁bri	-3709
▁enl	-3710
▁kne	-3711
▁loc	-3712
▁mom	-3713
▁pow	-3714
▁rev	-3715
▁sta	-3716
▁try	-3717
cient	-3718
ening	-3719
ician	-3720
ifies	-3721
ishes	-3722
▁Baal	-3723
▁Look	-3724
▁Rise	-3725
▁Seon	-3726
▁carc	-3727
▁clay	-3728
▁deny	-3729
▁rent	-3730
▁room	-3731
▁sett	-3732
▁wont	-3733
ection	-3734
isance	-3735
rother	-3736
▁Grace	-3737
▁Other	-3738
▁doctr	-3739
▁fifth	-3740
▁lodge	-3741
▁marri	-3742
▁prote	-3743
▁repay	-3744
▁slept	-3745
▁worse	-3746
▁yours	-3747
▁Baruch	-3748
▁Caesar	-3749
▁Carmel	-3750
▁Isaiah	-3751
▁Noemin	-3752
▁asleep	-3753
▁change	-3754
▁coasts	-3755
▁moment	-3756
▁morrow	-3757
▁perpet	-3758
▁Eleazar	-3759
▁Galgala	-3760
▁Timothy	-3761
▁bearing	-3762
▁members	-3763
▁produce	-3764
▁virgins	-3765
▁weapons	-3766
▁workers	-3767
▁Paradise	-3768
▁Passover	-3769
▁boldness	-3770
▁petition	-3771
▁speedily	-3772
▁surround	-3773
▁companion	-3774
▁condemned	-3775
▁falsehood	-3776
▁messenger	-3777
▁persuaded	-3778
▁shoulders	-3779
▁steadfast	-3780
▁worshiped	-3781
▁bitterness	-3782
▁desolation	-3783
▁circumcised	-3784
ND	-3785
do	-3786
mar	-3787
ofs	-3788
rha	-3789
ung	-3790
▁Cy	-3791
akes	-3792
chem	-3793
chus	-3794
heth	-3795
mand	-3796
rees	-3797
rosy	-3798
ruck	-3799
▁Bel	-3800
▁Mag	-3801
▁Mar	-3802
▁Ner	-3803
▁Red	-3804
▁Sil	-3805
▁ali	-3806
▁hen	-3807
▁kid	-3808
▁nob	-3809
▁var	-3810
▁vow	-3811
ansom	-3812
asing	-3813
epart	-3814
olias	-3815
ually	-3816
wever	-3817
▁Nabu	-3818
▁gent	-3819
▁heap	-3820
▁ming	-3821
▁noon	-3822
▁quar	-3823
▁rebe	-3824
▁roll	-3825
abulon	-3826
▁Apoll	-3827
▁Jonas	-3828
▁Laban	-3829
▁allow	-3830
▁bowed	-3831
▁contr	-3832
▁hadst	-3833
▁loins	-3834
▁lowly	-3835
▁ships	-3836
▁sixty	-3837
▁turns	-3838
▁weary	-3839
justice	-3840
▁Praise	-3841
▁Savior	-3842
▁Though	-3843
▁beside	-3844
▁haught	-3845
▁mortal	-3846
▁nights	-3847
▁permit	-3848
▁ransom	-3849
▁rested	-3850
▁tender	-3851
▁tribul	-3852
▁Antioch	-3853
▁becomes	-3854
▁contend	-3855
▁entreat	-3856
▁fulfill	-3857
▁however	-3858
▁leprosy	-3859
▁passing	-3860
▁persons	-3861
▁pillars	-3862
▁prevail	-3863
▁prudent	-3864
▁scarlet	-3865
▁watched	-3866
▁Godolias	-3867
▁Nazareth	-3868
▁Sedekias	-3869
▁counsels	-3870
▁enquired	-3871
▁fullness	-3872
▁humility	-3873
▁officers	-3874
▁overtake	-3875
▁stronger	-3876
▁injustice	-3877
▁judgement	-3878
▁miserable	-3879
▁obeisance	-3880
▁proclaimed	-3881
▁synagogues	-3882
mn	-3883
su	-3884
ETH	-3885
God	-3886
act	-3887
app	-3888
ils	-3889
ium	-3890
ura	-3891
▁Ev	-3892
▁Ge	-3893
eace	-3894
mers	-3895
oted	-3896
peci	-3897
phes	-3898
rent	-3899
roat	-3900
uish	-3901
uous	-3902
▁Gaz	-3903
▁Ger	-3904
▁Mem	-3905
▁Sis	-3906
▁boy	-3907
▁enj	-3908
▁isl	-3909
▁mal	-3910
▁net	-3911
▁ste	-3912
▁Elis	-3913
▁Ruth	-3914
▁alar	-3915
▁arms	-3916
▁dawn	-3917
▁debt	-3918
▁dies	-3919
▁goat	-3920
▁imag	-3921
▁lend	-3922
▁meek	-3923
▁race	-3924
▁snow	-3925
▁star	-3926
▁suck	-3927
▁trad	-3928
itable	-3929
itions	-3930
urance	-3931
▁Nabal	-3932
▁ascri	-3933
▁awake	-3934
▁black	-3935
▁canst	-3936
▁coals	-3937
▁covet	-3938
▁error	-3939
▁goest	-3940
▁haste	-3941
▁labor	-3942
▁mirac	-3943
▁rocks	-3944
▁swore	-3945
▁thick	-3946
ourable	-3947
▁Baeths	-3948
▁Chaleb	-3949
▁camels	-3950
▁cleave	-3951
▁defile	-3952
▁direct	-3953
▁dragon	-3954
▁driven	-3955
▁either	-3956
▁locust	-3957
▁lodged	-3958
▁office	-3959
▁safety	-3960
▁severe	-3961
▁snares	-3962
▁throat	-3963
▁thrust	-3964
▁wander	-3965
pecially	-3966
▁Michael	-3967
▁Nephtha	-3968
▁ancient	-3969
▁centuri	-3970
▁complet	-3971
▁invited	-3972
▁knoweth	-3973
▁masters	-3974
▁matters	-3975
▁mystery	-3976
▁praised	-3977
▁sayings	-3978
▁soldier	-3979
▁spoiled	-3980
▁tempted	-3981
▁torment	-3982
▁drinking	-3983
▁marriage	-3984
▁marveled	-3985
▁occasion	-3986
▁passover	-3987
▁punished	-3988
▁assembled	-3989
▁deceitful	-3990
▁sorrowful	-3991
▁trembling	-3992
▁commanding	-3993
▁fellowship	-3994
▁neighbours	-3995
▁temptation	-3996
▁ungodliness	-3997
bl	-3998
Yes	-3999
ody	-4000
ory	-4001
reb	-4002
uia	-4003
▁ep	-4004
aket	-4005
ater	-4006
enth	-4007
esty	-4008
hite	-4009
odom	-4010
ored	-4011
▁Ael	-4012
▁Hel	-4013
▁ced	-4014
▁eng	-4015
▁eun	-4016
▁got	-4017
▁gre	-4018
▁hun	-4019
▁plu	-4020
▁pot	-4021
▁tal	-4022
▁wol	-4023
ately	-4024
ester	-4025
kened	-4026
press	-4027
▁Aser	-4028
▁alms	-4029
▁blem	-4030
▁expl	-4031
▁hell	-4032
▁hire	-4033
▁hymn	-4034
▁kiss	-4035
▁lose	-4036
▁oint	-4037
▁poll	-4038
▁post	-4039
▁prey	-4040
▁sear	-4041
▁vows	-4042
▁week	-4043
aketas	-4044
astery	-4045
fruits	-4046
▁Chusi	-4047
▁Great	-4048
▁Jabis	-4049
▁Mount	-4050
▁Sodom	-4051
▁aband	-4052
▁borne	-4053
▁enjoy	-4054
▁grown	-4055
▁guilt	-4056
▁lambs	-4057
▁lords	-4058
▁prove	-4059
▁recon	-4060
▁staff	-4061
▁value	-4062
▁winds	-4063
▁wroth	-4064
Blessed	-4065
Teacher	-4066
▁Ethiop	-4067
▁Sisara	-4068
▁Sychem	-4069
▁beware	-4070
▁eunuch	-4071
▁grapes	-4072
▁infirm	-4073
▁interp	-4074
▁leaves	-4075
▁purple	-4076
▁summon	-4077
▁Baethel	-4078
▁animals	-4079
▁collect	-4080
▁consent	-4081
▁crushed	-4082
▁dressed	-4083
▁endured	-4084
▁enquire	-4085
▁mercies	-4086
▁prophes	-4087
▁provoke	-4088
▁someone	-4089
▁travail	-4090
▁working	-4091
▁Chettite	-4092
▁Plaketas	-4093
▁boasting	-4094
▁careless	-4095
▁contrary	-4096
▁covering	-4097
▁doctrine	-4098
▁dwellers	-4099
▁kingdoms	-4100
▁language	-4101
▁purified	-4102
▁question	-4103
▁withered	-4104
▁wouldest	-4105
▁attention	-4106
▁belonging	-4107
▁godliness	-4108
▁perpetual	-4109
▁pronounce	-4110
▁vineyards	-4111
▁especially	-4112
▁sacrificed	-4113
▁uncircumcised	-4114
di	-4115
wo	-4116
ze	-4117
aly	-4118
ash	-4119
gar	-4120
hop	-4121
zed	-4122
▁Og	-4123
▁Ra	-4124
▁ev	-4125
▁ma	-4126
ards	-4127
atch	-4128
aved	-4129
eman	-4130
erce	-4131
lter	-4132
meon	-4133
phat	-4134
rain	-4135
rite	-4136
▁(?)	-4137
▁Pre	-4138
▁Set	-4139
▁cit	-4140
▁cri	-4141
▁eas	-4142
▁fur	-4143
▁lad	-4144
▁orn	-4145
herez	-4146
ishop	-4147
stone	-4148
which	-4149
▁Nine	-4150
▁Sina	-4151
▁Tham	-4152
▁abst	-4153
▁affe	-4154
▁cold	-4155
▁dang	-4156
▁dove	-4157
▁dung	-4158
▁fort	-4159
▁hang	-4160
▁lots	-4161
▁melt	-4162
▁palm	-4163
▁pest	-4164
▁rams	-4165
▁reck	-4166
athaim	-4167
azarus	-4168
teenth	-4169
▁Barac	-4170
▁Count	-4171
▁Ephes	-4172
▁Since	-4173
▁calam	-4174
▁cubit	-4175
▁fault	-4176
▁flood	-4177
▁force	-4178
▁heavy	-4179
▁hence	-4180
▁herds	-4181
▁lions	-4182
▁looks	-4183
▁mirth	-4184
▁noble	-4185
▁pains	-4186
▁piece	-4187
▁steps	-4188
▁thund	-4189
▁today	-4190
▁vowed	-4191
▁wages	-4192
ffering	-4193
hearted	-4194
rothers	-4195
vantage	-4196
▁Anchus	-4197
▁Daniel	-4198
▁Levite	-4199
▁Pherez	-4200
▁Prophe	-4201
▁anoint	-4202
▁boldly	-4203
▁expect	-4204
▁fierce	-4205
▁flower	-4206
▁forest	-4207
▁indign	-4208
▁inward	-4209
▁middle	-4210
▁obtain	-4211
▁powers	-4212
▁provok	-4213
▁purity	-4214
▁render	-4215
▁rescue	-4216
▁reveal	-4217
▁scribe	-4218
▁sinful	-4219
▁struck	-4220
▁swords	-4221
▁talent	-4222
▁talked	-4223
esterday	-4224
▁appoint	-4225
▁blemish	-4226
▁calling	-4227
▁message	-4228
▁officer	-4229
▁rescued	-4230
▁sojourn	-4231
▁talking	-4232
▁visited	-4233
▁Michaias	-4234
▁business	-4235
▁complete	-4236
▁creation	-4237
▁despised	-4238
▁measures	-4239
▁obedient	-4240
▁ornament	-4241
▁serpents	-4242
▁violence	-4243
▁Nephthali	-4244
▁advantage	-4245
▁affection	-4246
▁fountains	-4247
▁northward	-4248
▁obedience	-4249
▁patiently	-4250
▁southward	-4251
▁completely	-4252
▁subjection	-4253
▁disobedience	-4254
▁thanksgiving	-4255
IS	-4256
Now	-4257
Woe	-4258
hod	-4259
ick	-4260
ila	-4261
wor	-4262
▁ap	-4263
amed	-4264
angs	-4265
fold	-4266
ilty	-4267
irst	-4268
kind	-4269
lict	-4270
mael	-4271
phel	-4272
rial	-4273
▁Ang	-4274
▁Nau	-4275
▁Noe	-4276
▁Out	-4277
▁Per	-4278
▁Rac	-4279
▁clo	-4280
▁dig	-4281
▁fed	-4282
▁hed	-4283
▁maj	-4284
▁pen	-4285
▁pub	-4286
▁shi	-4287
▁tar	-4288
akers	-4289
erers	-4290
erily	-4291
ffect	-4292
ising	-4293
ortun	-4294
▁Acha	-4295
▁Asia	-4296
▁Ephr	-4297
▁Pray	-4298
▁Seir	-4299
▁Wilt	-4300
▁envy	-4301
▁phys	-4302
▁priv	-4303
▁robe	-4304
▁scor	-4305
▁stub	-4306
▁tail	-4307
bearer	-4308
chodon	-4309
ission	-4310
▁abhor	-4311
▁besie	-4312
▁burst	-4313
▁craft	-4314
▁divor	-4315
▁eagle	-4316
▁exact	-4317
▁exerc	-4318
▁lofty	-4319
▁pangs	-4320
▁relat	-4321
▁renew	-4322
▁sakes	-4323
▁shake	-4324
▁sixth	-4325
▁sworn	-4326
▁taste	-4327
▁waves	-4328
ossible	-4329
▁Apollo	-4330
▁Before	-4331
▁Greeks	-4332
▁Ismael	-4333
▁Nineve	-4334
▁Rachel	-4335
▁Symeon	-4336
▁burial	-4337
▁chains	-4338
▁chiefs	-4339
▁conver	-4340
▁danger	-4341
▁grieve	-4342
▁murder	-4343
▁quarre	-4344
▁refres	-4345
▁refuse	-4346
▁shield	-4347
▁stands	-4348
▁suffic	-4349
ortunity	-4350
▁Hebrews	-4351
▁Himself	-4352
▁chariot	-4353
▁devices	-4354
▁disobey	-4355
▁dispers	-4356
▁falling	-4357
▁keeping	-4358
▁kindred	-4359
▁leaders	-4360
▁mingled	-4361
▁mourned	-4362
▁scourge	-4363
▁silence	-4364
▁support	-4365
▁swallow	-4366
▁thereby	-4367
▁torture	-4368
suffering	-4369
▁cleansed	-4370
▁darkened	-4371
▁groaning	-4372
▁neighbor	-4373
▁parables	-4374
▁westward	-4375
chodonosor	-4376
▁centurion	-4377
▁magnified	-4378
▁threshing	-4379
▁Achitophel	-4380
▁Chananites	-4381
▁hypocrites	-4382
▁impossible	-4383
▁mercifully	-4384
▁prophesied	-4385
▁bondservant	-4386
▁Nabuchodonosor	-4387
,)	-4388
No	-4389
my	-4390
Are	-4391
com	-4392
eks	-4393
eme	-4394
fer	-4395
iba	-4396
irt	-4397
ode	-4398
pul	-4399
▁Ex	-4400
▁Of	-4401
agon	-4402
amys	-4403
chol	-4404
ding	-4405
eech	-4406
ency	-4407
ests	-4408
gran	-4409
phib	-4410
rach	-4411
ssed	-4412
tree	-4413
▁Get	-4414
▁air	-4415
▁bal	-4416
▁fit	-4417
▁iss	-4418
▁sav	-4419
▁sli	-4420
▁unp	-4421
▁wax	-4422
▁win	-4423
▁wra	-4424
achar	-4425
arest	-4426
eping	-4427
eries	-4428
isdom	-4429
odden	-4430
ourse	-4431
raced	-4432
▁Draw	-4433
▁Joan	-4434
▁Lift	-4435
▁Mine	-4436
▁Naue	-4437
▁Seek	-4438
▁Tell	-4439
▁figs	-4440
▁fold	-4441
▁less	-4442
▁loss	-4443
▁mean	-4444
▁mist	-4445
▁move	-4446
▁pome	-4447
▁pull	-4448
▁rept	-4449
▁scur	-4450
▁wasn	-4451
idered	-4452
isions	-4453
▁Arnon	-4454
▁Manoe	-4455
▁Right	-4456
▁abode	-4457
▁calls	-4458
▁cloak	-4459
▁crowd	-4460
▁doeth	-4461
▁event	-4462
▁fears	-4463
▁maint	-4464
▁manna	-4465
▁refus	-4466
▁revil	-4467
▁sides	-4468
▁spent	-4469
▁upper	-4470
▁worth	-4471
▁Abessa	-4472
▁Others	-4473
▁Saruia	-4474
▁arrows	-4475
▁ascend	-4476
▁beheld	-4477
▁bishop	-4478
▁calves	-4479
▁denied	-4480
▁depths	-4481
▁dreams	-4482
▁effect	-4483
▁flying	-4484
▁guilty	-4485
▁hatred	-4486
▁insult	-4487
▁loving	-4488
▁offend	-4489
▁openly	-4490
▁passes	-4491
▁perple	-4492
▁pestil	-4493
▁proved	-4494
▁purcha	-4495
▁voices	-4496
servants	-4497
▁Lazarus	-4498
▁Memphib	-4499
▁Thaeman	-4500
▁anxious	-4501
▁belongs	-4502
▁beseech	-4503
▁crooked	-4504
▁earthqu	-4505
▁founded	-4506
▁married	-4507
▁profane	-4508
▁shelter	-4509
▁stirred	-4510
▁stripes	-4511
▁turning	-4512
▁various	-4513
▁whereon	-4514
▁Jebosthe	-4515
▁accepted	-4516
▁creature	-4517
▁entering	-4518
▁pomegran	-4519
▁proceeds	-4520
▁restored	-4521
▁carefully	-4522
▁gathering	-4523
▁monastery	-4524
▁necessary	-4525
▁performed	-4526
▁beforehand	-4527
▁companions	-4528
▁corruption	-4529
▁distressed	-4530
▁honourable	-4531
▁oppression	-4532
▁priesthood	-4533
▁recognized	-4534
▁opportunity	-4535
▁Memphibosthe	-4536
CH	-4537
In	-4538
Is	-4539
air	-4540
aph	-4541
bar	-4542
bly	-4543
hir	-4544
hol	-4545
ima	-4546
tle	-4547
ugg	-4548
▁Na	-4549
▁ax	-4550
▁ur	-4551
abee	-4552
aeas	-4553
aias	-4554
ambo	-4555
area	-4556
athe	-4557
four	-4558
itus	-4559
more	-4560
olis	-4561
wers	-4562
▁AND	-4563
▁Jez	-4564
▁Mis	-4565
▁ago	-4566
▁ben	-4567
▁bru	-4568
▁dim	-4569
▁err	-4570
▁exc	-4571
▁fem	-4572
▁fle	-4573
▁fre	-4574
▁mor	-4575
▁sen	-4576
asses	-4577
inees	-4578
night	-4579
ollow	-4580
oring	-4581
ossom	-4582
uting	-4583
▁Also	-4584
▁Bapt	-4585
▁Beel	-4586
▁Siba	-4587
▁Sing	-4588
▁asks	-4589
▁bare	-4590
▁bott	-4591
▁gnas	-4592
▁inte	-4593
▁legs	-4594
▁mill	-4595
▁moth	-4596
▁proc	-4597
▁tear	-4598
▁thor	-4599
▁trib	-4600
▁valu	-4601
iathar	-4602
oughly	-4603
▁Judah	-4604
▁Pambo	-4605
▁Rapha	-4606
▁Selom	-4607
▁Whoso	-4608
▁aloud	-4609
▁citiz	-4610
▁doest	-4611
▁equal	-4612
▁freed	-4613
▁glean	-4614
▁grape	-4615
▁knees	-4616
▁ninth	-4617
▁noise	-4618
▁owner	-4619
▁seest	-4620
▁shewn	-4621
▁slugg	-4622
▁thank	-4623
emption	-4624
ersabee	-4625
fulness	-4626
▁Esaias	-4627
▁Wisdom	-4628
▁accuse	-4629
▁basket	-4630
▁consol	-4631
▁couldn	-4632
▁cubits	-4633
▁eighth	-4634
▁female	-4635
▁footst	-4636
▁girded	-4637
▁girdle	-4638
▁inform	-4639
▁marvel	-4640
▁mocked	-4641
▁nobles	-4642
▁orders	-4643
▁paraly	-4644
▁plough	-4645
▁rebell	-4646
▁ruined	-4647
▁seemed	-4648
▁seemly	-4649
▁supper	-4650
▁termin	-4651
▁trusts	-4652
▁unbeli	-4653
▁worked	-4654
ensation	-4655
▁Melchol	-4656
▁Phinees	-4657
▁anguish	-4658
▁blossom	-4659
▁burdens	-4660
▁commend	-4661
▁deceive	-4662
▁falsely	-4663
▁flowing	-4664
▁majesty	-4665
▁passion	-4666
▁slumber	-4667
▁sounded	-4668
▁sparrow	-4669
▁steward	-4670
▁whereby	-4671
▁Caesarea	-4672
▁Jebusite	-4673
▁accursed	-4674
▁carcases	-4675
▁counsell	-4676
▁kindness	-4677
▁observed	-4678
▁ointment	-4679
▁ordained	-4680
▁promised	-4681
▁vanities	-4682
▁accounted	-4683
▁endurance	-4684
▁guiltless	-4685
▁offerings	-4686
▁terrified	-4687
▁collectors	-4688
▁meditation	-4689
▁redemption	-4690
▁reproached	-4691
▁sufficient	-4692
▁thoroughly	-4693
▁adversaries	-4694
▁fornication	-4695
▁transgression	-4696
AS	-4697
AY	-4698
ED	-4699
EN	-4700
AIN	-4701
aia	-4702
cca	-4703
fts	-4704
hur	-4705
lig	-4706
ool	-4707
▁Di	-4708
▁Ly	-4709
▁Pr	-4710
Your	-4711
aged	-4712
airs	-4713
arim	-4714
five	-4715
iant	-4716
ords	-4717
rate	-4718
▁Ber	-4719
▁Cap	-4720
▁Iss	-4721
▁Pho	-4722
▁Sic	-4723
▁deg	-4724
▁fee	-4725
▁fil	-4726
▁hig	-4727
▁hom	-4728
▁hot	-4729
▁por	-4730
▁rob	-4731
anias	-4732
ating	-4733
ereth	-4734
henna	-4735
ighed	-4736
ously	-4737
oward	-4738
▁Dost	-4739
▁Here	-4740
▁Matt	-4741
▁Merc	-4742
▁bars	-4743
▁bene	-4744
▁bent	-4745
▁cell	-4746
▁chur	-4747
▁forb	-4748
▁frog	-4749
▁fury	-4750
▁hind	-4751
▁inqu	-4752
▁safe	-4753
▁slow	-4754
▁temp	-4755
▁town	-4756
▁unse	-4757
advent	-4758
iation	-4759
leness	-4760
seless	-4761
▁Being	-4762
▁adorn	-4763
▁bears	-4764
▁begot	-4765
▁begun	-4766
▁cakes	-4767
▁chaff	-4768
▁clust	-4769
▁const	-4770
▁delay	-4771
▁diffe	-4772
▁drove	-4773
▁ephod	-4774
▁fixed	-4775
▁green	-4776
▁haven	-4777
▁issue	-4778
▁leads	-4779
▁opens	-4780
▁press	-4781
▁revel	-4782
▁sober	-4783
▁sorry	-4784
▁trial	-4785
▁warri	-4786
▁Better	-4787
▁Depart	-4788
▁Joanan	-4789
▁Sicima	-4790
▁Themar	-4791
▁altars	-4792
▁corner	-4793
▁disapp	-4794
▁giveth	-4795
▁harden	-4796
▁market	-4797
▁mouths	-4798
▁plains	-4799
▁psalms	-4800
▁sailed	-4801
▁signal	-4802
▁simple	-4803
▁spared	-4804
▁swears	-4805
▁wished	-4806
▁Ephesus	-4807
▁Gehenna	-4808
▁alarmed	-4809
▁apostle	-4810
▁beneath	-4811
▁careful	-4812
▁devised	-4813
▁example	-4814
▁further	-4815
▁granted	-4816
▁merchan	-4817
▁offence	-4818
▁pasture	-4819
▁prevent	-4820
▁rightly	-4821
▁thrones	-4822
▁touches	-4823
▁valiant	-4824
adventure	-4825
▁Egyptian	-4826
▁approach	-4827
▁building	-4828
▁captives	-4829
▁compared	-4830
▁destroys	-4831
▁diligent	-4832
▁fastened	-4833
▁flourish	-4834
▁horsemen	-4835
▁ignorant	-4836
▁informed	-4837
▁murmured	-4838
▁promises	-4839
▁property	-4840
▁prophecy	-4841
▁purposed	-4842
▁wickedly	-4843
▁concubine	-4844
▁partakers	-4845
▁possessed	-4846
▁separated	-4847
▁swallowed	-4848
▁yesterday	-4849
▁earthquake	-4850
▁fatherless	-4851
▁grievously	-4852
▁consecrated	-4853
▁deliverance	-4854
ES	-4855
To	-4856
rr	-4857
AME	-4858
And	-4859
Get	-4860
aum	-4861
cam	-4862
gin	-4863
iff	-4864
tes	-4865
▁IN	-4866
▁Lo	-4867
Have	-4868
cher	-4869
erry	-4870
icia	-4871
ieth	-4872
ific	-4873
izer	-4874
nded	-4875
sent	-4876
shad	-4877
▁Arm	-4878
▁Aro	-4879
▁Asc	-4880
▁Bal	-4881
▁Dab	-4882
▁Law	-4883
▁Lot	-4884
▁Phy	-4885
▁Put	-4886
▁Rab	-4887
▁Tob	-4888
▁dug	-4889
▁lib	-4890
▁ver	-4891
arius	-4892
eturn	-4893
house	-4894
iding	-4895
igaia	-4896
itude	-4897
lives	-4898
oclet	-4899
othor	-4900
phath	-4901
usion	-4902
▁Anna	-4903
▁Asor	-4904
▁Azot	-4905
▁Book	-4906
▁Gaza	-4907
▁Rama	-4908
▁WORD	-4909
▁aren	-4910
▁cher	-4911
▁deaf	-4912
▁liar	-4913
▁line	-4914
▁meas	-4915
▁nine	-4916
▁pard	-4917
▁puts	-4918
▁rage	-4919
▁reed	-4920
▁robb	-4921
▁seas	-4922
▁shek	-4923
▁sigh	-4924
▁stro	-4925
▁unin	-4926
▁void	-4927
▁zeal	-4928
ernaum	-4929
gement	-4930
orrupt	-4931
though	-4932
▁Amess	-4933
▁Bless	-4934
▁Cross	-4935
▁Greek	-4936
▁Jonah	-4937
▁Thine	-4938
▁admon	-4939
▁ambus	-4940
▁armed	-4941
▁aston	-4942
▁bands	-4943
▁banqu	-4944
▁benef	-4945
▁favor	-4946
▁hedge	-4947
▁hired	-4948
▁minds	-4949
▁outer	-4950
▁purif	-4951
▁pursu	-4952
▁reach	-4953
▁scurf	-4954
▁seems	-4955
▁shoot	-4956
▁tombs	-4957
▁treat	-4958
▁wants	-4959
▁Choreb	-4960
▁Joakim	-4961
▁Jothor	-4962
▁Seeing	-4963
▁armies	-4964
▁arrive	-4965
▁asking	-4966
▁courts	-4967
▁discer	-4968
▁distur	-4969
▁feeble	-4970
▁gentle	-4971
▁lovers	-4972
▁loveth	-4973
▁misery	-4974
▁nature	-4975
▁rising	-4976
▁saidst	-4977
▁savour	-4978
▁sayest	-4979
▁sickle	-4980
▁stoned	-4981
▁stream	-4982
▁strike	-4983
▁summer	-4984
▁wheels	-4985
▁window	-4986
▁wounds	-4987
acharias	-4988
ocletian	-4989
▁Abigaia	-4990
▁Another	-4991
▁Apostle	-4992
▁Ascalon	-4993
▁abstain	-4994
▁allowed	-4995
▁charges	-4996
▁execute	-4997
▁foreign	-4998
▁incline	-4999
▁inflict	-5000
▁letters	-5001
▁mounted	-5002
▁oracles	-5003
▁orphans	-5004
▁quicken	-5005
▁running	-5006
▁tongues	-5007
▁trodden	-5008
▁waiting	-5009
▁weighed	-5010
▁wrapped	-5011
▁Abiathar	-5012
▁Baptizer	-5013
▁Bersabee	-5014
▁Massepha	-5015
▁approved	-5016
▁desiring	-5017
▁laboured	-5018
▁miracles	-5019
▁prisoner	-5020
▁prudence	-5021
▁reptiles	-5022
▁sentence	-5023
▁shoulder	-5024
▁summoned	-5025
▁trumpets	-5026
▁wondered	-5027
▁worshipp	-5028
▁Capernaum	-5029
▁Righteous	-5030
▁confusion	-5031
▁countries	-5032
▁dispersed	-5033
▁entreated	-5034
▁incorrupt	-5035
▁prisoners	-5036
▁provoking	-5037
▁sojourned	-5038
▁withstand	-5039
▁Baethsamys	-5040
▁Diocletian	-5041
▁abominable	-5042
▁exultation	-5043
▁lamentation	-5044
▁tabernacles	-5045
▁uncircumcision	-5046
HA	-5047
PH	-5048
ba	-5049
fl	-5050
sk	-5051
lam	-5052
pri	-5053
rrh	-5054
yal	-5055
▁Oz	-5056
▁WH	-5057
Thou	-5058
abbi	-5059
cees	-5060
cent	-5061
chab	-5062
eila	-5063
elie	-5064
from	-5065
ghed	-5066
mind	-5067
ners	-5068
omor	-5069
rive	-5070
stri	-5071
tery	-5072
that	-5073
this	-5074
time	-5075
uphr	-5076
upon	-5077
▁Aod	-5078
▁Ast	-5079
▁Can	-5080
▁Dal	-5081
▁Ram	-5082
▁ack	-5083
▁ann	-5084
▁cou	-5085
▁flo	-5086
▁rav	-5087
▁shr	-5088
▁sol	-5089
▁tas	-5090
after	-5091
agger	-5092
becca	-5093
block	-5094
erous	-5095
estus	-5096
icate	-5097
itute	-5098
nings	-5099
oming	-5100
ompan	-5101
trees	-5102
urity	-5103
wards	-5104
where	-5105
▁Chel	-5106
▁Cons	-5107
▁Lest	-5108
▁Magd	-5109
▁Noah	-5110
▁Word	-5111
▁betr	-5112
▁cens	-5113
▁deed	-5114
▁diff	-5115
▁gall	-5116
▁heif	-5117
▁herb	-5118
▁idle	-5119
▁meal	-5120
▁sown	-5121
▁wide	-5122
ducees	-5123
iously	-5124
retion	-5125
▁Aroer	-5126
▁Euphr	-5127
▁First	-5128
▁Peace	-5129
▁Stand	-5130
▁Titus	-5131
▁dying	-5132
▁frogs	-5133
▁goeth	-5134
▁hasty	-5135
▁herit	-5136
▁holes	-5137
▁inner	-5138
▁insol	-5139
▁lower	-5140
▁purge	-5141
▁royal	-5142
▁sends	-5143
▁share	-5144
▁shout	-5145
▁slave	-5146
▁twice	-5147
retched	-5148
▁Azotus	-5149
▁Elipha	-5150
▁Festus	-5151
▁Machir	-5152
▁Martha	-5153
▁Return	-5154
▁Surely	-5155
▁acknow	-5156
▁behavi	-5157
▁contra	-5158
▁eighty	-5159
▁entang	-5160
▁estate	-5161
▁fasted	-5162
▁forbid	-5163
▁kindle	-5164
▁laying	-5165
▁morsel	-5166
▁native	-5167
▁natura	-5168
▁pledge	-5169
▁princi	-5170
▁proper	-5171
▁public	-5172
▁quench	-5173
▁showed	-5174
▁strait	-5175
▁stroke	-5176
▁tithes	-5177
▁unable	-5178
▁verily	-5179
▁victor	-5180
▁wholly	-5181
listines	-5182
▁Amessai	-5183
▁Jezrael	-5184
▁Jonadab	-5185
▁Rebecca	-5186
▁Whereas	-5187
▁arrayed	-5188
▁disease	-5189
▁distrib	-5190
▁envious	-5191
▁fainted	-5192
▁fearful	-5193
▁fingers	-5194
▁happens	-5195
▁leading	-5196
▁pressed	-5197
▁protect	-5198
▁refused	-5199
▁require	-5200
▁robbers	-5201
▁rushing	-5202
▁serving	-5203
▁stopped	-5204
▁talents	-5205
▁teaches	-5206
▁treated	-5207
▁violent	-5208
ification	-5209
▁Apostles	-5210
▁Issachar	-5211
▁besieged	-5212
▁betrayed	-5213
▁bitterly	-5214
▁covetous	-5215
▁diseases	-5216
▁fighting	-5217
▁husbands	-5218
▁midnight	-5219
▁ministry	-5220
▁overshad	-5221
▁psaltery	-5222
▁quenched	-5223
▁rejoices	-5224
▁sabbaths	-5225
▁searched	-5226
▁thunders	-5227
▁unbelief	-5228
▁watching	-5229
▁watchman	-5230
▁Euphrates	-5231
▁Sadducees	-5232
▁adversary	-5233
▁blessings	-5234
▁confident	-5235
▁departure	-5236
▁forasmuch	-5237
▁innocence	-5238
▁meditated	-5239
▁necessity	-5240
▁reasoning	-5241
▁boundaries	-5242
▁broughtest	-5243
▁considered	-5244
▁discovered	-5245
▁discretion	-5246
▁separation	-5247
▁visitation	-5248
▁Phylistines	-5249
▁compassions	-5250
▁consolation	-5251
▁indignation	-5252
▁compensation	-5253
▁condemnation	-5254
';	-5255
);	-5256
gl	-5257
gu	-5258
sh	-5259
?''	-5260
bre	-5261
flo	-5262
ger	-5263
gle	-5264
gor	-5265
iod	-5266
mas	-5267
two	-5268
ubs	-5269
yss	-5270
zer	-5271
▁Tr	-5272
Then	-5273
arii	-5274
eves	-5275
fall	-5276
iety	-5277
ince	-5278
ists	-5279
long	-5280
lten	-5281
oman	-5282
sook	-5283
▁Abi	-5284
▁Ale	-5285
▁Con	-5286
▁Gel	-5287
▁Rak	-5288
▁Ser	-5289
▁Tru	-5290
▁axe	-5291
▁lim	-5292
▁mat	-5293
▁oak	-5294
▁und	-5295
Every	-5296
These	-5297
ample	-5298
cetic	-5299
igned	-5300
iling	-5301
osing	-5302
othed	-5303
ption	-5304
rippa	-5305
venth	-5306
▁Bala	-5307
▁ages	-5308
▁aris	-5309
▁bill	-5310
▁bowl	-5311
▁dogs	-5312
▁exha	-5313
▁idol	-5314
▁mere	-5315
▁nail	-5316
▁paid	-5317
▁roof	-5318
▁rust	-5319
▁sows	-5320
▁vint	-5321
▁wars	-5322
▁wool	-5323
▁worm	-5324
ording	-5325
oureth	-5326
riarch	-5327
urious	-5328
▁Amman	-5329
▁Araba	-5330
▁Archi	-5331
▁Dabir	-5332
▁Dagon	-5333
▁Death	-5334
▁Evite	-5335
▁Joppa	-5336
▁Sadoc	-5337
▁Saint	-5338
▁Silas	-5339
▁abyss	-5340
▁admin	-5341
▁apply	-5342
▁celeb	-5343
▁draws	-5344
▁drops	-5345
▁eager	-5346
▁finds	-5347
▁heirs	-5348
▁kinds	-5349
▁lamps	-5350
▁marty	-5351
▁merry	-5352
▁myrrh	-5353
▁prosp	-5354
▁raven	-5355
▁rules	-5356
▁shook	-5357
▁sloth	-5358
▁stiff	-5359
▁straw	-5360
▁tarry	-5361
▁tithe	-5362
cerning	-5363
ointing	-5364
▁Gerges	-5365
▁Melchi	-5366
▁Mighty	-5367
▁Rakote	-5368
▁Sarrha	-5369
▁across	-5370
▁animal	-5371
▁aright	-5372
▁branch	-5373
▁closed	-5374
▁crafty	-5375
▁curses	-5376
▁devils	-5377
▁eleven	-5378
▁excess	-5379
▁feasts	-5380
▁freely	-5381
▁gained	-5382
▁gotten	-5383
▁guided	-5384
▁hateth	-5385
▁island	-5386
▁molten	-5387
▁notice	-5388
▁oracle	-5389
▁pardon	-5390
▁period	-5391
▁potter	-5392
▁prepar	-5393
▁relief	-5394
▁secure	-5395
▁sprang	-5396
▁surety	-5397
▁warned	-5398
▁Agrippa	-5399
▁Ananias	-5400
▁Beloved	-5401
▁accused	-5402
▁affairs	-5403
▁ascetic	-5404
▁ascribe	-5405
▁asunder	-5406
▁banquet	-5407
▁chasten	-5408
▁cleanse	-5409
▁content	-5410
▁cursing	-5411
▁defense	-5412
▁divorce	-5413
▁dropped	-5414
▁farmers	-5415
▁fetters	-5416
▁forsook	-5417
▁haughty	-5418
▁justify	-5419
▁liberty	-5420
▁marvell	-5421
▁natural	-5422
▁passage	-5423
▁putting	-5424
▁related	-5425
▁sandals	-5426
▁satisfy	-5427
▁setting	-5428
▁shekels	-5429
▁trample	-5430
▁victory	-5431
▁virtues	-5432
▁visions	-5433
▁whoring	-5434
▁wishest	-5435
▁zealous	-5436
▁Everyone	-5437
▁Pharisee	-5438
▁accompan	-5439
▁although	-5440
▁bringeth	-5441
▁chambers	-5442
▁conceive	-5443
▁contempt	-5444
▁creeping	-5445
▁directed	-5446
▁helpless	-5447
▁heritage	-5448
▁hindered	-5449
▁listened	-5450
▁preserve	-5451
▁reasoned	-5452
▁regarded	-5453
▁repented	-5454
▁reproofs	-5455
▁sleeping	-5456
▁sluggard	-5457
▁Armathaim	-5458
▁completed	-5459
▁deliverer	-5460
▁discourse	-5461
▁footstool	-5462
▁hereafter	-5463
▁marvelled	-5464
▁ornaments	-5465
▁otherwise	-5466
▁overcomes	-5467
▁perfected	-5468
▁practices	-5469
▁relatives	-5470
▁senseless	-5471
▁therewith	-5472
▁virginity	-5473
▁astonished	-5474
▁excellence	-5475
▁profitable	-5476
▁pronounced	-5477
▁recompence	-5478
▁trespasses	-5479
▁whomsoever	-5480
▁steadfastly	-5481
▁tribulation	-5482
▁incorruptible	-5483
.,	-5484
EM	-5485
ga	-5486
ux	-5487
▁,	-5488
Did	-5489
aam	-5490
aws	-5491
der	-5492
etr	-5493
him	-5494
ids	-5495
inc	-5496
iph	-5497
isc	-5498
kel	-5499
ler	-5500
oom	-5501
ora	-5502
pal	-5503
pen	-5504
uff	-5505
vel	-5506
xes	-5507
▁Aw	-5508
▁Od	-5509
▁cy	-5510
Give	-5511
abel	-5512
aeus	-5513
chre	-5514
cont	-5515
enez	-5516
erer	-5517
istr	-5518
ixed	-5519
lemn	-5520
lets	-5521
oute	-5522
▁Aer	-5523
▁Ges	-5524
▁Hon	-5525
▁Med	-5526
▁Men	-5527
▁Mer	-5528
▁Mes	-5529
▁bab	-5530
▁ble	-5531
▁cud	-5532
▁imm	-5533
▁nur	-5534
▁spy	-5535
▁yes	-5536
Arise	-5537
aking	-5538
arded	-5539
aroth	-5540
icult	-5541
kelac	-5542
ollam	-5543
owing	-5544
redit	-5545
three	-5546
▁Abel	-5547
▁Adra	-5548
▁Amin	-5549
▁Call	-5550
▁Camp	-5551
▁Char	-5552
▁Debb	-5553
▁Hier	-5554
▁Jeph	-5555
▁Mark	-5556
▁Psal	-5557
▁Raab	-5558
▁Rome	-5559
▁Step	-5560
▁appe	-5561
▁bath	-5562
▁beam	-5563
▁beck	-5564
▁cand	-5565
▁chew	-5566
▁colt	-5567
▁conv	-5568
▁evid	-5569
▁heir	-5570
▁hoof	-5571
▁howl	-5572
▁imit	-5573
▁lake	-5574
▁leap	-5575
▁nour	-5576
▁perf	-5577
▁pool	-5578
▁sens	-5579
▁soft	-5580
ankinc	-5581
icians	-5582
minded	-5583
rained	-5584
rolled	-5585
▁Asael	-5586
▁Gomor	-5587
▁Phoen	-5588
▁Three	-5589
▁apple	-5590
▁beget	-5591
▁camel	-5592
▁chain	-5593
▁conqu	-5594
▁consp	-5595
▁corre	-5596
▁crush	-5597
▁deals	-5598
▁despa	-5599
▁dimin	-5600
▁dread	-5601
▁fiery	-5602
▁floor	-5603
▁humil	-5604
▁innum	-5605
▁marry	-5606
▁overl	-5607
▁perse	-5608
▁pierc	-5609
▁reser	-5610
▁ropes	-5611
▁sever	-5612
▁shore	-5613
▁songs	-5614
▁spend	-5615
▁vines	-5616
Whoever	-5617
▁Achima	-5618
▁Aermon	-5619
▁Andrew	-5620
▁Remmon	-5621
▁Syrian	-5622
▁beaten	-5623
▁cedars	-5624
▁church	-5625
▁comest	-5626
▁common	-5627
▁descri	-5628
▁devise	-5629
▁distin	-5630
▁drinks	-5631
▁fulfil	-5632
▁giants	-5633
▁heifer	-5634
▁injury	-5635
▁intend	-5636
▁joyful	-5637
▁justly	-5638
▁liveth	-5639
▁narrow	-5640
▁revile	-5641
▁serves	-5642
▁shaved	-5643
▁solemn	-5644
▁sorcer	-5645
▁spices	-5646
▁wanted	-5647
▁Odollam	-5648
▁Prophet	-5649
▁Samarit	-5650
▁balance	-5651
▁blotted	-5652
▁breadth	-5653
▁casting	-5654
▁charity	-5655
▁citizen	-5656
▁closely	-5657
▁cluster	-5658
▁crossed	-5659
▁examine	-5660
▁exhaust	-5661
▁feareth	-5662
▁feeding	-5663
▁fifteen	-5664
▁gathers	-5665
▁keepeth	-5666
▁listens	-5667
▁locusts	-5668
▁ordered	-5669
▁request	-5670
▁saluted	-5671
▁seasons	-5672
▁shouted	-5673
▁singing	-5674
▁slander	-5675
▁telling	-5676
▁tempest	-5677
▁thieves	-5678
▁thunder	-5679
▁travell	-5680
▁vintage	-5681
▁wearing	-5682
▁Adraazar	-5683
▁Aminadab	-5684
▁Consider	-5685
▁acquaint	-5686
▁contradi	-5687
▁converse	-5688
▁defender	-5689
▁dismayed	-5690
▁forehead	-5691
▁frankinc	-5692
▁honoured	-5693
▁pleasant	-5694
▁polluted	-5695
▁reckoned	-5696
▁sprinkle	-5697
▁stripped	-5698
▁teachers	-5699
▁treacher	-5700
▁wherever	-5701
▁Pherezite	-5702
▁anointing	-5703
▁companies	-5704
▁different	-5705
▁difficult	-5706
▁divisions	-5707
▁ignorance	-5708
▁interpret	-5709
▁journeyed	-5710
▁merchants	-5711
▁oppressed	-5712
▁perplexed	-5713
▁petitions	-5714
▁recognize	-5715
▁remaining	-5716
▁sprinkled	-5717
▁testifies	-5718
▁Ethiopians	-5719
▁accomplish	-5720
▁blasphemed	-5721
▁brightness	-5722
▁calamities	-5723
▁confession	-5724
▁correction	-5725
▁distresses	-5726
▁lightnings	-5727
▁pestilence	-5728
▁revelation	-5729
▁foolishness	-5730
▁innumerable	-5731
▁instruments	-5732
▁understands	-5733
▁faithfulness	-5734
▁frankincense	-5735
▁pomegranates	-5736
▁purification	-5737
▁compassionate	-5738
',	-5739
As	-5740
OD	-5741
Re	-5742
ST	-5743
bo	-5744
uz	-5745
IAS	-5746
Whi	-5747
cch	-5748
igs	-5749
ike	-5750
len	-5751
rol	-5752
six	-5753
uli	-5754
ume	-5755
zek	-5756
▁La	-5757
▁ow	-5758
Hail	-5759
Hear	-5760
Rise	-5761
aith	-5762
ales	-5763
amia	-5764
cing	-5765
esus	-5766
geon	-5767
give	-5768
lest	-5769
ming	-5770
mith	-5771
mity	-5772
oday	-5773
omas	-5774
opot	-5775
ouse	-5776
phec	-5777
rath	-5778
raud	-5779
rets	-5780
riel	-5781
sely	-5782
stru	-5783
umin	-5784
whel	-5785
▁Ask	-5786
▁Ass	-5787
▁Egl	-5788
▁Isc	-5789
▁Nic	-5790
▁Pat	-5791
▁Rep	-5792
▁Sap	-5793
▁Six	-5794
▁Tan	-5795
▁Tro	-5796
▁adj	-5797
▁fer	-5798
▁fow	-5799
▁gri	-5800
▁nay	-5801
▁num	-5802
▁pin	-5803
▁sus	-5804
▁vol	-5805
▁web	-5806
Rabbi	-5807
abbas	-5808
abeth	-5809
aming	-5810
assad	-5811
ching	-5812
elids	-5813
elius	-5814
floor	-5815
gered	-5816
inted	-5817
nding	-5818
nless	-5819
obaal	-5820
pline	-5821
retch	-5822
▁Alex	-5823
▁Cham	-5824
▁Does	-5825
▁Evil	-5826
▁Gaal	-5827
▁Like	-5828
▁Mess	-5829
▁Open	-5830
▁Pers	-5831
▁Seme	-5832
▁Sign	-5833
▁Such	-5834
▁alto	-5835
▁bere	-5836
▁bush	-5837
▁coat	-5838
▁cows	-5839
▁dash	-5840
▁drop	-5841
▁lays	-5842
▁lean	-5843
▁lent	-5844
▁mute	-5845
▁rend	-5846
▁succ	-5847
▁surn	-5848
▁tied	-5849
▁torn	-5850
▁wagg	-5851
▁wand	-5852
▁whel	-5853
▁wing	-5854
▁wolf	-5855
Father	-5856
aining	-5857
cchoth	-5858
icated	-5859
itting	-5860
▁Angel	-5861
▁Beths	-5862
▁Jesse	-5863
▁Roman	-5864
▁Thess	-5865
▁Whose	-5866
▁Would	-5867
▁agree	-5868
▁bathe	-5869
▁below	-5870
▁books	-5871
▁brick	-5872
▁bulls	-5873
▁caves	-5874
▁dance	-5875
▁decay	-5876
▁dress	-5877
▁enlar	-5878
▁erred	-5879
▁greed	-5880
▁harsh	-5881
▁impud	-5882
▁knock	-5883
▁liver	-5884
▁medic	-5885
▁pluck	-5886
▁pools	-5887
▁proof	-5888
▁reins	-5889
▁scorp	-5890
▁sepul	-5891
▁shown	-5892
▁skill	-5893
▁spies	-5894
▁strip	-5895
▁surve	-5896
▁token	-5897
▁treas	-5898
▁weeks	-5899
▁Achaia	-5900
▁Cursed	-5901
▁Enakim	-5902
▁Gather	-5903
▁Master	-5904
▁Olives	-5905
▁Rechab	-5906
▁Remove	-5907
▁Thomas	-5908
▁absent	-5909
▁arisen	-5910
▁assist	-5911
▁attain	-5912
▁avenge	-5913
▁befall	-5914
▁bottle	-5915
▁bowels	-5916
▁camest	-5917
▁consum	-5918
▁credit	-5919
▁degree	-5920
▁dipped	-5921
▁disreg	-5922
▁embark	-5923
▁enmity	-5924
▁extrem	-5925
▁fasten	-5926
▁flight	-5927
▁forgot	-5928
▁hinder	-5929
▁imagin	-5930
▁labore	-5931
▁lowest	-5932
▁propit	-5933
▁purify	-5934
▁rolled	-5935
▁slaves	-5936
▁strive	-5937
▁supply	-5938
▁tasted	-5939
▁thinks	-5940
▁timbre	-5941
▁upward	-5942
▁winter	-5943
▁wolves	-5944
mandrite	-5945
opotamia	-5946
ornelius	-5947
▁Accaron	-5948
▁Debbora	-5949
▁Sekelac	-5950
▁abandon	-5951
▁commits	-5952
▁concern	-5953
▁didrach	-5954
▁discern	-5955
▁encoura	-5956
▁eunuchs	-5957
▁eyelids	-5958
▁finding	-5959
▁guarded	-5960
▁injured	-5961
▁magnify	-5962
▁mankind	-5963
▁pierced	-5964
▁plucked	-5965
▁plunder	-5966
▁pointed	-5967
▁prosely	-5968
▁quarrel	-5969
▁resting	-5970
▁secrets	-5971
▁sisters	-5972
▁vinegar	-5973
▁wentest	-5974
▁Brothers	-5975
▁Jerobaal	-5976
▁Socchoth	-5977
▁banished	-5978
▁becoming	-5979
▁carrying	-5980
▁cheerful	-5981
▁divining	-5982
▁division	-5983
▁eighteen	-5984
▁exercise	-5985
▁fourteen	-5986
▁fruitful	-5987
▁hencefor	-5988
▁hireling	-5989
▁mightest	-5990
▁mightily	-5991
▁numerous	-5992
▁practice	-5993
▁profaned	-5994
▁reproved	-5995
▁securely	-5996
▁supposed	-5997
▁tomorrow	-5998
▁weakened	-5999
▁withdraw	-6000
▁withdrew	-6001
▁wretched	-6002
▁According	-6003
▁abandoned	-6004
▁appertain	-6005
▁believing	-6006
▁betrothed	-6007
▁confessed	-6008
▁delighted	-6009
▁desirable	-6010
▁entangled	-6011
▁firstborn	-6012
▁murmuring	-6013
▁oppressor	-6014
▁pleasures	-6015
▁provision	-6016
▁recompens	-6017
▁remission	-6018
▁sojourner	-6019
▁supposing	-6020
▁valuation	-6021
▁worthless	-6022
▁Massephath	-6023
▁Whatsoever	-6024
▁accusation	-6025
▁altogether	-6026
▁descending	-6027
▁discipline	-6028
▁fourteenth	-6029
▁testifying	-6030
▁Mesopotamia	-6031
▁accompanied	-6032
▁punishments	-6033
▁surrounding	-6034
▁disappointed	-6035
▁tribulations	-6036
▁Archimandrite	-6037
▁sanctification	-6038
:)	-6039
EA	-6040
Jo	-6041
RO	-6042
eb	-6043
).'	-6044
His	-6045
ION	-6046
Sir	-6047
alt	-6048
bor	-6049
edd	-6050
edu	-6051
emy	-6052
hal	-6053
hem	-6054
iet	-6055
ife	-6056
ior	-6057
isy	-6058
met	-6059
ola	-6060
old	-6061
uct	-6062
▁AL	-6063
▁BE	-6064
▁Gl	-6065
▁Oh	-6066
▁TO	-6067
▁eg	-6068
....	-6069
Amen	-6070
John	-6071
Tell	-6072
acon	-6073
ashi	-6074
bear	-6075
cade	-6076
ebed	-6077
ebul	-6078
elix	-6079
ival	-6080
king	-6081
resh	-6082
rous	-6083
rsis	-6084
sion	-6085
took	-6086
▁Aha	-6087
▁Cai	-6088
▁Cil	-6089
▁Has	-6090
▁Lac	-6091
▁Lay	-6092
▁Res	-6093
▁Seb	-6094
▁Sen	-6095
▁Sit	-6096
▁alo	-6097
▁der	-6098
▁det	-6099
▁dun	-6100
▁ens	-6101
▁ham	-6102
▁pos	-6103
▁rou	-6104
▁tro	-6105
▁unw	-6106
Jesus	-6107
aphas	-6108
ariot	-6109
ators	-6110
chite	-6111
ciled	-6112
dened	-6113
edged	-6114
esses	-6115
giver	-6116
hamar	-6117
hathi	-6118
iated	-6119
itess	-6120
ldren	-6121
olish	-6122
plate	-6123
rison	-6124
rived	-6125
these	-6126
uries	-6127
zedek	-6128
▁Alas	-6129
▁Amos	-6130
▁Ased	-6131
▁Cast	-6132
▁Core	-6133
▁Dest	-6134
▁Eliz	-6135
▁Geds	-6136
▁Jair	-6137
▁LORD	-6138
▁Love	-6139
▁Mach	-6140
▁Orna	-6141
▁aged	-6142
▁asps	-6143
▁band	-6144
▁blew	-6145
▁blow	-6146
▁brid	-6147
▁cake	-6148
▁cald	-6149
▁dare	-6150
▁doub	-6151
▁dumb	-6152
▁ease	-6153
▁fest	-6154
▁laws	-6155
▁midw	-6156
▁outc	-6157
▁oven	-6158
▁pear	-6159
▁pigs	-6160
▁plan	-6161
▁rank	-6162
▁remo	-6163
▁rods	-6164
▁sets	-6165
▁stag	-6166
▁toil	-6167
bserve	-6168
ebedee	-6169
formed	-6170
headed	-6171
iality	-6172
loving	-6173
master	-6174
necked	-6175
pected	-6176
places	-6177
uredly	-6178
worthy	-6179
▁Abiud	-6180
▁Awake	-6181
▁Barne	-6182
▁Eglom	-6183
▁Enemy	-6184
▁Felix	-6185
▁Semei	-6186
▁Seven	-6187
▁Thamn	-6188
▁Theop	-6189
▁Which	-6190
▁alike	-6191
▁beard	-6192
▁blast	-6193
▁bowls	-6194
▁cedar	-6195
▁chees	-6196
▁cords	-6197
▁cries	-6198
▁displ	-6199
▁disqu	-6200
▁doves	-6201
▁excus	-6202
▁exile	-6203
▁fashi	-6204
▁fever	-6205
▁frost	-6206
▁frust	-6207
▁grows	-6208
▁hairs	-6209
▁holds	-6210
▁homer	-6211
▁hours	-6212
▁human	-6213
▁hymns	-6214
▁loose	-6215
▁manag	-6216
▁moist	-6217
▁nails	-6218
▁negle	-6219
▁occup	-6220
▁point	-6221
▁posts	-6222
▁prost	-6223
▁psalm	-6224
▁relig	-6225
▁roots	-6226
▁ruled	-6227
▁seats	-6228
▁shone	-6229
▁skins	-6230
▁solid	-6231
▁sorce	-6232
▁speck	-6233
▁stirs	-6234
▁thigh	-6235
▁thorn	-6236
▁tooth	-6237
▁trade	-6238
▁tramp	-6239
▁usury	-6240
▁wiser	-6241
▁worms	-6242
▁Amalek	-6243
▁Baetha	-6244
▁Balaam	-6245
▁Beware	-6246
▁Bochor	-6247
▁Follow	-6248
▁Lachis	-6249
▁Nerias	-6250
▁Romans	-6251
▁abides	-6252
▁almost	-6253
▁anchor	-6254
▁arises	-6255
▁arrest	-6256
▁bestow	-6257
▁censer	-6258
▁covers	-6259
▁crowns	-6260
▁dagger	-6261
▁defend	-6262
▁demand	-6263
▁devout	-6264
▁doings	-6265
▁exalts	-6266
▁excuse	-6267
▁firmly	-6268
▁fleece	-6269
▁gladly	-6270
▁goodly	-6271
▁member	-6272
▁memory	-6273
▁namely	-6274
▁needed	-6275
▁overse	-6276
▁palace	-6277
▁pitied	-6278
▁reared	-6279
▁reigns	-6280
▁riddle	-6281
▁rushed	-6282
▁scales	-6283
▁smites	-6284
▁stolen	-6285
▁theirs	-6286
▁wither	-6287
Brothers	-6288
wardness	-6289
▁Cilicia	-6290
▁Machmas	-6291
▁Observe	-6292
▁Tharsis	-6293
▁answers	-6294
▁attempt	-6295
▁avenged	-6296
▁baskets	-6297
▁bruised	-6298
▁cherubs	-6299
▁convers	-6300
▁corners	-6301
▁damsels	-6302
▁dragged	-6303
▁dungeon	-6304
▁engaged	-6305
▁enlight	-6306
▁entrust	-6307
▁gladden	-6308
▁growing	-6309
▁hateful	-6310
▁holdeth	-6311
▁holding	-6312
▁islands	-6313
▁opening	-6314
▁pitched	-6315
▁reading	-6316
▁refrain	-6317
▁returns	-6318
▁sending	-6319
▁settled	-6320
▁shining	-6321
▁sincere	-6322
▁sittest	-6323
▁stubble	-6324
▁success	-6325
▁temples	-6326
▁thicket	-6327
▁turneth	-6328
▁valleys	-6329
▁wanting	-6330
▁wearied	-6331
▁whereof	-6332
▁wouldst	-6333
▁writing	-6334
Therefore	-6335
▁Achimaas	-6336
▁Caiaphas	-6337
▁Iscariot	-6338
▁Manasses	-6339
▁Persians	-6340
▁Whatever	-6341
▁abhorred	-6342
▁admonish	-6343
▁ambassad	-6344
▁begotten	-6345
▁breaking	-6346
▁entrance	-6347
▁fastings	-6348
▁hundreds	-6349
▁laughter	-6350
▁maintain	-6351
▁measured	-6352
▁offended	-6353
▁overwhel	-6354
▁scourged	-6355
▁striving	-6356
▁stubborn	-6357
▁tortures	-6358
▁traveled	-6359
verlasting	-6360
▁Elizabeth	-6361
▁Thessalon	-6362
▁belongeth	-6363
▁descended	-6364
▁diligence	-6365
▁disgraced	-6366
▁excessive	-6367
▁languages	-6368
▁lightning	-6369
▁millstone	-6370
▁murderers	-6371
▁occasions	-6372
▁overthrew	-6373
▁physician	-6374
▁proceeded	-6375
▁readiness	-6376
▁sepulchre	-6377
▁violently	-6378
▁Concerning	-6379
▁circumcise	-6380
▁concubines	-6381
▁counsellor	-6382
▁courageous	-6383
▁graciously	-6384
▁henceforth	-6385
▁ministered	-6386
▁partiality	-6387
▁reconciled	-6388
▁reproaches	-6389
▁surrounded	-6390
▁Melchizedek	-6391
▁acknowledge	-6392
▁distributed	-6393
▁termination	-6394
▁waywardness	-6395
An	-6396
CE	-6397
On	-6398
St	-6399
nt	-6400
zz	-6401
▁:	-6402
All	-6403
ESS	-6404
HER	-6405
See	-6406
ads	-6407
aud	-6408
con	-6409
ebe	-6410
eus	-6411
fly	-6412
ida	-6413
key	-6414
kin	-6415
lay	-6416
mus	-6417
nto	-6418
oni	-6419
ony	-6420
pot	-6421
rim	-6422
rof	-6423
yed	-6424
▁Ac	-6425
▁Bl	-6426
▁Ed	-6427
▁Ga	-6428
▁HE	-6429
▁av	-6430
▁ut	-6431
Make	-6432
ator	-6433
cify	-6434
ctly	-6435
each	-6436
etor	-6437
geth	-6438
hany	-6439
hiet	-6440
icks	-6441
imes	-6442
kana	-6443
laud	-6444
lfur	-6445
nine	-6446
orts	-6447
otha	-6448
ping	-6449
prus	-6450
seat	-6451
unic	-6452
▁Eve	-6453
▁Fin	-6454
▁HIS	-6455
▁Isn	-6456
▁Jaz	-6457
▁Lea	-6458
▁MAY	-6459
▁Sub	-6460
▁WHO	-6461
▁ado	-6462
▁ded	-6463
▁fix	-6464
▁gaz	-6465
▁jaw	-6466
▁mud	-6467
▁owe	-6468
▁rud	-6469
▁sie	-6470
▁tum	-6471
▁unf	-6472
▁vex	-6473
▁vom	-6474
▁wha	-6475
Peace	-6476
Woman	-6477
alene	-6478
arnel	-6479
ashed	-6480
atham	-6481
cline	-6482
hites	-6483
irmed	-6484
isted	-6485
oning	-6486
oster	-6487
plant	-6488
rents	-6489
rings	-6490
smell	-6491
▁Agag	-6492
▁Aram	-6493
▁Coun	-6494
▁Didn	-6495
▁Help	-6496
▁Maas	-6497
▁Naas	-6498
▁None	-6499
▁Saba	-6500
▁Save	-6501
▁Selo	-6502
▁Sepp	-6503
▁True	-6504
▁agre	-6505
▁barn	-6506
▁beds	-6507
▁bows	-6508
▁emer	-6509
▁enri	-6510
▁fare	-6511
▁felt	-6512
▁flax	-6513
▁glut	-6514
▁hart	-6515
▁hasn	-6516
▁hunt	-6517
▁lain	-6518
▁late	-6519
▁lawy	-6520
▁lied	-6521
▁nest	-6522
▁nets	-6523
▁plot	-6524
▁roar	-6525
▁shoe	-6526
▁sink	-6527
▁tend	-6528
▁tens	-6529
▁turt	-6530
▁vile	-6531
▁wert	-6532
▁whis	-6533
▁worn	-6534
ainder	-6535
chable	-6536
father	-6537
footed	-6538
hether	-6539
ortion	-6540
ounced	-6541
priate	-6542
racter	-6543
▁About	-6544
▁Anath	-6545
▁Artem	-6546
▁Bosor	-6547
▁Caath	-6548
▁Creat	-6549
▁Cyrus	-6550
▁Eliab	-6551
▁Elius	-6552
▁Enter	-6553
▁Sabee	-6554
▁Sanct	-6555
▁Shiet	-6556
▁ahead	-6557
▁alien	-6558
▁block	-6559
▁burns	-6560
▁casts	-6561
▁claws	-6562
▁colle	-6563
▁cruel	-6564
▁darts	-6565
▁depos	-6566
▁divin	-6567
▁doubt	-6568
▁feeds	-6569
▁fierc	-6570
▁foxes	-6571
▁fresh	-6572
▁fring	-6573
▁hides	-6574
▁liber	-6575
▁liers	-6576
▁males	-6577
▁mixed	-6578
▁necks	-6579
▁plund	-6580
▁porch	-6581
▁queen	-6582
▁seals	-6583
▁skirt	-6584
▁sowed	-6585
▁thumb	-6586
▁towns	-6587
▁urged	-6588
▁weeds	-6589
▁weren	-6590
▁whelp	-6591
▁wiped	-6592
hathius	-6593
ocation	-6594
verance	-6595
▁Baalim	-6596
▁Cyprus	-6597
▁Dalida	-6598
▁Elisha	-6599
▁Galgal	-6600
▁Jewish	-6601
▁Saphan	-6602
▁amount	-6603
▁baptiz	-6604
▁bloody	-6605
▁borrow	-6606
▁breach	-6607
▁comely	-6608
▁compel	-6609
▁contem	-6610
▁darnel	-6611
▁device	-6612
▁devote	-6613
▁donkey	-6614
▁easier	-6615
▁extend	-6616
▁filthy	-6617
▁finish	-6618
▁fornic	-6619
▁framed	-6620
▁givest	-6621
▁goings	-6622
▁groves	-6623
▁hanged	-6624
▁helmet	-6625
▁injure	-6626
▁kindly	-6627
▁leaven	-6628
▁lilies	-6629
▁loosed	-6630
▁lovest	-6631
▁mantle	-6632
▁melted	-6633
▁murmur	-6634
▁ninety	-6635
▁overfl	-6636
▁parted	-6637
▁perils	-6638
▁plants	-6639
▁prover	-6640
▁relate	-6641
▁remind	-6642
▁riding	-6643
▁selves	-6644
▁slayer	-6645
▁sounds	-6646
▁sulfur	-6647
▁tribut	-6648
▁trying	-6649
▁tumult	-6650
▁unprof	-6651
▁waggon	-6652
▁worker	-6653
elieving	-6654
pleasing	-6655
smelling	-6656
▁Asedoth	-6657
▁Bethany	-6658
▁Bochori	-6659
▁Counsel	-6660
▁Finally	-6661
▁Raphain	-6662
▁Romanus	-6663
▁Stretch	-6664
▁Syrians	-6665
▁Teacher	-6666
▁adorned	-6667
▁confirm	-6668
▁contain	-6669
▁contest	-6670
▁customs	-6671
▁despair	-6672
▁dispute	-6673
▁earthen	-6674
▁evident	-6675
▁explain	-6676
▁fearing	-6677
▁fervent	-6678
▁forgave	-6679
▁froward	-6680
▁gardens	-6681
▁healthy	-6682
▁heavily	-6683
▁highest	-6684
▁longing	-6685
▁outward	-6686
▁pitcher	-6687
▁prolong	-6688
▁reapers	-6689
▁reaping	-6690
▁recover	-6691
▁relieve	-6692
▁reproof	-6693
▁rooster	-6694
▁sorrows	-6695
▁stature	-6696
▁statute	-6697
▁suppose	-6698
▁torrent	-6699
▁tribute	-6700
▁warrior	-6701
▁windows	-6702
▁wishing	-6703
▁yielded	-6704
▁Ephratha	-6705
▁Gomorrha	-6706
▁Jeremiah	-6707
▁Sanctify	-6708
▁abounded	-6709
▁attended	-6710
▁becometh	-6711
▁belonged	-6712
▁bestowed	-6713
▁blasphem	-6714
▁boundary	-6715
▁delights	-6716
▁delivers	-6717
▁denarius	-6718
▁deprived	-6719
▁discover	-6720
▁dishonor	-6721
▁embraced	-6722
▁evermore	-6723
▁examined	-6724
▁festival	-6725
▁gnashing	-6726
▁honeycom	-6727
▁inasmuch	-6728
▁inclined	-6729
▁interpre	-6730
▁laborers	-6731
▁manifold	-6732
▁midwives	-6733
▁persecut	-6734
▁powerful	-6735
▁presents	-6736
▁princess	-6737
▁quarrels	-6738
▁released	-6739
▁scourges	-6740
▁sensible	-6741
▁slothful	-6742
▁suitable	-6743
▁supplied	-6744
▁thinking	-6745
▁torrents	-6746
▁trembled	-6747
▁wondrous	-6748
▁Bethlehem	-6749
▁Magdalene	-6750
▁Thamnatha	-6751
▁agreement	-6752
▁ambuscade	-6753
▁blackness	-6754
▁blasphemy	-6755
▁character	-6756
▁childless	-6757
▁corrupted	-6758
▁declaring	-6759
▁direction	-6760
▁dishonest	-6761
▁disobeyed	-6762
▁disturbed	-6763
▁exhausted	-6764
▁extremity	-6765
▁firmament	-6766
▁hypocrisy	-6767
▁infirmity	-6768
▁lampstand	-6769
▁mysteries	-6770
▁paralytic	-6771
▁paralyzed	-6772
▁plundered	-6773
▁preserves	-6774
▁principal	-6775
▁purchased	-6776
▁questions	-6777
▁receiving	-6778
▁refreshed	-6779
▁remainder	-6780
▁Christians	-6781
▁Pherezites	-6782
▁counselled	-6783
▁diminished	-6784
▁friendship	-6785
▁gentleness	-6786
▁inhabitant	-6787
▁manifested	-6788
▁marvellous	-6789
▁perfection	-6790
▁physicians	-6791
▁prosperous	-6792
▁rebellious	-6793
▁straitened	-6794
▁whensoever	-6795
▁Everlasting	-6796
▁expectation	-6797
▁forgiveness	-6798
▁haughtiness	-6799
▁humiliation	-6800
▁persecuting	-6801
▁persecution	-6802
▁recompensed	-6803
▁bondservants	-6804
▁covetousness	-6805
▁peradventure	-6806
▁perseverance	-6807
▁unrighteously	-6808
▁interpretation	-6809
AD	-6810
AL	-6811
LY	-6812
So	-6813
aa	-6814
co	-6815
mp	-6816
ny	-6817
oi	-6818
▁?	-6819
Can	-6820
Man	-6821
May	-6822
Not	-6823
Son	-6824
aem	-6825
bel	-6826
but	-6827
hew	-6828
olt	-6829
val	-6830
▁BL	-6831
▁Eu	-6832
▁ul	-6833
EREM	-6834
Look	-6835
THER	-6836
acks	-6837
aker	-6838
aned	-6839
arly	-6840
bone	-6841
cias	-6842
clud	-6843
culi	-6844
ebee	-6845
edar	-6846
elli	-6847
good	-6848
hool	-6849
hore	-6850
iber	-6851
inth	-6852
iter	-6853
itre	-6854
ject	-6855
kins	-6856
lamm	-6857
lish	-6858
mana	-6859
math	-6860
mona	-6861
nels	-6862
only	-6863
orob	-6864
oron	-6865
phar	-6866
ploy	-6867
pphi	-6868
rers	-6869
roll	-6870
ruly	-6871
teth	-6872
when	-6873
▁Bes	-6874
▁Bre	-6875
▁Cor	-6876
▁Cry	-6877
▁Dem	-6878
▁Eut	-6879
▁Gam	-6880
▁Ind	-6881
▁Nas	-6882
▁Ple	-6883
▁Som	-6884
▁Sun	-6885
▁THA	-6886
▁Tra	-6887
▁bew	-6888
▁bul	-6889
▁ewe	-6890
▁leg	-6891
▁lux	-6892
▁mus	-6893
▁tip	-6894
▁tow	-6895
▁tur	-6896
▁ven	-6897
▁wel	-6898
Which	-6899
ative	-6900
ceive	-6901
enced	-6902
eress	-6903
holds	-6904
iable	-6905
iator	-6906
imeon	-6907
itary	-6908
liath	-6909
ocked	-6910
odice	-6911
opard	-6912
rated	-6913
saces	-6914
smith	-6915
zelli	-6916
▁Bama	-6917
▁Cain	-6918
▁Enac	-6919
▁Flee	-6920
▁Goth	-6921
▁Pont	-6922
▁Sell	-6923
▁Suba	-6924
▁Well	-6925
▁Were	-6926
▁argu	-6927
▁bank	-6928
▁bend	-6929
▁bone	-6930
▁bund	-6931
▁calm	-6932
▁cler	-6933
▁doer	-6934
▁eggs	-6935
▁girt	-6936
▁hewn	-6937
▁lady	-6938
▁loaf	-6939
▁loos	-6940
▁mire	-6941
▁pert	-6942
▁pots	-6943
▁rear	-6944
▁repe	-6945
▁ring	-6946
▁riot	-6947
▁soil	-6948
▁sple	-6949
▁stop	-6950
▁subd	-6951
▁surv	-6952
▁task	-6953
▁tetr	-6954
▁tore	-6955
▁upro	-6956
▁vult	-6957
▁wage	-6958
▁wave	-6959
▁whir	-6960
Depart	-6961
Follow	-6962
athite	-6963
culiar	-6964
ificer	-6965
meless	-6966
nowest	-6967
opolis	-6968
othite	-6969
perate	-6970
perors	-6971
rucify	-6972
uished	-6973
unning	-6974
▁Achar	-6975
▁Achaz	-6976
▁Aelim	-6977
▁Alpha	-6978
▁BLESS	-6979
▁Faith	-6980
▁JEREM	-6981
▁Jabin	-6982
▁Mercy	-6983
▁Nadab	-6984
▁Place	-6985
▁Psalm	-6986
▁aloof	-6987
▁beset	-6988
▁brace	-6989
▁chase	-6990
▁cheek	-6991
▁compl	-6992
▁dared	-6993
▁drown	-6994
▁embro	-6995
▁escap	-6996
▁filth	-6997
▁flees	-6998
▁grove	-6999
▁herbs	-7000
▁hoofs	-7001
▁kneel	-7002
▁lands	-7003
▁marks	-7004
▁needs	-7005
▁pitch	-7006
▁purse	-7007
▁regul	-7008
▁rider	-7009
▁sense	-7010
▁simil	-7011
▁sland	-7012
▁spots	-7013
▁trium	-7014
▁tunic	-7015
▁ulcer	-7016
▁unpun	-7017
▁whale	-7018
▁wines	-7019
▁wrest	-7020
▁yeast	-7021
Because	-7022
Hearken	-7023
Rejoice	-7024
amation	-7025
hildren	-7026
ileides	-7027
lethite	-7028
utation	-7029
▁Evites	-7030
▁Josias	-7031
▁Simeon	-7032
▁Sophar	-7033
▁Strive	-7034
▁Tobias	-7035
▁Whence	-7036
▁agreed	-7037
▁attach	-7038
▁banish	-7039
▁butter	-7040
▁chance	-7041
▁cheeks	-7042
▁compar	-7043
▁deacon	-7044
▁design	-7045
▁divine	-7046
▁eagles	-7047
▁easily	-7048
▁employ	-7049
▁enters	-7050
▁events	-7051
▁forced	-7052
▁foresk	-7053
▁hardly	-7054
▁hasten	-7055
▁hating	-7056
▁higher	-7057
▁intent	-7058
▁keeper	-7059
▁longed	-7060
▁madest	-7061
▁obeyed	-7062
▁pained	-7063
▁pearls	-7064
▁quaked	-7065
▁quiver	-7066
▁raises	-7067
▁record	-7068
▁revolt	-7069
▁riders	-7070
▁robber	-7071
▁safely	-7072
▁school	-7073
▁shines	-7074
▁sorely	-7075
▁tested	-7076
▁thread	-7077
▁trials	-7078
▁turtle	-7079
▁vainly	-7080
▁walled	-7081
▁weaned	-7082
▁wisely	-7083
iousness	-7084
istrates	-7085
kindness	-7086
orobabel	-7087
structed	-7088
▁Artemis	-7089
▁Chermel	-7090
▁Creator	-7091
▁Forgive	-7092
▁Goliath	-7093
▁Helkana	-7094
▁Incline	-7095
▁Ithamar	-7096
▁Laodice	-7097
▁Pharaoh	-7098
▁Rabbath	-7099
▁Salmana	-7100
▁Servant	-7101
▁Stephen	-7102
▁Through	-7103
▁Whither	-7104
▁ability	-7105
▁applied	-7106
▁avenger	-7107
▁baptize	-7108
▁blesses	-7109
▁bullock	-7110
▁caldron	-7111
▁casteth	-7112
▁ceasing	-7113
▁cheeses	-7114
▁clearly	-7115
▁cleaved	-7116
▁compare	-7117
▁conduct	-7118
▁crucify	-7119
▁cypress	-7120
▁divides	-7121
▁drought	-7122
▁embrace	-7123
▁existed	-7124
▁exposed	-7125
▁fatness	-7126
▁fleeing	-7127
▁fleshly	-7128
▁groaned	-7129
▁harlots	-7130
▁herbage	-7131
▁houseto	-7132
▁immoral	-7133
▁infants	-7134
▁inflamm	-7135
▁intreat	-7136
▁laughed	-7137
▁leaving	-7138
▁lighten	-7139
▁marries	-7140
▁miracle	-7141
▁mothers	-7142
▁neglect	-7143
▁pervert	-7144
▁plainly	-7145
▁platter	-7146
▁playing	-7147
▁proverb	-7148
▁provide	-7149
▁recount	-7150
▁regions	-7151
▁rejects	-7152
▁roaring	-7153
▁setteth	-7154
▁several	-7155
▁showing	-7156
▁slaying	-7157
▁springs	-7158
▁staying	-7159
▁streams	-7160
▁testing	-7161
▁wisheth	-7162
▁Astaroth	-7163
▁Barabbas	-7164
▁Berzelli	-7165
▁JEREMIAS	-7166
▁Likewise	-7167
▁Preacher	-7168
▁Rabsaces	-7169
▁administ	-7170
▁ascribed	-7171
▁attached	-7172
▁attacked	-7173
▁backward	-7174
▁behavior	-7175
▁beheaded	-7176
▁bereaved	-7177
▁calamity	-7178
▁candlest	-7179
▁craftily	-7180
▁disquiet	-7181
▁dwellest	-7182
▁eleventh	-7183
▁enlarged	-7184
▁hardness	-7185
▁heardest	-7186
▁hearkens	-7187
▁impudent	-7188
▁lamented	-7189
▁leavened	-7190
▁magician	-7191
▁mediator	-7192
▁overlook	-7193
▁peculiar	-7194
▁praising	-7195
▁produced	-7196
▁publicly	-7197
▁purchase	-7198
▁pursuing	-7199
▁required	-7200
▁reserved	-7201
▁reviling	-7202
▁security	-7203
▁sexually	-7204
▁sparrows	-7205
▁speaketh	-7206
▁statutes	-7207
▁swearing	-7208
▁tetrarch	-7209
▁threaten	-7210
▁trampled	-7211
▁transfer	-7212
▁treasury	-7213
▁unworthy	-7214
▁virtuous	-7215
▁warriors	-7216
▁Afterward	-7217
▁Baethoron	-7218
▁Cornelius	-7219
▁Elimelech	-7220
▁Jebusites	-7221
▁Judgement	-7222
▁Nathanael	-7223
▁Patriarch	-7224
▁Whosoever	-7225
▁artificer	-7226
▁ascending	-7227
▁benefited	-7228
▁collector	-7229
▁conscious	-7230
▁contended	-7231
▁destitute	-7232
▁didrachms	-7233
▁dismissed	-7234
▁entrusted	-7235
▁existence	-7236
▁imitators	-7237
▁mischiefs	-7238
▁pasturing	-7239
▁peaceably	-7240
▁prevented	-7241
▁privately	-7242
▁prospered	-7243
▁recovered	-7244
▁returning	-7245
▁shameless	-7246
▁subjected	-7247
▁tormented	-7248
▁tributary	-7249
▁uttermost	-7250
▁valiantly	-7251
▁winepress	-7252
▁Basileides	-7253
▁Gabaonites	-7254
▁adulteress	-7255
▁chastening	-7256
▁concerneth	-7257
▁everywhere	-7258
▁falsehoods	-7259
▁fierceness	-7260
▁foreigners	-7261
▁maintained	-7262
▁perceiving	-7263
▁unpunished	-7264
▁Eusthathius	-7265
▁ambassadors	-7266
▁appropriate	-7267
▁constrained	-7268
▁dishonoured	-7269
▁disregarded	-7270
▁distinction	-7271
▁drunkenness	-7272
▁exhortation	-7273
▁magistrates	-7274
▁preparation	-7275
▁threatening	-7276
▁unbelieving	-7277
▁uprightness	-7278
▁wheresoever	-7279
▁carelessness	-7280
▁consecration	-7281
▁proclamation	-7282
▁uninstructed	-7283
▁unprofitable	-7284
▁treacherously	-7285
▁whithersoever	-7286
▁lovingkindness	-7287
AR	-7288
Ag	-7289
By	-7290
FE	-7291
ca	-7292
gr	-7293
kn	-7294
no	-7295
uy	-7296
ws	-7297
!''	-7298
Isn	-7299
MEN	-7300
OLY	-7301
Sit	-7302
ada	-7303
asy	-7304
bue	-7305
cia	-7306
ena	-7307
fth	-7308
gad	-7309
how	-7310
ica	-7311
jan	-7312
nam	-7313
oam	-7314
oul	-7315
phr	-7316
rif	-7317
see	-7318
sop	-7319
tos	-7320
unt	-7321
wed	-7322
zor	-7323
▁''	-7324
▁AG	-7325
▁CO	-7326
▁Er	-7327
▁RE	-7328
▁SA	-7329
▁ec	-7330
From	-7331
adru	-7332
aean	-7333
aida	-7334
arth	-7335
atia	-7336
chin	-7337
chon	-7338
epha	-7339
even	-7340
ezer	-7341
face	-7342
hang	-7343
holy	-7344
host	-7345
iron	-7346
ntil	-7347
omed	-7348
ours	-7349
phah	-7350
rene	-7351
rete	-7352
ruct	-7353
seth	-7354
soci	-7355
stra	-7356
thou	-7357
uchi	-7358
unto	-7359
whor	-7360
xity	-7361
▁Agg	-7362
▁Asa	-7363
▁Com	-7364
▁Des	-7365
▁Epa	-7366
▁Est	-7367
▁Far	-7368
▁GOD	-7369
▁Jet	-7370
▁Luz	-7371
▁Lyd	-7372
▁Mas	-7373
▁Mol	-7374
▁Nav	-7375
▁Rag	-7376
▁Sac	-7377
▁Sep	-7378
▁Sur	-7379
▁Way	-7380
▁Wor	-7381
▁adm	-7382
▁bud	-7383
▁col	-7384
▁dan	-7385
▁deb	-7386
▁dip	-7387
▁doe	-7388
▁fra	-7389
▁fut	-7390
▁hin	-7391
▁hur	-7392
▁ice	-7393
▁key	-7394
▁mot	-7395
▁sme	-7396
▁smo	-7397
▁uns	-7398
▁urg	-7399
▁vap	-7400
▁vig	-7401
▁wed	-7402
AINST	-7403
Offer	-7404
Today	-7405
achor	-7406
aimed	-7407
amite	-7408
ammon	-7409
arers	-7410
arsus	-7411
asper	-7412
atche	-7413
ckets	-7414
doers	-7415
doing	-7416
ences	-7417
enite	-7418
erity	-7419
erred	-7420
goats	-7421
grity	-7422
icles	-7423
ierce	-7424
iless	-7425
inces	-7426
inner	-7427
isten	-7428
mente	-7429
oints	-7430
optos	-7431
ounce	-7432
racks	-7433
rench	-7434
seven	-7435
umble	-7436
urius	-7437
verse	-7438
zebul	-7439
▁AMEN	-7440
▁Arad	-7441
▁Bald	-7442
▁CAME	-7443
▁Care	-7444
▁Debl	-7445
▁Eliu	-7446
▁Fire	-7447
▁Gera	-7448
▁Gitt	-7449
▁HOLY	-7450
▁Icon	-7451
▁Jael	-7452
▁Just	-7453
▁Maon	-7454
▁Naph	-7455
▁Obed	-7456
▁Oreb	-7457
▁Pity	-7458
▁Test	-7459
▁Walk	-7460
▁bake	-7461
▁bald	-7462
▁bite	-7463
▁bulw	-7464
▁circ	-7465
▁comb	-7466
▁deem	-7467
▁dull	-7468
▁fatt	-7469
▁fert	-7470
▁hiss	-7471
▁hole	-7472
▁hosp	-7473
▁lint	-7474
▁mice	-7475
▁rope	-7476
▁rush	-7477
▁sang	-7478
▁sect	-7479
▁shot	-7480
▁snat	-7481
▁sole	-7482
▁spit	-7483
▁tale	-7484
▁unic	-7485
▁unli	-7486
▁unre	-7487
▁wipe	-7488
acheth	-7489
ainted	-7490
camore	-7491
ctions	-7492
enarii	-7493
etimes	-7494
omever	-7495
othing	-7496
pelled	-7497
semble	-7498
uously	-7499
▁Achin	-7500
▁Ascha	-7501
▁Athen	-7502
▁Begin	-7503
▁Earth	-7504
▁Emmor	-7505
▁Enoch	-7506
▁Glory	-7507
▁Jason	-7508
▁Jazer	-7509
▁Jobel	-7510
▁Teach	-7511
▁Tobit	-7512
▁Troas	-7513
▁Watch	-7514
▁Wrath	-7515
▁abuse	-7516
▁advoc	-7517
▁alarm	-7518
▁aware	-7519
▁baked	-7520
▁beach	-7521
▁boats	-7522
▁broad	-7523
▁brood	-7524
▁cares	-7525
▁catch	-7526
▁coats	-7527
▁convi	-7528
▁couch	-7529
▁cured	-7530
▁ended	-7531
▁ephah	-7532
▁exper	-7533
▁folds	-7534
▁hopes	-7535
▁infer	-7536
▁isles	-7537
▁kills	-7538
▁knead	-7539
▁lover	-7540
▁magic	-7541
▁meats	-7542
▁mitre	-7543
▁mound	-7544
▁oaths	-7545
▁older	-7546
▁plent	-7547
▁quant	-7548
▁razor	-7549
▁relax	-7550
▁remed	-7551
▁roast	-7552
▁rough	-7553
▁seeds	-7554
▁seeth	-7555
▁shave	-7556
▁shoes	-7557
▁siege	-7558
▁sighs	-7559
▁slipp	-7560
▁stick	-7561
▁swell	-7562
▁swine	-7563
▁tasks	-7564
▁taxes	-7565
▁twent	-7566
▁unlaw	-7567
▁vexed	-7568
▁vomit	-7569
▁wells	-7570
▁wheel	-7571
▁whirl	-7572
barians	-7573
charist	-7574
control	-7575
etorium	-7576
harvest	-7577
lerable	-7578
ourably	-7579
whoring	-7580
▁Amente	-7581
▁Arabia	-7582
▁Ephron	-7583
▁Gelbue	-7584
▁Hierax	-7585
▁Honour	-7586
▁Indeed	-7587
▁Jechon	-7588
▁Jether	-7589
▁Lystra	-7590
▁Navath	-7591
▁Raguel	-7592
▁Trajan	-7593
▁ambush	-7594
▁associ	-7595
▁bottom	-7596
▁bribes	-7597
▁commun	-7598
▁contro	-7599
▁debtor	-7600
▁decree	-7601
▁defied	-7602
▁despis	-7603
▁dissol	-7604
▁esteem	-7605
▁exting	-7606
▁greets	-7607
▁guards	-7608
▁guests	-7609
▁guides	-7610
▁honest	-7611
▁idolat	-7612
▁intell	-7613
▁knives	-7614
▁leader	-7615
▁leaped	-7616
▁loaded	-7617
▁malice	-7618
▁marked	-7619
▁moving	-7620
▁paying	-7621
▁pierce	-7622
▁plenty	-7623
▁prefer	-7624
▁pulled	-7625
▁quadru	-7626
▁sapphi	-7627
▁satisf	-7628
▁snared	-7629
▁spears	-7630
▁spider	-7631
▁splend	-7632
▁spouse	-7633
▁taketh	-7634
▁tokens	-7635
▁tossed	-7636
▁towers	-7637
▁trench	-7638
▁unholy	-7639
▁unsear	-7640
▁unwise	-7641
▁utmost	-7642
▁valour	-7643
▁virtue	-7644
▁volume	-7645
▁wasted	-7646
▁winged	-7647
▁yellow	-7648
cription	-7649
ribution	-7650
uchianus	-7651
▁AGAINST	-7652
▁Achicam	-7653
▁Achitob	-7654
▁Araboth	-7655
▁Eliphaz	-7656
▁Iconium	-7657
▁Letters	-7658
▁Philipp	-7659
▁Prepare	-7660
▁Sepphor	-7661
▁Without	-7662
▁abiding	-7663
▁abolish	-7664
▁angered	-7665
▁anxiety	-7666
▁conceit	-7667
▁cunning	-7668
▁custody	-7669
▁defence	-7670
▁defraud	-7671
▁denarii	-7672
▁devoted	-7673
▁distant	-7674
▁disting	-7675
▁disturb	-7676
▁eagerly	-7677
▁emperor	-7678
▁exulted	-7679
▁flaming	-7680
▁flatter	-7681
▁footmen	-7682
▁freedom	-7683
▁judging	-7684
▁labored	-7685
▁lacking	-7686
▁lifting	-7687
▁lodging	-7688
▁looketh	-7689
▁madness	-7690
▁marched	-7691
▁monkish	-7692
▁natives	-7693
▁nearest	-7694
▁numbers	-7695
▁outcast	-7696
▁palaces	-7697
▁partake	-7698
▁pitiful	-7699
▁plaster	-7700
▁pricked	-7701
▁prisons	-7702
▁regards	-7703
▁renewed	-7704
▁sheweth	-7705
▁shortly	-7706
▁smelled	-7707
▁sockets	-7708
▁strikes	-7709
▁suffers	-7710
▁suffice	-7711
▁surface	-7712
▁sweeter	-7713
▁terrify	-7714
▁thereon	-7715
▁torches	-7716
▁tremble	-7717
▁triumph	-7718
▁twelfth	-7719
▁washing	-7720
▁worketh	-7721
▁wronged	-7722
▁Ammanite	-7723
▁Anathoth	-7724
▁Emperors	-7725
▁Herodias	-7726
▁Laodicea	-7727
▁Maasaeas	-7728
▁Ramesses	-7729
▁Theopist	-7730
▁Whenever	-7731
▁arrested	-7732
▁articles	-7733
▁ascended	-7734
▁assigned	-7735
▁barracks	-7736
▁beckoned	-7737
▁besought	-7738
▁charmers	-7739
▁dealings	-7740
▁deceiver	-7741
▁delicate	-7742
▁derision	-7743
▁describe	-7744
▁disputes	-7745
▁drunkard	-7746
▁enduring	-7747
▁entreaty	-7748
▁executed	-7749
▁formerly	-7750
▁grinding	-7751
▁hardship	-7752
▁harmless	-7753
▁insulted	-7754
▁joyfully	-7755
▁kindreds	-7756
▁meekness	-7757
▁mightier	-7758
▁murderer	-7759
▁overtook	-7760
▁passions	-7761
▁portions	-7762
▁rebelled	-7763
▁reconcil	-7764
▁religion	-7765
▁requests	-7766
▁rewarded	-7767
▁scatters	-7768
▁services	-7769
▁solemnly	-7770
▁speakest	-7771
▁supplies	-7772
▁surnamed	-7773
▁swelling	-7774
▁sycamore	-7775
▁terribly	-7776
▁timbrels	-7777
▁valuable	-7778
▁whomever	-7779
▁withheld	-7780
▁withhold	-7781
▁youngest	-7782
▁Beelzebul	-7783
▁Bethsaida	-7784
▁Chettites	-7785
▁Eucharist	-7786
▁Forasmuch	-7787
▁Gergesite	-7788
▁Mercurius	-7789
▁adversity	-7790
▁answering	-7791
▁appearing	-7792
▁assuredly	-7793
▁baptizing	-7794
▁behaviour	-7795
▁beholding	-7796
▁blaspheme	-7797
▁brotherly	-7798
▁celebrate	-7799
▁childhood	-7800
▁cleansing	-7801
▁confirmed	-7802
▁conquered	-7803
▁continues	-7804
▁entertain	-7805
▁expecting	-7806
▁fashioned	-7807
▁handmaids	-7808
▁honeycomb	-7809
▁honorable	-7810
▁indignant	-7811
▁insolence	-7812
▁integrity	-7813
▁intending	-7814
▁mentioned	-7815
▁numbering	-7816
▁pestilent	-7817
▁posterity	-7818
▁protector	-7819
▁sorcerers	-7820
▁sorceries	-7821
▁springing	-7822
▁threshold	-7823
▁thundered	-7824
▁twentieth	-7825
▁uncovered	-7826
▁uprightly	-7827
▁utterance	-7828
▁willingly	-7829
▁wineskins	-7830
▁withstood	-7831
▁Afterwards	-7832
▁Barbarians	-7833
▁Israelites	-7834
▁Samaritans	-7835
▁Whensoever	-7836
▁acquainted	-7837
▁centenarii	-7838
▁dishonours	-7839
▁disquieted	-7840
▁forefather	-7841
▁glorifying	-7842
▁lampstands	-7843
▁passionate	-7844
▁perplexity	-7845
▁prostitute	-7846
▁provisions	-7847
▁sojourning	-7848
▁weaknesses	-7849
▁Eutuchianus	-7850
▁accordingly	-7851
▁breastplate	-7852
▁citizenship	-7853
▁counsellors	-7854
▁deceitfully	-7855
▁enlightened	-7856
▁fulfillment	-7857
▁habitations	-7858
▁marketplace	-7859
▁pomegranate	-7860
▁prophesying	-7861
▁stewardship	-7862
▁strengthens	-7863
▁temptations	-7864
▁worshipping	-7865
▁Peradventure	-7866
▁Thessalonica	-7867
▁acquaintance	-7868
▁appertaineth	-7869
▁inflammation	-7870
▁nevertheless	-7871
▁unsearchable	-7872
▁longsuffering	-7873
▁supplications	-7874
▁principalities	-7875
'?	-7876
.)	-7877
At	-7878
IC	-7879
IM	-7880
IO	-7881
Of	-7882
Th	-7883
da	-7884
dy	-7885
eg	-7886
eo	-7887
mi	-7888
ns	-7889
Hon	-7890
ICH	-7891
IFE	-7892
IME	-7893
Men	-7894
OPH	-7895
Our	-7896
Rep	-7897
ado	-7898
ago	-7899
ait	-7900
asa	-7901
bra	-7902
cce	-7903
chr	-7904
din	-7905
eat	-7906
eca	-7907
elu	-7908
fes	-7909
hab	-7910
hry	-7911
ieg	-7912
isp	-7913
lia	-7914
nes	-7915
ods	-7916
oec	-7917
ram	-7918
ria	-7919
rop	-7920
set	-7921
tol	-7922
ump	-7923
vid	-7924
▁',	-7925
▁Ah	-7926
▁CH	-7927
▁Ec	-7928
▁Ir	-7929
▁Ro	-7930
▁gn	-7931
▁iv	-7932
▁od	-7933
▁oh	-7934
EACE	-7935
Even	-7936
Frie	-7937
NING	-7938
Pray	-7939
Send	-7940
Sirs	-7941
adia	-7942
aphi	-7943
aret	-7944
arks	-7945
chis	-7946
cial	-7947
cile	-7948
deth	-7949
eded	-7950
educ	-7951
emus	-7952
fted	-7953
gers	-7954
hant	-7955
henn	-7956
hook	-7957
iath	-7958
ieve	-7959
ildo	-7960
kely	-7961
lers	-7962
neys	-7963
onne	-7964
oped	-7965
ourd	-7966
rant	-7967
rehe	-7968
reme	-7969
rict	-7970
rink	-7971
rows	-7972
rung	-7973
stal	-7974
what	-7975
zard	-7976
▁ALL	-7977
▁App	-7978
▁Aqu	-7979
▁Bow	-7980
▁Buy	-7981
▁CON	-7982
▁Dae	-7983
▁Din	-7984
▁Dor	-7985
▁Enn	-7986
▁Hig	-7987
▁Its	-7988
▁Lod	-7989
▁Nah	-7990
▁Nom	-7991
▁Oza	-7992
▁Phe	-7993
▁Sau	-7994
▁Sus	-7995
▁Tap	-7996
▁Thr	-7997
▁aim	-7998
▁arr	-7999
▁avo	-8000
▁bat	-8001
▁bun	-8002
▁cav	-8003
▁cin	-8004
▁dru	-8005
▁fis	-8006
▁fun	-8007
▁gen	-8008
▁gir	-8009
▁mod	-8010
▁org	-8011
▁ori	-8012
▁pag	-8013
▁roe	-8014
▁sne	-8015
▁toe	-8016
▁unm	-8017
▁upb	-8018
▁vip	-8019
After	-8020
Again	-8021
Bring	-8022
Honor	-8023
ISION	-8024
Simon	-8025
Those	-8026
alled	-8027
amble	-8028
ameel	-8029
amphy	-8030
aphim	-8031
arate	-8032
arias	-8033
arned	-8034
avest	-8035
coast	-8036
elias	-8037
fruit	-8038
gnant	-8039
hange	-8040
hosha	-8041
iathi	-8042
igent	-8043
imuth	-8044
inite	-8045
inity	-8046
itish	-8047
iture	-8048
moute	-8049
namon	-8050
okott	-8051
oniel	-8052
onite	-8053
onsul	-8054
orate	-8055
ppado	-8056
pping	-8057
quent	-8058
rence	-8059
stles	-8060
there	-8061
thern	-8062
uffed	-8063
ulate	-8064
ulsed	-8065
ultiv	-8066
verns	-8067
versy	-8068
while	-8069
▁Aren	-8070
▁Doec	-8071
▁Elam	-8072
▁Epep	-8073
▁Gird	-8074
▁Hell	-8075
▁Hold	-8076
▁Howl	-8077
▁Inst	-8078
▁Into	-8079
▁Joas	-8080
▁Much	-8081
▁Ones	-8082
▁Rest	-8083
▁Shew	-8084
▁Shou	-8085
▁Slay	-8086
▁TETH	-8087
▁Than	-8088
▁Thec	-8089
▁Thol	-8090
▁Weep	-8091
▁babb	-8092
▁baby	-8093
▁bees	-8094
▁belt	-8095
▁blue	-8096
▁buck	-8097
▁curt	-8098
▁dear	-8099
▁depe	-8100
▁dign	-8101
▁digs	-8102
▁fact	-8103
▁fins	-8104
▁flew	-8105
▁frag	-8106
▁gaze	-8107
▁godd	-8108
▁heel	-8109
▁infl	-8110
▁kids	-8111
▁lear	-8112
▁lice	-8113
▁mina	-8114
▁mule	-8115
▁opin	-8116
▁perm	-8117
▁rate	-8118
▁resp	-8119
▁ride	-8120
▁sard	-8121
▁scre	-8122
▁seer	-8123
▁simp	-8124
▁sine	-8125
▁slip	-8126
▁sour	-8127
▁spun	-8128
▁susp	-8129
▁vehe	-8130
▁warm	-8131
▁wink	-8132
▁wore	-8133
Friend	-8134
Master	-8135
allelu	-8136
amples	-8137
archus	-8138
arenes	-8139
attern	-8140
bition	-8141
chicus	-8142
course	-8143
denago	-8144
eddara	-8145
ifying	-8146
ileans	-8147
irited	-8148
isheth	-8149
isible	-8150
odemus	-8151
phegor	-8152
priest	-8153
pulous	-8154
rating	-8155
▁Achor	-8156
▁Adoni	-8157
▁Aelom	-8158
▁Antil	-8159
▁Aphec	-8160
▁Ariel	-8161
▁Arist	-8162
▁Armen	-8163
▁Balac	-8164
▁Blood	-8165
▁Chast	-8166
▁Crete	-8167
▁Gazer	-8168
▁Honor	-8169
▁Jaboc	-8170
▁Jarim	-8171
▁Medes	-8172
▁Media	-8173
▁Misor	-8174
▁Nabau	-8175
▁Napht	-8176
▁Nasib	-8177
▁PEACE	-8178
▁Prisc	-8179
▁Raphi	-8180
▁Trust	-8181
▁Truth	-8182
▁WHICH	-8183
▁acted	-8184
▁amiss	-8185
▁armor	-8186
▁awoke	-8187
▁basis	-8188
▁blows	-8189
▁bount	-8190
▁clave	-8191
▁coins	-8192
▁conne	-8193
▁creep	-8194
▁dough	-8195
▁drach	-8196
▁fetch	-8197
▁fills	-8198
▁gains	-8199
▁glass	-8200
▁gloom	-8201
▁glutt	-8202
▁gourd	-8203
▁heals	-8204
▁helps	-8205
▁homes	-8206
▁imper	-8207
▁insat	-8208
▁ivory	-8209
▁liars	-8210
▁lifts	-8211
▁limbs	-8212
▁lines	-8213
▁locks	-8214
▁music	-8215
▁nurse	-8216
▁quite	-8217
▁robes	-8218
▁shorn	-8219
▁sling	-8220
▁sores	-8221
▁stole	-8222
▁succe	-8223
▁tails	-8224
▁tells	-8225
▁terms	-8226
▁track	-8227
▁troop	-8228
▁venom	-8229
▁waxed	-8230
▁woven	-8231
astered	-8232
avement	-8233
habited	-8234
iegated	-8235
masters	-8236
okottin	-8237
olished	-8238
pentine	-8239
▁Abiron	-8240
▁Aquila	-8241
▁Athens	-8242
▁Attend	-8243
▁Baldad	-8244
▁Chaber	-8245
▁Charge	-8246
▁Cyrene	-8247
▁Daebon	-8248
▁Epaphr	-8249
▁Gedsur	-8250
▁Humble	-8251
▁Listen	-8252
▁Mariam	-8253
▁Messab	-8254
▁Misach	-8255
▁Nachor	-8256
▁Pamphy	-8257
▁Pharan	-8258
▁Phares	-8259
▁Prepar	-8260
▁Remain	-8261
▁Salmon	-8262
▁Somnas	-8263
▁Tarsus	-8264
▁Thabor	-8265
▁aliens	-8266
▁ascent	-8267
▁babies	-8268
▁barbar	-8269
▁beggar	-8270
▁begins	-8271
▁behave	-8272
▁blight	-8273
▁boasts	-8274
▁bodily	-8275
▁brooks	-8276
▁bundle	-8277
▁clergy	-8278
▁cloths	-8279
▁crafts	-8280
▁create	-8281
▁cultiv	-8282
▁dances	-8283
▁dawned	-8284
▁denies	-8285
▁dinner	-8286
▁discus	-8287
▁disple	-8288
▁enquir	-8289
▁evildo	-8290
▁fables	-8291
▁farmer	-8292
▁fisher	-8293
▁fringe	-8294
▁geneal	-8295
▁griefs	-8296
▁hallow	-8297
▁hearth	-8298
▁hiding	-8299
▁hoping	-8300
▁immort	-8301
▁infant	-8302
▁jasper	-8303
▁laughs	-8304
▁lepers	-8305
▁lights	-8306
▁livest	-8307
▁locked	-8308
▁makest	-8309
▁mammon	-8310
▁martyr	-8311
▁minded	-8312
▁mourns	-8313
▁nostri	-8314
▁object	-8315
▁origin	-8316
▁partly	-8317
▁perfum	-8318
▁possib	-8319
▁rained	-8320
▁ravens	-8321
▁reaped	-8322
▁regret	-8323
▁renown	-8324
▁reprob	-8325
▁result	-8326
▁rotten	-8327
▁salute	-8328
▁shaven	-8329
▁shrine	-8330
▁shrink	-8331
▁smooth	-8332
▁soever	-8333
▁stadia	-8334
▁sticks	-8335
▁stores	-8336
▁stormy	-8337
▁transl	-8338
▁travel	-8339
▁undert	-8340
▁vipers	-8341
▁wallet	-8342
▁warmed	-8343
▁warred	-8344
▁yearly	-8345
▁youths	-8346
hysician	-8347
ometimes	-8348
standing	-8349
thearted	-8350
▁Aggaeus	-8351
▁Alexand	-8352
▁Anameel	-8353
▁Believe	-8354
▁Cappado	-8355
▁Cariath	-8356
▁Chusars	-8357
▁Corinth	-8358
▁Delight	-8359
▁Eliakim	-8360
▁Elisama	-8361
▁Galatia	-8362
▁Highest	-8363
▁Jehosha	-8364
▁Jephone	-8365
▁Joatham	-8366
▁Sabaoth	-8367
▁Saraeas	-8368
▁Sedrach	-8369
▁Selmona	-8370
▁Sinners	-8371
▁Spirits	-8372
▁Trinity	-8373
▁Whether	-8374
▁abounds	-8375
▁billows	-8376
▁blinded	-8377
▁bramble	-8378
▁bruises	-8379
▁calleth	-8380
▁carpent	-8381
▁causing	-8382
▁changes	-8383
▁cleaves	-8384
▁committ	-8385
▁conclud	-8386
▁conquer	-8387
▁crowned	-8388
▁crystal	-8389
▁debtors	-8390
▁degrees	-8391
▁departs	-8392
▁descent	-8393
▁devises	-8394
▁devours	-8395
▁dischar	-8396
▁display	-8397
▁drawing	-8398
▁earthly	-8399
▁endless	-8400
▁enjoyed	-8401
▁escapes	-8402
▁exactly	-8403
▁excuses	-8404
▁falleth	-8405
▁feeling	-8406
▁figures	-8407
▁filleth	-8408
▁fitting	-8409
▁forbear	-8410
▁furious	-8411
▁gateway	-8412
▁gathere	-8413
▁gleaned	-8414
▁grafted	-8415
▁greeted	-8416
▁hamlets	-8417
▁hearest	-8418
▁heareth	-8419
▁illumin	-8420
▁imagine	-8421
▁inquire	-8422
▁kidneys	-8423
▁knocked	-8424
▁lawyers	-8425
▁leaning	-8426
▁leopard	-8427
▁likened	-8428
▁maidens	-8429
▁manager	-8430
▁martyrs	-8431
▁meeting	-8432
▁mustard	-8433
▁needful	-8434
▁noticed	-8435
▁nourish	-8436
▁offices	-8437
▁opposed	-8438
▁parched	-8439
▁pattern	-8440
▁planned	-8441
▁prayest	-8442
▁private	-8443
▁profess	-8444
▁railing	-8445
▁rebuild	-8446
▁redeems	-8447
▁requite	-8448
▁resists	-8449
▁reviled	-8450
▁revived	-8451
▁rewards	-8452
▁seekest	-8453
▁sentest	-8454
▁shadows	-8455
▁sheaves	-8456
▁sinning	-8457
▁slipped	-8458
▁smiting	-8459
▁sorcery	-8460
▁sparing	-8461
▁speaker	-8462
▁special	-8463
▁spokest	-8464
▁spotted	-8465
▁strifes	-8466
▁suckled	-8467
▁surpass	-8468
▁swiftly	-8469
▁upbraid	-8470
▁visible	-8471
▁walkest	-8472
▁wanders	-8473
▁warring	-8474
▁weather	-8475
▁wedding	-8476
▁workman	-8477
allelujah	-8478
iathiarim	-8479
▁Abdenago	-8480
▁Abeddara	-8481
▁Abenezer	-8482
▁Arabians	-8483
▁BLESSING	-8484
▁Chelcias	-8485
▁Ethiopia	-8486
▁Inasmuch	-8487
▁Jephonne	-8488
▁Jerimuth	-8489
▁Philippi	-8490
▁Prophets	-8491
▁Raphidin	-8492
▁Seraphim	-8493
▁Servants	-8494
▁Shepherd	-8495
▁Tychicus	-8496
▁accusers	-8497
▁addition	-8498
▁adoption	-8499
▁ambition	-8500
▁appoints	-8501
▁assemble	-8502
▁baldness	-8503
▁builders	-8504
▁charging	-8505
▁cinnamon	-8506
▁citizens	-8507
▁contempl	-8508
▁decision	-8509
▁defended	-8510
▁despises	-8511
▁district	-8512
▁dwelleth	-8513
▁embarked	-8514
▁exalteth	-8515
▁exhorted	-8516
▁handsome	-8517
▁hitherto	-8518
▁imagined	-8519
▁imprison	-8520
▁inferior	-8521
▁injuries	-8522
▁insolent	-8523
▁inwardly	-8524
▁learning	-8525
▁medicine	-8526
▁occupied	-8527
▁overseer	-8528
▁pastures	-8529
▁peaceful	-8530
▁persuade	-8531
▁pleaseth	-8532
▁populous	-8533
▁practise	-8534
▁pregnant	-8535
▁procures	-8536
▁properly	-8537
▁prospers	-8538
▁province	-8539
▁provokes	-8540
▁ravished	-8541
▁reciting	-8542
▁repeated	-8543
▁sapphire	-8544
▁scorpion	-8545
▁searches	-8546
▁severely	-8547
▁shooteth	-8548
▁smallest	-8549
▁suckling	-8550
▁supports	-8551
▁surveyed	-8552
▁unlikely	-8553
▁unreason	-8554
▁vanished	-8555
▁vanishes	-8556
▁vehement	-8557
▁Alexander	-8558
▁Carmelite	-8559
▁Counselor	-8560
▁Galaadite	-8561
▁Galileans	-8562
▁Gothoniel	-8563
▁Nicodemus	-8564
▁Pamphylia	-8565
▁Phoenicia	-8566
▁Samaritan	-8567
▁Sidonians	-8568
▁amazement	-8569
▁anchorite	-8570
▁announced	-8571
▁assurance	-8572
▁certainty	-8573
▁collected	-8574
▁commander	-8575
▁commended	-8576
▁compelled	-8577
▁confesses	-8578
▁conspired	-8579
▁dedicated	-8580
▁described	-8581
▁dissolved	-8582
▁execution	-8583
▁exhorting	-8584
▁explained	-8585
▁extortion	-8586
▁faithless	-8587
▁fifteenth	-8588
▁foreheads	-8589
▁furniture	-8590
▁goldsmith	-8591
▁governors	-8592
▁greetings	-8593
▁groanings	-8594
▁husbandry	-8595
▁increases	-8596
▁innocency	-8597
▁intercess	-8598
▁invisible	-8599
▁listening	-8600
▁measuring	-8601
▁merciless	-8602
▁neighbors	-8603
▁nourished	-8604
▁oppresses	-8605
▁patriarch	-8606
▁peaceable	-8607
▁permitted	-8608
▁presented	-8609
▁proconsul	-8610
▁proselyte	-8611
▁rebellion	-8612
▁reconcile	-8613
▁scorpions	-8614
▁sevenfold	-8615
▁slumbered	-8616
▁sweetness	-8617
▁tolerable	-8618
▁tradition	-8619
▁travailed	-8620
▁traveller	-8621
▁wandering	-8622
▁Praetorium	-8623
▁Thaemanite	-8624
▁adulterers	-8625
▁approached	-8626
▁burdensome	-8627
▁comparison	-8628
▁consecrate	-8629
▁continuing	-8630
▁delivering	-8631
▁difficulty	-8632
▁encouraged	-8633
▁experience	-8634
▁overshadow	-8635
▁pertaining	-8636
▁powerfully	-8637
▁prophetess	-8638
▁propitious	-8639
▁proselytes	-8640
▁refreshing	-8641
▁sanctifies	-8642
▁similitude	-8643
▁travelling	-8644
▁turpentine	-8645
▁variegated	-8646
▁Antilibanus	-8647
▁Aristarchus	-8648
▁Destruction	-8649
▁Jehoshaphat	-8650
▁Preparation	-8651
▁accountants	-8652
▁authorities	-8653
▁controversy	-8654
▁establishes	-8655
▁forefathers	-8656
▁imagination	-8657
▁infirmities	-8658
▁intelligent	-8659
▁interpreted	-8660
▁overwhelmed	-8661
▁proclaiming	-8662
▁remembering	-8663
▁righteously	-8664
▁wonderfully	-8665
▁extinguished	-8666
▁fainthearted	-8667
▁marketplaces	-8668
▁persecutions	-8669
▁Chusarsathaim	-8670
▁contradiction	-8671
▁encouragement	-8672
):	-8673
AB	-8674
Ne	-8675
PA	-8676
TE	-8677
YR	-8678
bu	-8679
fu	-8680
ht	-8681
io	-8682
mo	-8683
ni	-8684
wd	-8685
ye	-8686
ADE	-8687
Bew	-8688
CHS	-8689
Che	-8690
ENT	-8691
EPH	-8692
LOR	-8693
Put	-8694
SEN	-8695
aar	-8696
akk	-8697
beg	-8698
bin	-8699
CER	-8700
ERT	-8701
ERY	-8702
PON	-8703
boc	-8704
bow	-8705
bur	-8706
cas	-8707
cep	-8708
col	-8709
eas	-8710
ebt	-8711
ele	-8712
gat	-8713
gen	-8714
gob	-8715
hos	-8716
ira	-8717
ker	-8718
off	-8719
ogy	-8720
ona	-8721
ops	-8722
pid	-8723
rid	-8724
rog	-8725
sga	-8726
sts	-8727
tri	-8728
ubb	-8729
wit	-8730
yrs	-8731
▁Gu	-8732
▁Hy	-8733
▁JO	-8734
▁Lu	-8735
▁ON	-8736
▁WE	-8737
▁ty	-8738
AMED	-8739
Aren	-8740
Didn	-8741
HAPH	-8742
IMEL	-8743
Paul	-8744
Thus	-8745
Well	-8746
With	-8747
acle	-8748
adel	-8749
agar	-8750
ageb	-8751
alry	-8752
anna	-8753
anqu	-8754
aris	-8755
avel	-8756
baid	-8757
bbed	-8758
bbit	-8759
body	-8760
deme	-8761
dled	-8762
dove	-8763
edec	-8764
emly	-8765
ends	-8766
erbe	-8767
goat	-8768
hela	-8769
herd	-8770
hill	-8771
hnas	-8772
illa	-8773
keth	-8774
mega	-8775
mond	-8776
odae	-8777
ouch	-8778
peds	-8779
phni	-8780
raba	-8781
rald	-8782
rawn	-8783
rier	-8784
rios	-8785
ripe	-8786
rons	-8787
some	-8788
ssop	-8789
ster	-8790
them	-8791
ties	-8792
tong	-8793
utor	-8794
will	-8795
wind	-8796
word	-8797
xion	-8798
▁AIN	-8799
▁Amb	-8800
▁Arc	-8801
▁Ase	-8802
▁Ban	-8803
▁Cle	-8804
▁DAL	-8805
▁Div	-8806
▁Hor	-8807
▁JOD	-8808
▁Jan	-8809
▁Leb	-8810
▁Lob	-8811
▁MEM	-8812
▁MON	-8813
▁Min	-8814
▁Nor	-8815
▁PHE	-8816
▁Pal	-8817
▁Pap	-8818
▁Rob	-8819
▁Ros	-8820
▁Sha	-8821
▁Swe	-8822
▁Tab	-8823
▁Tar	-8824
▁Two	-8825
▁WAS	-8826
▁Was	-8827
▁abs	-8828
▁aha	-8829
▁aid	-8830
▁arc	-8831
▁awe	-8832
▁bid	-8833
▁cap	-8834
▁dem	-8835
▁haw	-8836
▁jar	-8837
▁kin	-8838
▁lit	-8839
▁nap	-8840
▁obs	-8841
▁pap	-8842
▁pil	-8843
▁pip	-8844
▁pru	-8845
▁pus	-8846
▁rag	-8847
▁sob	-8848
▁voy	-8849
▁wea	-8850
▁wet	-8851
AMECH	-8852
Allow	-8853
Bless	-8854
Cheer	-8855
Great	-8856
LORIO	-8857
Moses	-8858
Shall	-8859
Stand	-8860
Their	-8861
Truly	-8862
acles	-8863
acrif	-8864
ading	-8865
aeans	-8866
again	-8867
akeda	-8868
aketh	-8869
angel	-8870
anity	-8871
aphat	-8872
apped	-8873
ashes	-8874
assed	-8875
asson	-8876
astus	-8877
atira	-8878
avier	-8879
aying	-8880
eaten	-8881
emath	-8882
enses	-8883
epend	-8884
erubb	-8885
etime	-8886
geons	-8887
ianus	-8888
ideth	-8889
ifted	-8890
imate	-8891
imely	-8892
ineem	-8893
ingly	-8894
iracy	-8895
irely	-8896
light	-8897
lings	-8898
mbals	-8899
oping	-8900
orous	-8901
orter	-8902
otent	-8903
pares	-8904
pheth	-8905
plain	-8906
ppers	-8907
rease	-8908
riads	-8909
riety	-8910
sente	-8911
sight	-8912
stasy	-8913
tends	-8914
tered	-8915
thage	-8916
thily	-8917
tribe	-8918
uding	-8919
vanus	-8920
yards	-8921
▁(?),	-8922
▁Aris	-8923
▁BETH	-8924
▁Ball	-8925
▁Bart	-8926
▁Bath	-8927
▁Bear	-8928
▁Beor	-8929
▁COME	-8930
▁Cana	-8931
▁Chen	-8932
▁Chet	-8933
▁Chor	-8934
▁Chur	-8935
▁Dina	-8936
▁Elie	-8937
▁Fill	-8938
▁Gall	-8939
▁Gods	-8940
▁Grie	-8941
▁HETH	-8942
▁Host	-8943
▁LIFE	-8944
▁Lead	-8945
▁Lear	-8946
▁Luza	-8947
▁Mamb	-8948
▁Phan	-8949
▁Pour	-8950
▁Read	-8951
▁Sara	-8952
▁Senn	-8953
▁Stri	-8954
▁Ther	-8955
▁Wors	-8956
▁adul	-8957
▁akin	-8958
▁alas	-8959
▁bagg	-8960
▁batt	-8961
▁beli	-8962
▁boil	-8963
▁cook	-8964
▁cord	-8965
▁crop	-8966
▁cuts	-8967
▁easy	-8968
▁educ	-8969
▁ensl	-8970
▁fawn	-8971
▁foal	-8972
▁foul	-8973
▁garb	-8974
▁girl	-8975
▁gnaw	-8976
▁gore	-8977
▁grey	-8978
▁hook	-8979
▁kine	-8980
▁knee	-8981
▁leaf	-8982
▁lewd	-8983
▁lily	-8984
▁lump	-8985
▁mans	-8986
▁nose	-8987
▁nurt	-8988
▁onto	-8989
▁ours	-8990
▁pair	-8991
▁pred	-8992
▁rack	-8993
▁rash	-8994
▁recl	-8995
▁ribs	-8996
▁ripe	-8997
▁savi	-8998
▁scep	-8999
▁stem	-9000
▁stud	-9001
▁thin	-9002
▁ting	-9003
▁toes	-9004
▁tops	-9005
▁trap	-9006
▁uses	-9007
▁view	-9008
▁warn	-9009
▁welc	-9010
Before	-9011
Beware	-9012
Coptos	-9013
Repent	-9014
atchet	-9015
christ	-9016
efiled	-9017
ensive	-9018
hangel	-9019
hatter	-9020
houses	-9021
ilings	-9022
inence	-9023
itness	-9024
ledged	-9025
lemias	-9026
licity	-9027
licted	-9028
making	-9029
monish	-9030
nowing	-9031
racing	-9032
racted	-9033
resses	-9034
seeing	-9035
zardan	-9036
zekiah	-9037
▁ALEPH	-9038
▁Amiel	-9039
▁Annas	-9040
▁Annon	-9041
▁Argob	-9042
▁Assur	-9043
▁Azeca	-9044
▁Baana	-9045
▁CHAPH	-9046
▁CHSEN	-9047
▁Caree	-9048
▁Claud	-9049
▁Derbe	-9050
▁Didst	-9051
▁Drink	-9052
▁Emath	-9053
▁Ennom	-9054
▁Exalt	-9055
▁Fight	-9056
▁GIMEL	-9057
▁Gaber	-9058
▁Gaius	-9059
▁Jamin	-9060
▁Jodae	-9061
▁Joses	-9062
▁Judin	-9063
▁LAMED	-9064
▁Leave	-9065
▁Maged	-9066
▁Nageb	-9067
▁Nomba	-9068
▁Ophni	-9069
▁Ozias	-9070
▁Phenn	-9071
▁Pride	-9072
▁Rahab	-9073
▁Sarah	-9074
▁Sinai	-9075
▁Think	-9076
▁Tiber	-9077
▁Truly	-9078
▁Water	-9079
▁Write	-9080
▁accur	-9081
▁appet	-9082
▁arrog	-9083
▁awful	-9084
▁babes	-9085
▁barns	-9086
▁blade	-9087
▁blame	-9088
▁board	-9089
▁bondw	-9090
▁bough	-9091
▁chews	-9092
▁crops	-9093
▁crows	-9094
▁crumb	-9095
▁cumin	-9096
▁dates	-9097
▁deeps	-9098
▁delic	-9099
▁discl	-9100
▁doers	-9101
▁elect	-9102
▁envel	-9103
▁exped	-9104
▁extol	-9105
▁fatal	-9106
▁flies	-9107
▁fords	-9108
▁forms	-9109
▁frame	-9110
▁ghost	-9111
▁giant	-9112
▁girds	-9113
▁gnash	-9114
▁gover	-9115
▁grope	-9116
▁happy	-9117
▁harps	-9118
▁heave	-9119
▁intem	-9120
▁joint	-9121
▁knelt	-9122
▁later	-9123
▁lends	-9124
▁leper	-9125
▁level	-9126
▁lieth	-9127
▁loath	-9128
▁loses	-9129
▁minas	-9130
▁moons	-9131
▁mules	-9132
▁nests	-9133
▁oblig	-9134
▁oboli	-9135
▁ostri	-9136
▁pagan	-9137
▁pours	-9138
▁prize	-9139
▁rests	-9140
▁rocky	-9141
▁ruins	-9142
▁sacks	-9143
▁saves	-9144
▁scoff	-9145
▁shady	-9146
▁sheaf	-9147
▁sheet	-9148
▁slack	-9149
▁space	-9150
▁sport	-9151
▁stabl	-9152
▁stank	-9153
▁steep	-9154
▁stork	-9155
▁stren	-9156
▁stuff	-9157
▁super	-9158
▁suspe	-9159
▁swept	-9160
▁torch	-9161
▁traff	-9162
▁trait	-9163
▁tries	-9164
▁wagon	-9165
▁waist	-9166
▁waits	-9167
▁wiles	-9168
▁wills	-9169
▁woods	-9170
Brother	-9171
CERNING	-9172
Neither	-9173
acherim	-9174
because	-9175
enezite	-9176
etrated	-9177
gathere	-9178
handise	-9179
isition	-9180
owardly	-9181
ropolis	-9182
seventh	-9183
stances	-9184
tongued	-9185
ustomed	-9186
versary	-9187
vidence	-9188
▁Abdeme	-9189
▁Angels	-9190
▁Canaan	-9191
▁Chobar	-9192
▁Choose	-9193
▁DALETH	-9194
▁Dathan	-9195
▁Edrain	-9196
▁GLORIO	-9197
▁Gadgad	-9198
▁Gedson	-9199
▁Govern	-9200
▁Hermon	-9201
▁Little	-9202
▁Maalon	-9203
▁Magdol	-9204
▁Makeda	-9205
▁Merari	-9206
▁Moloch	-9207
▁Phasga	-9208
▁Psalms	-9209
▁Respha	-9210
▁SAMECH	-9211
▁Sebama	-9212
▁Sebast	-9213
▁Siloam	-9214
▁Streng	-9215
▁Throne	-9216
▁Tsente	-9217
▁adjure	-9218
▁advice	-9219
▁affirm	-9220
▁afford	-9221
▁almond	-9222
▁appeal	-9223
▁beards	-9224
▁beings	-9225
▁belief	-9226
▁bounds	-9227
▁breaks	-9228
▁bridal	-9229
▁builds	-9230
▁bushes	-9231
▁circum	-9232
▁clefts	-9233
▁cloaks	-9234
▁crieth	-9235
▁crimin	-9236
▁dashed	-9237
▁deadly	-9238
▁detain	-9239
▁dimmed	-9240
▁dismay	-9241
▁dispos	-9242
▁divers	-9243
▁encomp	-9244
▁engage	-9245
▁enroll	-9246
▁exists	-9247
▁expert	-9248
▁expose	-9249
▁famous	-9250
▁fitted	-9251
▁floods	-9252
▁flowed	-9253
▁fowler	-9254
▁future	-9255
▁gavest	-9256
▁graces	-9257
▁graves	-9258
▁greedy	-9259
▁habits	-9260
▁handed	-9261
▁handle	-9262
▁hatest	-9263
▁hearer	-9264
▁herald	-9265
▁highly	-9266
▁holies	-9267
▁hunted	-9268
▁hyssop	-9269
▁impart	-9270
▁invite	-9271
▁joints	-9272
▁knocks	-9273
▁labors	-9274
▁limits	-9275
▁lintel	-9276
▁loosen	-9277
▁maimed	-9278
▁nearer	-9279
▁nearly	-9280
▁nobody	-9281
▁nursed	-9282
▁offers	-9283
▁olives	-9284
▁owners	-9285
▁pities	-9286
▁played	-9287
▁poison	-9288
▁ponder	-9289
▁puffed	-9290
▁purged	-9291
▁rabbit	-9292
▁really	-9293
▁remedy	-9294
▁restri	-9295
▁richly	-9296
▁rooted	-9297
▁routed	-9298
▁ruling	-9299
▁sandal	-9300
▁satyrs	-9301
▁saving	-9302
▁screen	-9303
▁seated	-9304
▁shared	-9305
▁sights	-9306
▁sinews	-9307
▁single	-9308
▁snatch	-9309
▁sprung	-9310
▁troops	-9311
▁trough	-9312
▁undone	-9313
▁unwill	-9314
▁uproar	-9315
▁urgent	-9316
▁useful	-9317
▁veiled	-9318
▁volunt	-9319
▁voyage	-9320
▁wanton	-9321
▁weapon	-9322
▁whispe	-9323
▁willed	-9324
▁wishes	-9325
........	-9326
ependent	-9327
ertainly	-9328
fruitful	-9329
▁Abineem	-9330
▁Barachi	-9331
▁Bathuel	-9332
▁Chasten	-9333
▁Crucify	-9334
▁Destroy	-9335
▁Eliphas	-9336
▁Gesirit	-9337
▁Godhead	-9338
▁Matthew	-9339
▁Melchis	-9340
▁Naasson	-9341
▁Perhaps	-9342
▁Phanuel	-9343
▁Pontius	-9344
▁Receive	-9345
▁Stephan	-9346
▁Taphnas	-9347
▁Thamnas	-9348
▁Thebaid	-9349
▁Thyself	-9350
▁Turning	-9351
▁Wherein	-9352
▁Worship	-9353
▁abideth	-9354
▁accuses	-9355
▁adjured	-9356
▁advised	-9357
▁aground	-9358
▁avenges	-9359
▁baggage	-9360
▁battles	-9361
▁beating	-9362
▁begging	-9363
▁behaved	-9364
▁benefit	-9365
▁besiege	-9366
▁boasted	-9367
▁bondman	-9368
▁carries	-9369
▁cavalry	-9370
▁chooses	-9371
▁circuit	-9372
▁cleared	-9373
▁convict	-9374
▁correct	-9375
▁couldst	-9376
▁cymbals	-9377
▁daytime	-9378
▁dealing	-9379
▁decided	-9380
▁delayed	-9381
▁demonst	-9382
▁deposit	-9383
▁dignity	-9384
▁dismiss	-9385
▁drowned	-9386
▁ecstasy	-9387
▁emerods	-9388
▁enlarge	-9389
▁failing	-9390
▁fertile	-9391
▁fifties	-9392
▁floweth	-9393
▁forests	-9394
▁girdles	-9395
▁gnashed	-9396
▁handful	-9397
▁hanging	-9398
▁heavier	-9399
▁heaving	-9400
▁hedgeho	-9401
▁honored	-9402
▁hostile	-9403
▁humbles	-9404
▁imitate	-9405
▁impiety	-9406
▁judgest	-9407
▁judgeth	-9408
▁kneaded	-9409
▁kneeled	-9410
▁leaping	-9411
▁leather	-9412
▁lentils	-9413
▁lighted	-9414
▁lowered	-9415
▁mortals	-9416
▁murders	-9417
▁myriads	-9418
▁nursing	-9419
▁offense	-9420
▁opinion	-9421
▁payment	-9422
▁persist	-9423
▁pigeons	-9424
▁pouring	-9425
▁precept	-9426
▁proving	-9427
▁publish	-9428
▁pursuit	-9429
▁rations	-9430
▁refresh	-9431
▁refuses	-9432
▁regular	-9433
▁renders	-9434
▁revenge	-9435
▁sailors	-9436
▁sardius	-9437
▁seaside	-9438
▁sendeth	-9439
▁servile	-9440
▁sharper	-9441
▁shewing	-9442
▁shouldn	-9443
▁sickles	-9444
▁spittle	-9445
▁station	-9446
▁stooped	-9447
▁subdued	-9448
▁succeed	-9449
▁sunrise	-9450
▁surname	-9451
▁sweetly	-9452
▁timbrel	-9453
▁unicorn	-9454
▁unspeak	-9455
▁untying	-9456
▁warning	-9457
▁watches	-9458
▁watered	-9459
▁weights	-9460
▁whisper	-9461
▁withers	-9462
criptions	-9463
erubbabel	-9464
istration	-9465
okottinoi	-9466
▁Achinaam	-9467
▁Admonish	-9468
▁Alphaeus	-9469
▁Arachite	-9470
▁Baethsan	-9471
▁Carthage	-9472
▁Children	-9473
▁Deblatha	-9474
▁Elamites	-9475
▁Faithful	-9476
▁Hezekiah	-9477
▁Josaphat	-9478
▁Lawgiver	-9479
▁Michaeas	-9480
▁Moabites	-9481
▁Romelias	-9482
▁Sauchite	-9483
▁Selemias	-9484
▁Separate	-9485
▁Sepphora	-9486
▁Silvanus	-9487
▁Thyatira	-9488
▁acquired	-9489
▁actually	-9490
▁advocate	-9491
▁appealed	-9492
▁attaches	-9493
▁befallen	-9494
▁believer	-9495
▁boastful	-9496
▁breaketh	-9497
▁burdened	-9498
▁changeth	-9499
▁channels	-9500
▁chastise	-9501
▁clusters	-9502
▁commends	-9503
▁comprehe	-9504
▁constant	-9505
▁cowardly	-9506
▁daylight	-9507
▁deceives	-9508
▁declined	-9509
▁distinct	-9510
▁divorces	-9511
▁dreadful	-9512
▁dropping	-9513
▁election	-9514
▁elements	-9515
▁enriched	-9516
▁enrolled	-9517
▁entirely	-9518
▁eternity	-9519
▁exceeded	-9520
▁exchange	-9521
▁existeth	-9522
▁expected	-9523
▁fainting	-9524
▁fettered	-9525
▁foreskin	-9526
▁garrison	-9527
▁glorying	-9528
▁housetop	-9529
▁impotent	-9530
▁impurity	-9531
▁inquired	-9532
▁intently	-9533
▁lifetime	-9534
▁manacles	-9535
▁merchant	-9536
▁mistress	-9537
▁moisture	-9538
▁nobleman	-9539
▁nostrils	-9540
▁observes	-9541
▁ordering	-9542
▁overflow	-9543
▁overlaid	-9544
▁perishes	-9545
▁position	-9546
▁possibly	-9547
▁preacher	-9548
▁preaches	-9549
▁prepares	-9550
▁priestly	-9551
▁procured	-9552
▁produces	-9553
▁profited	-9554
▁promoted	-9555
▁pursuers	-9556
▁recorder	-9557
▁redeemer	-9558
▁relative	-9559
▁requited	-9560
▁resisted	-9561
▁reverent	-9562
▁revolted	-9563
▁severity	-9564
▁shearing	-9565
▁shedding	-9566
▁shouldst	-9567
▁sleepest	-9568
▁snatched	-9569
▁solitary	-9570
▁splendid	-9571
▁standard	-9572
▁stumbles	-9573
▁survived	-9574
▁teacheth	-9575
▁thirteen	-9576
▁thistles	-9577
▁trustest	-9578
▁unlawful	-9579
▁unseemly	-9580
▁untimely	-9581
▁uttering	-9582
▁vexation	-9583
▁vultures	-9584
▁wandered	-9585
▁watchmen	-9586
▁worthily	-9587
▁wrathful	-9588
Hallelujah	-9589
Whatsoever	-9590
▁Adversary	-9591
▁Beginning	-9592
▁Benjamite	-9593
▁Christian	-9594
▁Ethiopian	-9595
▁Jechonias	-9596
▁Moabitess	-9597
▁Physician	-9598
▁Whereupon	-9599
▁alienated	-9600
▁associate	-9601
▁attendant	-9602
▁barbarian	-9603
▁believeth	-9604
▁blossomed	-9605
▁bracelets	-9606
▁chastened	-9607
▁complaint	-9608
▁conceited	-9609
▁concerned	-9610
▁conferred	-9611
▁conformed	-9612
▁consuming	-9613
▁correctly	-9614
▁covenants	-9615
▁cultivate	-9616
▁deception	-9617
▁deposited	-9618
▁devouring	-9619
▁discerned	-9620
▁displayed	-9621
▁enquiries	-9622
▁exercised	-9623
▁expedient	-9624
▁fastening	-9625
▁faultless	-9626
▁footsteps	-9627
▁fortified	-9628
▁frustrate	-9629
▁happeneth	-9630
▁heaviness	-9631
▁honoureth	-9632
▁indicated	-9633
▁lowliness	-9634
▁luxurious	-9635
▁martyrdom	-9636
▁marvelous	-9637
▁medicines	-9638
▁ministers	-9639
▁mortality	-9640
▁ointments	-9641
▁perishing	-9642
▁quietness	-9643
▁receiveth	-9644
▁reckoning	-9645
▁reclining	-9646
▁remembers	-9647
▁reprobate	-9648
▁respected	-9649
▁retreated	-9650
▁searching	-9651
▁servitude	-9652
▁sharpened	-9653
▁shortened	-9654
▁sometimes	-9655
▁teachings	-9656
▁terminate	-9657
▁thereupon	-9658
▁undefiled	-9659
▁wherefrom	-9660
▁whirlwind	-9661
▁withdrawn	-9662
▁Abdemelech	-9663
▁Amalekites	-9664
▁CONCERNING	-9665
▁Cappadocia	-9666
▁Chelethite	-9667
▁Gergesites	-9668
▁Heliopolis	-9669
▁Nabuzardan	-9670
▁Providence	-9671
▁Strengthen	-9672
▁abstinence	-9673
▁accurately	-9674
▁accustomed	-9675
▁admonished	-9676
▁commission	-9677
▁conspiracy	-9678
▁contention	-9679
▁contradict	-9680
▁craftiness	-9681
▁defilement	-9682
▁destroying	-9683
▁dispersion	-9684
▁distracted	-9685
▁excellency	-9686
▁expedition	-9687
▁faithfully	-9688
▁fatherhood	-9689
▁fornicator	-9690
▁gloriously	-9691
▁government	-9692
▁honourably	-9693
▁husbandman	-9694
▁ignorantly	-9695
▁inflicting	-9696
▁insatiable	-9697
▁instrument	-9698
▁liberality	-9699
▁metropolis	-9700
▁oppressors	-9701
▁penetrated	-9702
▁principles	-9703
▁quadrupeds	-9704
▁questioned	-9705
▁sackcloths	-9706
▁shamefully	-9707
▁simplicity	-9708
▁slanderers	-9709
▁sojourners	-9710
▁sprinkling	-9711
▁storehouse	-9712
▁translated	-9713
▁trespassed	-9714
▁unfruitful	-9715
▁wrongfully	-9716
withstanding	-9717
▁Sennacherim	-9718
▁approaching	-9719
▁blasphemous	-9720
▁bountifully	-9721
▁candlestick	-9722
▁confidently	-9723
▁convocation	-9724
▁cornerstone	-9725
▁discernment	-9726
▁disgraceful	-9727
▁distinguish	-9728
▁embroidered	-9729
▁handmaidens	-9730
▁independent	-9731
▁inquisition	-9732
▁inscription	-9733
▁intemperate	-9734
▁intercourse	-9735
▁merchandise	-9736
▁multiplying	-9737
▁provocation	-9738
▁retribution	-9739
▁treacherous	-9740
▁uninhabited	-9741
▁worshippers	-9742
▁Cariathiarim	-9743
▁Jezraelitess	-9744
▁acknowledged	-9745
▁conversation	-9746
▁fornications	-9747
▁instructions	-9748
▁intercession	-9749
▁successfully	-9750
▁Righteousness	-9751
▁administereth	-9752
▁consideration	-9753
▁contemplation	-9754
▁manifestation	-9755
▁administration	-9756
▁manifestations	-9757
▁reconciliation	-9758
'.	-9759
(?	-9760
AN	-9761
AT	-9762
Ca	-9763
De	-9764
EW	-9765
Ex	-9766
GY	-9767
OM	-9768
PT	-9769
bi	-9770
de	-9771
la	-9772
uk	-9773
wr	-9774
AND	-9775
ART	-9776
EWS	-9777
Eli	-9778
Out	-9779
Yet	-9780
aed	-9781
ald	-9782
ali	-9783
ane	-9784
any	-9785
asi	-9786
aun	-9787
bal	-9788
dne	-9789
eav	-9790
eel	-9791
elf	-9792
ema	-9793
era	-9794
gia	-9795
gri	-9796
hil	-9797
ims	-9798
iry	-9799
lk	-9800
zy	-9801
Hos	-9802
acy	-9803
isa	-9804
lit	-9805
lph	-9806
mec	-9807
olg	-9808
oma	-9809
onc	-9810
ply	-9811
pow	-9812
ppy	-9813
rad	-9814
rah	-9815
ril	-9816
ris	-9817
sar	-9818
tus	-9819
uck	-9820
ula	-9821
voc	-9822
who	-9823
▁';	-9824
▁AM	-9825
▁Cl	-9826
▁Co	-9827
▁Dj	-9828
▁FA	-9829
▁MO	-9830
▁Ob	-9831
▁Om	-9832
▁PR	-9833
▁Sa	-9834
▁Sc	-9835
▁Su	-9836
▁ed	-9837
AINT	-9838
Away	-9839
Baal	-9840
Caes	-9841
Does	-9842
Fall	-9843
GYPT	-9844
Good	-9845
SADE	-9846
Saul	-9847
Some	-9848
That	-9849
Will	-9850
abar	-9851
addi	-9852
agad	-9853
aion	-9854
alim	-9855
arin	-9856
arse	-9857
asar	-9858
asqu	-9859
assa	-9860
bing	-9861
cede	-9862
cies	-9863
cill	-9864
cius	-9865
cken	-9866
cred	-9867
elic	-9868
enan	-9869
erez	-9870
erve	-9871
ethe	-9872
etri	-9873
fess	-9874
ffet	-9875
ffin	-9876
foot	-9877
geny	-9878
ical	-9879
icul	-9880
iece	-9881
iers	-9882
iken	-9883
imil	-9884
inon	-9885
ishb	-9886
ital	-9887
jure	-9888
kful	-9889
lead	-9890
moon	-9891
noph	-9892
ogel	-9893
omen	-9894
omew	-9895
onge	-9896
opag	-9897
phis	-9898
pill	-9899
yn	-9900
One	-9901
Thy	-9902
oea	-9903
unc	-9904
alty	-9905
beit	-9906
blem	-9907
heap	-9908
ials	-9909
irer	-9910
plar	-9911
pond	-9912
pses	-9913
pted	-9914
ptic	-9915
reck	-9916
riah	-9917
rian	-9918
rion	-9919
rors	-9920
sepp	-9921
ssus	-9922
sted	-9923
ugit	-9924
ulse	-9925
uned	-9926
used	-9927
work	-9928
worm	-9929
ymus	-9930
zron	-9931
▁APA	-9932
▁Aia	-9933
▁Bau	-9934
▁Buz	-9935
▁Cat	-9936
▁Cit	-9937
▁Cur	-9938
▁DAY	-9939
▁Dev	-9940
▁END	-9941
▁Eat	-9942
▁Ell	-9943
▁Eng	-9944
▁Ete	-9945
▁Gen	-9946
▁Hab	-9947
▁Jas	-9948
▁Jem	-9949
▁Jor	-9950
▁Lat	-9951
▁Lib	-9952
▁Mon	-9953
▁New	-9954
▁PRO	-9955
▁Pah	-9956
▁Peo	-9957
▁Pet	-9958
▁Pub	-9959
▁Ref	-9960
▁Reg	-9961
▁Run	-9962
▁San	-9963
▁Sob	-9964
▁Sto	-9965
▁Tho	-9966
▁Won	-9967
▁aud	-9968
▁awl	-9969
▁bag	-9970
▁bee	-9971
▁ber	-9972
▁box	-9973
▁cop	-9974
▁cot	-9975
▁eff	-9976
▁ful	-9977
▁gag	-9978
▁hol	-9979
▁hut	-9980
▁ink	-9981
▁kis	-9982
▁lee	-9983
▁nar	-9984
▁obv	-9985
▁owl	-9986
▁pac	-9987
▁pan	-9988
▁phi	-9989
▁tan	-9990
▁upl	-9991
ARTYR	-9992
Write	-9993
abled	-9994
accha	-9995
actor	-9996
akest	-9997
akkuk	-9998
aliel	-9999
)?	-10000
Wor	-10001
chie	-10002
oard	-10003
pots	-10004
they	-10005
zzar	-10006
▁Aet	-10007
▁Sec	-10008
▁ant	-10009
▁asp	-10010
▁cel	-10011
▁gle	-10012
▁rum	-10013
Haven	-10014
amest	-10015
apius	-10016
arach	-10017
ardis	-10018
asion	-10019
ateth	-10020
attin	-10021
batha	-10022
belie	-10023
bezek	-10024
bucha	-10025
chard	-10026
chers	-10027
chors	-10028
claim	-10029
ctims	-10030
doves	-10031
ealed	-10032
erchi	-10033
eteen	-10034
faced	-10035
first	-10036
hians	-10037
hilus	-10038
icted	-10039
iders	-10040
iency	-10041
ifter	-10042
ileth	-10043
ipped	-10044
irgin	-10045
iring	-10046
iscop	-10047
ively	-10048
known	-10049
lambs	-10050
lieth	-10051
lived	-10052
livet	-10053
lphur	-10054
marks	-10055
oined	-10056
oking	-10057
omach	-10058
omium	-10059
onder	-10060
onger	-10061
osity	-10062
piter	-10063
pleas	-10064
posts	-10065
quire	-10066
rabin	-10067
ranny	-10068
raved	-10069
redom	-10070
rieth	-10071
shore	-10072
stain	-10073
sters	-10074
teeth	-10075
tense	-10076
those	-10077
uence	-10078
umber	-10079
vable	-10080
vices	-10081
xture	-10082
▁Abie	-10083
▁Aend	-10084
▁Arim	-10085
▁Asom	-10086
▁Azor	-10087
▁Bana	-10088
▁Base	-10089
▁Bern	-10090
▁Body	-10091
▁Daed	-10092
▁Each	-10093
▁Emec	-10094
▁Five	-10095
▁Fors	-10096
▁Gebe	-10097
▁Geon	-10098
▁Gers	-10099
adai	-10100
eryl	-10101
shon	-10102
▁Add	-10103
▁Esd	-10104
▁dit	-10105
▁ere	-10106
ailer	-10107
asped	-10108
comed	-10109
heart	-10110
▁Cont	-10111
▁Disp	-10112
▁Glor	-10113
▁Heal	-10114
▁Hope	-10115
▁Iras	-10116
▁JEWS	-10117
▁Joel	-10118
▁Juli	-10119
▁Land	-10120
▁Life	-10121
▁Luke	-10122
▁Mase	-10123
▁Mile	-10124
▁Mult	-10125
▁Myst	-10126
▁Oron	-10127
▁Over	-10128
▁Phil	-10129
▁Phry	-10130
▁Pres	-10131
▁Sacr	-10132
▁Shen	-10133
▁Show	-10134
▁THAT	-10135
▁Tert	-10136
▁Wait	-10137
▁Wine	-10138
▁adds	-10139
▁alle	-10140
▁amid	-10141
▁anew	-10142
▁carn	-10143
▁caut	-10144
▁clim	-10145
▁coal	-10146
▁coin	-10147
▁cool	-10148
▁cost	-10149
▁cups	-10150
▁cure	-10151
▁dart	-10152
▁dens	-10153
▁dine	-10154
▁dyed	-10155
▁encl	-10156
▁enra	-10157
▁entr	-10158
▁fade	-10159
▁fame	-10160
▁farm	-10161
▁flog	-10162
▁flux	-10163
▁folk	-10164
▁fron	-10165
▁gild	-10166
▁grud	-10167
▁gulf	-10168
▁hadn	-10169
▁hawk	-10170
▁jaws	-10171
▁jest	-10172
▁knit	-10173
▁lair	-10174
▁leve	-10175
▁lick	-10176
▁lime	-10177
▁liqu	-10178
▁lobe	-10179
▁mars	-10180
▁owed	-10181
▁pine	-10182
▁plou	-10183
▁reco	-10184
▁reig	-10185
▁rode	-10186
▁sank	-10187
▁sedu	-10188
▁sift	-10189
▁spac	-10190
▁span	-10191
▁sted	-10192
▁stup	-10193
▁subm	-10194
▁subs	-10195
▁swar	-10196
▁swim	-10197
▁unce	-10198
▁unst	-10199
SE	-10200
ex	-10201
GIN	-10202
zec	-10203
enes	-10204
grie	-10205
icip	-10206
mmed	-10207
test	-10208
tops	-10209
yrus	-10210
▁Aus	-10211
▁Lys	-10212
▁elo	-10213
arene	-10214
ekiel	-10215
noute	-10216
ruits	-10217
▁Boaz	-10218
▁Seth	-10219
▁arch	-10220
▁balm	-10221
▁buys	-10222
▁insp	-10223
▁obsc	-10224
▁plow	-10225
▁unve	-10226
▁vari	-10227
▁whip	-10228
▁winn	-10229
▁writ	-10230
Cursed	-10231
Whilst	-10232
altiel	-10233
apolis	-10234
asquer	-10235
athaea	-10236
blocks	-10237
bursts	-10238
cerity	-10239
ebulun	-10240
elican	-10241
ephres	-10242
ersion	-10243
estial	-10244
etrius	-10245
goings	-10246
ground	-10247
hatite	-10248
icking	-10249
ightly	-10250
itutes	-10251
leanan	-10252
leanse	-10253
looked	-10254
ltered	-10255
melech	-10256
oncert	-10257
ortant	-10258
phimus	-10259
plates	-10260
remeel	-10261
seness	-10262
shares	-10263
stones	-10264
struck	-10265
ulsion	-10266
umbers	-10267
urable	-10268
urings	-10269
urther	-10270
withal	-10271
▁Above	-10272
▁Aelon	-10273
▁Ammin	-10274
▁Among	-10275
▁BEGIN	-10276
▁Boast	-10277
▁Break	-10278
▁Caene	-10279
▁Cease	-10280
▁Could	-10281
▁Demas	-10282
▁Dwell	-10283
▁EGYPT	-10284
▁Estha	-10285
▁Gesem	-10286
▁Gosom	-10287
▁Herma	-10288
▁Hosts	-10289
▁Italy	-10290
▁Joach	-10291
▁Laisa	-10292
▁Learn	-10293
▁Lebna	-10294
▁Lechi	-10295
▁Light	-10296
▁Lydda	-10297
▁MONTH	-10298
▁Maron	-10299
ez	-10300
ERE	-10301
ancy	-10302
▁FOR	-10303
▁Maj	-10304
stock	-10305
▁(?).	-10306
▁Maan	-10307
▁pins	-10308
▁unlo	-10309
ottage	-10310
otteth	-10311
▁Balla	-10312
▁Djeme	-10313
▁Merob	-10314
▁Omega	-10315
▁Opher	-10316
▁Oziel	-10317
▁Perez	-10318
▁Perga	-10319
▁Rabbi	-10320
▁Rogel	-10321
▁SAINT	-10322
▁Salem	-10323
▁Salom	-10324
▁Samaa	-10325
▁Samir	-10326
▁Saraa	-10327
▁Senna	-10328
▁Shout	-10329
▁Simil	-10330
▁South	-10331
▁Swear	-10332
▁TSADE	-10333
▁Tanes	-10334
▁Tishb	-10335
▁Today	-10336
▁World	-10337
▁abase	-10338
▁afore	-10339
▁agony	-10340
▁allot	-10341
▁aroma	-10342
▁avoid	-10343
▁banks	-10344
▁beams	-10345
▁beryl	-10346
▁bloom	-10347
▁booth	-10348
▁braid	-10349
▁broth	-10350
▁bunch	-10351
▁camps	-10352
▁cargo	-10353
▁cater	-10354
▁clubs	-10355
▁comel	-10356
▁crazy	-10357
▁crime	-10358
▁defer	-10359
▁diest	-10360
▁dieth	-10361
▁drums	-10362
▁envoy	-10363
▁farms	-10364
▁fixes	-10365
▁flute	-10366
▁forew	-10367
▁fowls	-10368
▁fraud	-10369
▁fugit	-10370
▁giver	-10371
▁grind	-10372
▁haply	-10373
▁heels	-10374
▁heres	-10375
▁heron	-10376
▁hinds	-10377
▁impet	-10378
▁incur	-10379
▁knife	-10380
▁laver	-10381
▁limit	-10382
▁longs	-10383
▁malic	-10384
▁march	-10385
▁meant	-10386
▁melts	-10387
▁monks	-10388
▁moral	-10389
▁navel	-10390
▁occur	-10391
▁odour	-10392
▁pairs	-10393
▁palms	-10394
▁parch	-10395
▁peril	-10396
▁phant	-10397
▁philo	-10398
▁piety	-10399
▁pipes	-10400
▁poppy	-10401
▁quake	-10402
▁ranks	-10403
▁rapid	-10404
▁reaps	-10405
▁repet	-10406
▁reven	-10407
▁rides	-10408
▁rises	-10409
▁rival	-10410
▁roads	-10411
▁rouse	-10412
▁ruddy	-10413
▁scape	-10414
▁shade	-10415
▁sings	-10416
▁skull	-10417
▁slays	-10418
▁slide	-10419
▁spied	-10420
▁split	-10421
▁start	-10422
▁stern	-10423
▁stink	-10424
▁stock	-10425
▁stops	-10426
▁story	-10427
▁stuck	-10428
▁sweep	-10429
▁thong	-10430
▁tills	-10431
▁toils	-10432
▁towel	-10433
▁trace	-10434
▁train	-10435
▁twins	-10436
▁unfit	-10437
▁unity	-10438
▁useth	-10439
▁valid	-10440
▁vanqu	-10441
▁vapor	-10442
▁vigil	-10443
▁waged	-10444
▁weigh	-10445
▁whore	-10446
▁yoked	-10447
Crucify	-10448
Forgive	-10449
Hosanna	-10450
ability	-10451
asingly	-10452
chamber	-10453
dnezzar	-10454
erciful	-10455
estined	-10456
estruct	-10457
grieved	-10458
hankful	-10459
holomew	-10460
ikenard	-10461
iphites	-10462
itality	-10463
ittered	-10464
itution	-10465
neither	-10466
nesaret	-10467
oration	-10468
planted	-10469
powered	-10470
respond	-10471
ructive	-10472
sepphon	-10473
skilled	-10474
venient	-10475
vereign	-10476
writing	-10477
▁Abarim	-10478
▁Abijah	-10479
▁Accept	-10480
▁Aendor	-10481
▁Ambram	-10482
▁Author	-10483
▁Baurim	-10484
▁Beroea	-10485
▁Coming	-10486
▁Darius	-10487
▁Divine	-10488
▁Echela	-10489
▁Eleale	-10490
▁FATHER	-10491
▁Forget	-10492
▁Gallio	-10493
▁Gesion	-10494
▁Grieve	-10495
▁Hereby	-10496
▁Hezron	-10497
▁Justus	-10498
▁Living	-10499
▁MARTYR	-10500
▁Madian	-10501
▁Mambre	-10502
▁Manaim	-10503
▁Melcha	-10504
▁Myself	-10505
▁Naphec	-10506
▁Nicola	-10507
▁Olivet	-10508
▁Palace	-10509
▁People	-10510
▁Phogor	-10511
▁Pontus	-10512
▁Prayer	-10513
▁Remind	-10514
▁Repent	-10515
▁Sardis	-10516
▁Sattin	-10517
▁Sodoma	-10518
▁Strife	-10519
▁Symoon	-10520
▁Thamar	-10521
▁Thecoe	-10522
▁Tholmi	-10523
▁Wealth	-10524
▁aboard	-10525
▁access	-10526
▁action	-10527
▁adding	-10528
▁admire	-10529
▁assign	-10530
▁attent	-10531
▁awaked	-10532
▁bewail	-10533
▁bricks	-10534
▁bridle	-10535
▁buffet	-10536
▁byssus	-10537
▁calmed	-10538
▁calved	-10539
▁canals	-10540
▁canker	-10541
▁choked	-10542
▁cister	-10543
▁coffer	-10544
▁coffin	-10545
▁collar	-10546
▁commem	-10547
▁creeps	-10548
▁criest	-10549
▁crowed	-10550
▁darest	-10551
▁decide	-10552
▁depend	-10553
▁differ	-10554
▁doubts	-10555
▁endeav	-10556
▁endeth	-10557
▁enrich	-10558
▁examin	-10559
▁faints	-10560
▁figure	-10561
▁fishes	-10562
▁fright	-10563
▁gently	-10564
▁gnawed	-10565
▁groans	-10566
▁hammer	-10567
▁hereby	-10568
▁hollow	-10569
▁horror	-10570
▁intest	-10571
▁invoke	-10572
▁jailer	-10573
▁lawyer	-10574
▁layeth	-10575
▁learnt	-10576
▁lender	-10577
▁loudly	-10578
▁luxury	-10579
▁maiden	-10580
▁malign	-10581
▁marrow	-10582
▁merely	-10583
▁mingle	-10584
▁motion	-10585
▁napkin	-10586
▁needle	-10587
▁nowise	-10588
▁peacem	-10589
▁perfid	-10590
▁pleads	-10591
▁polled	-10592
▁porter	-10593
▁powder	-10594
▁ragged	-10595
▁raging	-10596
▁reckon	-10597
▁restra	-10598
▁retain	-10599
▁riseth	-10600
▁roared	-10601
▁robbed	-10602
▁sacred	-10603
▁savage	-10604
▁sawest	-10605
▁scared	-10606
▁scroll	-10607
▁seethe	-10608
▁senses	-10609
▁settle	-10610
▁shafts	-10611
▁shamed	-10612
▁shoots	-10613
▁shower	-10614
▁sodden	-10615
▁softly	-10616
▁sowing	-10617
▁speedy	-10618
▁sponge	-10619
▁stages	-10620
▁staves	-10621
▁stocks	-10622
▁stored	-10623
▁strict	-10624
▁submit	-10625
▁sunset	-10626
▁tablet	-10627
▁tabret	-10628
▁tanner	-10629
▁thefts	-10630
▁thumbs	-10631
▁tilled	-10632
▁timber	-10633
▁traced	-10634
▁tracks	-10635
▁trance	-10636
▁tranqu	-10637
▁treads	-10638
▁unblem	-10639
▁unripe	-10640
▁unruly	-10641
▁unsett	-10642
▁upheld	-10643
▁utters	-10644
▁vanish	-10645
▁vapour	-10646
▁weaver	-10647
▁whiter	-10648
▁whorem	-10649
▁withal	-10650
▁worlds	-10651
▁wrongs	-10652
Children	-10653
Everyone	-10654
Whatever	-10655
acchaeus	-10656
angelist	-10657
begotten	-10658
chievous	-10659
coloured	-10660
nophrios	-10661
stricken	-10662
▁Abiezer	-10663
▁Acrabin	-10664
▁Against	-10665
▁Agapius	-10666
▁Apollos	-10667
▁Areopag	-10668
▁Arisoth	-10669
▁Assyria	-10670
▁Ataroth	-10671
▁Banaeas	-10672
▁Bernice	-10673
▁Besides	-10674
▁Casting	-10675
▁Chamaam	-10676
▁Citians	-10677
▁Cleanse	-10678
▁Didymus	-10679
▁Eleanan	-10680
▁Eliezer	-10681
▁Engaddi	-10682
▁Erastus	-10683
▁Fathers	-10684
▁Gabriel	-10685
▁Gittite	-10686
▁Howbeit	-10687
▁Josedec	-10688
▁Lodabar	-10689
▁Memphis	-10690
▁Miletus	-10691
▁Minaean	-10692
▁Nahshon	-10693
▁Nebucha	-10694
▁Nothing	-10695
▁Pharath	-10696
▁Phrygia	-10697
▁Princes	-10698
▁Putting	-10699
▁Restore	-10700
▁Tsentei	-10701
▁absence	-10702
▁accuser	-10703
▁acquire	-10704
▁advance	-10705
▁anchors	-10706
▁anywise	-10707
▁appears	-10708
▁applaud	-10709
▁approve	-10710
▁arrange	-10711
▁assured	-10712
▁atoning	-10713
▁attacks	-10714
▁audible	-10715
▁backbit	-10716
▁badness	-10717
▁beholds	-10718
▁berries	-10719
▁betroth	-10720
▁blasted	-10721
▁boiling	-10722
▁bulwark	-10723
▁burneth	-10724
▁callous	-10725
▁candles	-10726
▁carcass	-10727
▁caverns	-10728
▁censers	-10729
▁charmer	-10730
▁chatter	-10731
▁control	-10732
▁coppers	-10733
▁corpses	-10734
▁courier	-10735
▁courses	-10736
▁cutting	-10737
▁dancing	-10738
▁deceits	-10739
▁denying	-10740
▁deprive	-10741
▁designs	-10742
▁drachma	-10743
▁dreamed	-10744
▁emerald	-10745
▁emptied	-10746
▁emulate	-10747
▁enraged	-10748
▁express	-10749
▁fellows	-10750
▁filling	-10751
▁finally	-10752
▁findeth	-10753
▁flowers	-10754
▁forerun	-10755
▁fortify	-10756
▁fulness	-10757
▁furrows	-10758
▁garners	-10759
▁goddess	-10760
▁grabbed	-10761
▁hastily	-10762
▁heights	-10763
▁hissing	-10764
▁honours	-10765
▁houghed	-10766
▁howling	-10767
▁imposed	-10768
▁infancy	-10769
▁keepers	-10770
▁kindles	-10771
▁knewest	-10772
▁latchet	-10773
▁leadeth	-10774
▁legions	-10775
▁liftest	-10776
▁lifteth	-10777
▁manslay	-10778
▁masquer	-10779
▁mastery	-10780
▁mindful	-10781
▁ministr	-10782
▁missing	-10783
▁mockers	-10784
▁mocking	-10785
▁monthly	-10786
▁notable	-10787
▁nurture	-10788
▁objects	-10789
▁obvious	-10790
▁oneself	-10791
▁orchard	-10792
▁partial	-10793
▁partner	-10794
▁pelican	-10795
▁penalty	-10796
▁players	-10797
▁pleaded	-10798
▁pleases	-10799
▁poureth	-10800
▁presses	-10801
▁pretend	-10802
▁privily	-10803
▁progeny	-10804
▁pursues	-10805
▁quietly	-10806
▁rampart	-10807
▁reaches	-10808
▁rebukes	-10809
▁refined	-10810
▁removes	-10811
▁repents	-10812
▁reptile	-10813
▁ridicul	-10814
▁sadness	-10815
▁saviour	-10816
▁scepter	-10817
▁scurril	-10818
▁seeketh	-10819
▁selfish	-10820
▁shaking	-10821
▁sharply	-10822
▁shields	-10823
▁sighing	-10824
▁smaller	-10825
▁smoking	-10826
▁stagger	-10827
▁stained	-10828
▁statues	-10829
▁stepped	-10830
▁stomach	-10831
▁strings	-10832
▁sucking	-10833
▁sulphur	-10834
▁surveys	-10835
▁swarest	-10836
▁swifter	-10837
▁tablets	-10838
▁terrors	-10839
▁threats	-10840
▁tightly	-10841
▁tillage	-10842
▁tonight	-10843
▁tyranny	-10844
▁upwards	-10845
▁useless	-10846
▁usually	-10847
▁victims	-10848
▁vulture	-10849
▁wanteth	-10850
▁warming	-10851
▁wasting	-10852
▁weighty	-10853
▁whereto	-10854
▁worsted	-10855
Cornelius	-10856
acrifices	-10857
eneration	-10858
▁Armenius	-10859
▁Assemble	-10860
▁Chelaion	-10861
▁Epaphras	-10862
▁Etebatha	-10863
▁Galilean	-10864
▁Gamaliel	-10865
▁Gamarias	-10866
▁Gittites	-10867
▁Gomorrah	-10868
▁Habakkuk	-10869
▁Heliakim	-10870
▁Jeremeel	-10871
▁Macarius	-10872
▁Manasseh	-10873
▁Mountain	-10874
▁Naphtali	-10875
▁Nazarene	-10876
▁Parmoute	-10877
▁Phennana	-10878
▁Proclaim	-10879
▁Psalmist	-10880
▁Shenoute	-10881
▁Suddenly	-10882
▁Tiberias	-10883
▁Tishbite	-10884
▁Wherever	-10885
▁accusing	-10886
▁advances	-10887
▁announce	-10888
▁appetite	-10889
▁argument	-10890
▁avenging	-10891
▁babbling	-10892
▁balances	-10893
▁barefoot	-10894
▁becamest	-10895
▁bracelet	-10896
▁breathed	-10897
▁brighter	-10898
▁bringest	-10899
▁bullocks	-10900
▁bulwarks	-10901
▁changers	-10902
▁chapiter	-10903
▁chastens	-10904
▁comforts	-10905
▁commence	-10906
▁complain	-10907
▁conceals	-10908
▁conflict	-10909
▁councill	-10910
▁creditor	-10911
▁curtains	-10912
▁deceased	-10913
▁declares	-10914
▁decorate	-10915
▁dedicate	-10916
▁desireth	-10917
▁disposed	-10918
▁dividing	-10919
▁doubting	-10920
▁dunghill	-10921
▁eloquent	-10922
▁enclosed	-10923
▁encomium	-10924
▁endurest	-10925
▁entereth	-10926
▁equality	-10927
▁esteemed	-10928
▁fattened	-10929
▁fighteth	-10930
▁forgives	-10931
▁fortieth	-10932
▁fortress	-10933
▁fronting	-10934
▁function	-10935
▁gladdens	-10936
▁gleaming	-10937
▁gleaning	-10938
▁greeting	-10939
▁hallowed	-10940
▁hastened	-10941
▁headlong	-10942
▁highways	-10943
▁humbleth	-10944
▁idleness	-10945
▁infinite	-10946
▁intended	-10947
▁interest	-10948
▁kneeling	-10949
▁knocking	-10950
▁laughing	-10951
▁lawgiver	-10952
▁levelled	-10953
▁lewdness	-10954
▁lordship	-10955
▁magnific	-10956
▁military	-10957
▁mistreat	-10958
▁monsters	-10959
▁mourners	-10960
▁murdered	-10961
▁nineteen	-10962
▁overcame	-10963
▁overmuch	-10964
▁particip	-10965
▁partners	-10966
▁passages	-10967
▁performs	-10968
▁perfumes	-10969
▁perverts	-10970
▁pleading	-10971
▁ploughed	-10972
▁potsherd	-10973
▁precepts	-10974
▁pretense	-10975
▁prevails	-10976
▁progress	-10977
▁provided	-10978
▁quantity	-10979
▁recruits	-10980
▁reigning	-10981
▁relation	-10982
▁relieved	-10983
▁removing	-10984
▁rendered	-10985
▁renewing	-10986
▁reprover	-10987
▁reproves	-10988
▁repulsed	-10989
▁resemble	-10990
▁restrain	-10991
▁scorched	-10992
▁scorners	-10993
▁seashore	-10994
▁shameful	-10995
▁sharpens	-10996
▁sheddeth	-10997
▁shouting	-10998
▁slippery	-10999
▁sluggish	-11000
▁somewhat	-11001
▁sorcerer	-11002
▁southern	-11003
▁spacious	-11004
▁speckled	-11005
▁spoilers	-11006
▁standeth	-11007
▁stealing	-11008
▁stedfast	-11009
▁stirring	-11010
▁strictly	-11011
▁strongly	-11012
▁subsided	-11013
▁suspense	-11014
▁sweeping	-11015
▁thinkest	-11016
▁thirsted	-11017
▁throwing	-11018
▁tortured	-11019
▁trusting	-11020
▁untaught	-11021
▁unveiled	-11022
▁uplifted	-11023
▁uprooted	-11024
▁wantonly	-11025
▁watchful	-11026
▁welcomed	-11027
▁whoredom	-11028
▁worships	-11029
▁yielding	-11030
Everything	-11031
controlled	-11032
▁Amalekite	-11033
▁Amminadab	-11034
▁Authority	-11035
▁Berothite	-11036
▁Chenereth	-11037
▁Demetrius	-11038
▁Ephesians	-11039
▁Monastery	-11040
▁Mysteries	-11041
▁Nathanias	-11042
▁Petephres	-11043
▁Priscilla	-11044
▁Sacrament	-11045
▁Salvation	-11046
▁Shealtiel	-11047
▁Similarly	-11048
▁Stephanou	-11049
▁Trophimus	-11050
▁abolished	-11051
▁abounding	-11052
▁adulterer	-11053
▁advancing	-11054
▁aforetime	-11055
▁aggrieved	-11056
▁appeareth	-11057
▁beckoning	-11058
▁bestoweth	-11059
▁bondwoman	-11060
▁breathing	-11061
▁carpenter	-11062
▁caterpill	-11063
▁celestial	-11064
▁concluded	-11065
▁condition	-11066
▁congealed	-11067
▁connexion	-11068
▁consented	-11069
▁considers	-11070
▁consisted	-11071
▁container	-11072
▁continual	-11073
▁criminals	-11074
▁cupbearer	-11075
▁dangerous	-11076
▁deceivers	-11077
▁departing	-11078
▁despaired	-11079
▁discharge	-11080
▁doctrines	-11081
▁downwards	-11082
▁dwellings	-11083
▁effective	-11084
▁embracing	-11085
▁entangles	-11086
▁entrances	-11087
▁evidently	-11088
▁evildoers	-11089
▁executing	-11090
▁exercises	-11091
▁expensive	-11092
▁fervently	-11093
▁fishermen	-11094
▁foolishly	-11095
▁foreskins	-11096
▁forgetful	-11097
▁forsaking	-11098
▁fragrance	-11099
▁fugitives	-11100
▁gathereth	-11101
▁genealogy	-11102
▁happening	-11103
▁hedgehogs	-11104
▁housetops	-11105
▁hypocrite	-11106
▁including	-11107
▁inflicted	-11108
▁intreated	-11109
▁labouring	-11110
▁landmarks	-11111
▁loathsome	-11112
▁magnifies	-11113
▁meditates	-11114
▁obligated	-11115
▁ostriches	-11116
▁outbursts	-11117
▁outgoings	-11118
▁outwardly	-11119
▁overseers	-11120
▁perverted	-11121
▁plastered	-11122
▁plenteous	-11123
▁ploughing	-11124
▁pollution	-11125
▁pondering	-11126
▁positions	-11127
▁powerless	-11128
▁preferred	-11129
▁preparing	-11130
▁presently	-11131
▁protected	-11132
▁provinces	-11133
▁relations	-11134
▁reminding	-11135
▁revilings	-11136
▁satisfies	-11137
▁scorching	-11138
▁separates	-11139
▁sincerity	-11140
▁soundness	-11141
▁sovereign	-11142
▁sparingly	-11143
▁spikenard	-11144
▁strangled	-11145
▁supported	-11146
▁supporter	-11147
▁surpasses	-11148
▁suspended	-11149
▁sweetened	-11150
▁temperate	-11151
▁threatens	-11152
▁trackless	-11153
▁travelled	-11154
▁treatment	-11155
▁unlearned	-11156
▁voluntary	-11157
▁whereunto	-11158
▁whisperer	-11159
▁widowhood	-11160
▁wondering	-11161
▁yellowish	-11162
▁zealously	-11163
estructible	-11164
▁Achimelech	-11165
▁Adonibezek	-11166
▁Antichrist	-11167
▁Arimathaea	-11168
▁Baetharaba	-11169
▁Dispersion	-11170
▁Ephrathite	-11171
▁Gennesaret	-11172
▁Phelethite	-11173
▁Theophilus	-11174
▁Theopistus	-11175
▁abstaining	-11176
▁acceptance	-11177
▁adulterous	-11178
▁banishment	-11179
▁beforetime	-11180
▁birthright	-11181
▁blasphemer	-11182
▁carelessly	-11183
▁celebrated	-11184
▁centurions	-11185
▁charitable	-11186
▁cheerfully	-11187
▁comeliness	-11188
▁commandest	-11189
▁commending	-11190
▁committeth	-11191
▁confessing	-11192
▁continence	-11193
▁convenient	-11194
▁conversant	-11195
▁correspond	-11196
▁countrymen	-11197
▁delicately	-11198
▁delivereth	-11199
▁destroyeth	-11200
▁difference	-11201
▁disconcert	-11202
▁dispirited	-11203
▁displeased	-11204
▁distribute	-11205
▁divination	-11206
▁embittered	-11207
▁flattering	-11208
▁forbidding	-11209
▁frightened	-11210
▁frustrated	-11211
▁gloominess	-11212
▁greediness	-11213
▁hailstones	-11214
▁hospitable	-11215
▁humiliated	-11216
▁increaseth	-11217
▁management	-11218
▁manifestly	-11219
▁marvelling	-11220
▁occupation	-11221
▁oliveyards	-11222
▁opposition	-11223
▁originally	-11224
▁overlooked	-11225
▁overthrows	-11226
▁perfecting	-11227
▁performing	-11228
▁permission	-11229
▁personally	-11230
▁perversely	-11231
▁perverting	-11232
▁prophecies	-11233
▁quantities	-11234
▁restricted	-11235
▁salutation	-11236
▁signifying	-11237
▁singleness	-11238
▁skillfully	-11239
▁stablished	-11240
▁straitness	-11241
▁stretching	-11242
▁terminates	-11243
▁thirteenth	-11244
▁threatened	-11245
▁torturings	-11246
▁traditions	-11247
▁travailing	-11248
▁unbeliever	-11249
▁undertaken	-11250
▁unmerciful	-11251
▁unthankful	-11252
▁vehemently	-11253
▁withstands	-11254
▁worshipper	-11255
holokottinoi	-11256
▁Bartholomew	-11257
▁Instruction	-11258
▁Phoenicians	-11259
▁Sebastianus	-11260
▁apostleship	-11261
▁appertained	-11262
▁battlements	-11263
▁beautifully	-11264
▁blasphemies	-11265
▁celebrating	-11266
▁coppersmith	-11267
▁corruptible	-11268
▁destructive	-11269
▁disposition	-11270
▁divinations	-11271
▁divorcement	-11272
▁earnestness	-11273
▁flourishing	-11274
▁handwriting	-11275
▁hospitality	-11276
▁illuminated	-11277
▁immortality	-11278
▁interpreter	-11279
▁lawlessness	-11280
▁mischievous	-11281
▁overpowered	-11282
▁overshadows	-11283
▁perpetually	-11284
▁predestined	-11285
▁prostitutes	-11286
▁reproachful	-11287
▁revelations	-11288
▁storehouses	-11289
▁strongholds	-11290
▁thunderings	-11291
▁transferred	-11292
▁unblemished	-11293
▁unspeakable	-11294
▁wherewithal	-11295
▁whoremonger	-11296
▁administered	-11297
▁breastplates	-11298
▁candlesticks	-11299
▁dispensation	-11300
▁imaginations	-11301
▁overshadowed	-11302
▁perfidiously	-11303
▁perverseness	-11304
▁propitiation	-11305
▁unreasonable	-11306
▁Thessalonians	-11307
▁acquaintances	-11308
▁circumstances	-11309
▁congregations	-11310
▁dishonourable	-11311
▁establishment	-11312
▁forgetfulness	-11313
▁neighbourhood	-11314
▁prescriptions	-11315
▁steadfastness	-11316
▁transgressing	-11317
▁understandest	-11318
▁Nebuchadnezzar	-11319
▁indestructible	-11320
▁notwithstanding	-11321
LE	-11322
Le	-11323
WN	-11324
yb	-11325
ABY	-11326
Ask	-11327
HAR	-11328
ICT	-11329
IST	-11330
ITE	-11331
ams	-11332
eer	-11333
fig	-11334
gab	-11335
igg	-11336
iud	-11337
lac	-11338
lim	-11339
liv	-11340
mos	-11341
myr	-11342
tfu	-11343
udi	-11344
▁Pa	-11345
▁Si	-11346
(?).	-11347
ABYL	-11348
Abra	-11349
Call	-11350
ERAL	-11351
Four	-11352
IONS	-11353
NETH	-11354
Shew	-11355
aath	-11356
abus	-11357
adem	-11358
anes	-11359
aphs	-11360
aria	-11361
aric	-11362
azin	-11363
back	-11364
bill	-11365
bles	-11366
boam	-11367
bunc	-11368
dles	-11369
doer	-11370
east	-11371
eled	-11372
ephi	-11373
ggle	-11374
glig	-11375
haim	-11376
icri	-11377
isha	-11378
knew	-11379
lius	-11380
llim	-11381
maal	-11382
mbol	-11383
nare	-11384
okes	-11385
onze	-11386
opas	-11387
oths	-11388
oung	-11389
phia	-11390
phir	-11391
pper	-11392
reek	-11393
reel	-11394
rong	-11395
roth	-11396
rtle	-11397
swer	-11398
tory	-11399
▁i	-11400
neg	-11401
pse	-11402
tam	-11403
▁FO	-11404
▁Fo	-11405
came	-11406
dest	-11407
ilis	-11408
imus	-11409
neth	-11410
oral	-11411
orus	-11412
rumb	-11413
udas	-11414
ybod	-11415
ynia	-11416
zzle	-11417
▁Aff	-11418
▁BRO	-11419
▁Bac	-11420
▁COM	-11421
▁Cal	-11422
▁Cos	-11423
▁Cut	-11424
▁DES	-11425
▁Ecb	-11426
▁End	-11427
▁FRO	-11428
▁Gae	-11429
▁Gre	-11430
▁HIM	-11431
▁Had	-11432
▁Ham	-11433
▁Hew	-11434
▁Lau	-11435
▁Mal	-11436
▁Mor	-11437
▁Nem	-11438
▁Pam	-11439
▁Ras	-11440
▁Sem	-11441
▁Sup	-11442
▁Try	-11443
▁bol	-11444
▁cuc	-11445
▁dow	-11446
▁egg	-11447
▁yew	-11448
Belie	-11449
Faith	-11450
First	-11451
HECHS	-11452
Leave	-11453
Since	-11454
Watch	-11455
about	-11456
achim	-11457
aemon	-11458
amine	-11459
amoth	-11460
antly	-11461
appro	-11462
athed	-11463
atory	-11464
board	-11465
cents	-11466
cibly	-11467
cketh	-11468
creat	-11469
ebted	-11470
ecias	-11471
eloth	-11472
eneth	-11473
ephas	-11474
erves	-11475
estic	-11476
ethla	-11477
flood	-11478
folds	-11479
found	-11480
gment	-11481
going	-11482
holic	-11483
hooks	-11484
htway	-11485
iches	-11486
idest	-11487
ifest	-11488
igris	-11489
ilisk	-11490
imony	-11491
imoth	-11492
itans	-11493
lfare	-11494
maalo	-11495
mpion	-11496
myrna	-11497
nacle	-11498
otest	-11499
Bar	-11500
EAR	-11501
Pro	-11502
car	-11503
ios	-11504
nan	-11505
oes	-11506
sia	-11507
uge	-11508
yes	-11509
▁Ta	-11510
▁Tw	-11511
essi	-11512
haru	-11513
hias	-11514
itha	-11515
wood	-11516
▁Aes	-11517
▁Ari	-11518
▁Sot	-11519
▁cow	-11520
▁non	-11521
▁pla	-11522
David	-11523
ariel	-11524
llath	-11525
otion	-11526
phesy	-11527
ppled	-11528
rafty	-11529
rator	-11530
ridge	-11531
ticip	-11532
tlety	-11533
tuned	-11534
uaios	-11535
unged	-11536
utala	-11537
uteth	-11538
white	-11539
wreck	-11540
zards	-11541
▁Abba	-11542
▁Abia	-11543
▁Ahab	-11544
▁Ahaz	-11545
▁Asan	-11546
▁Asel	-11547
▁Assu	-11548
▁Atbo	-11549
▁Away	-11550
▁Beat	-11551
▁Beer	-11552
▁Bela	-11553
▁CERT	-11554
▁Chal	-11555
▁Dire	-11556
▁Dist	-11557
▁Dudi	-11558
▁Esna	-11559
▁Fare	-11560
▁Fast	-11561
▁Fort	-11562
▁Gola	-11563
▁Gona	-11564
▁Heap	-11565
▁Helc	-11566
▁Hill	-11567
▁Jedd	-11568
▁Liby	-11569
▁Omar	-11570
▁Osee	-11571
▁PHAR	-11572
▁PRAY	-11573
▁PROP	-11574
▁Pass	-11575
▁Path	-11576
▁Pent	-11577
▁Phin	-11578
▁Reho	-11579
▁Rhod	-11580
▁Roge	-11581
▁Roob	-11582
▁Siph	-11583
▁Song	-11584
▁THER	-11585
▁WERE	-11586
▁Wash	-11587
▁agit	-11588
▁ails	-11589
▁anti	-11590
▁axes	-11591
▁babe	-11592
▁blac	-11593
▁brut	-11594
▁budd	-11595
▁butt	-11596
▁chry	-11597
▁club	-11598
▁cori	-11599
OS	-11600
vy	-11601
ITH	-11602
Pre	-11603
bas	-11604
iur	-11605
pan	-11606
uce	-11607
whe	-11608
arus	-11609
enge	-11610
eper	-11611
gest	-11612
nter	-11613
▁Gra	-11614
▁JOA	-11615
▁Nun	-11616
▁Old	-11617
▁dir	-11618
▁dut	-11619
▁hem	-11620
▁squ	-11621
▁sup	-11622
▁tin	-11623
Enter	-11624
ambri	-11625
atane	-11626
bezec	-11627
feits	-11628
iteth	-11629
mated	-11630
rhite	-11631
▁Envy	-11632
▁Lyca	-11633
▁disd	-11634
▁diss	-11635
▁duty	-11636
▁ecli	-11637
▁exqu	-11638
▁eyew	-11639
▁feat	-11640
▁fick	-11641
▁foes	-11642
▁foll	-11643
▁fram	-11644
▁fret	-11645
▁gait	-11646
▁goal	-11647
▁halt	-11648
▁huge	-11649
▁loan	-11650
▁mass	-11651
▁narr	-11652
▁nigg	-11653
▁null	-11654
▁owes	-11655
▁pant	-11656
▁perd	-11657
▁pipe	-11658
▁pits	-11659
▁real	-11660
▁rect	-11661
▁revi	-11662
▁saff	-11663
▁scow	-11664
▁situ	-11665
▁slab	-11666
▁spin	-11667
▁sten	-11668
▁suit	-11669
▁symp	-11670
▁tall	-11671
▁thri	-11672
▁tool	-11673
▁trun	-11674
▁unaw	-11675
▁ungu	-11676
▁unqu	-11677
▁unsh	-11678
▁vent	-11679
ABYLON	-11680
Caesar	-11681
ENERAL	-11682
ablish	-11683
acinth	-11684
akened	-11685
amegar	-11686
aneous	-11687
apping	-11688
asseth	-11689
ataath	-11690
bation	-11691
before	-11692
bishop	-11693
buncle	-11694
crease	-11695
ctacle	-11696
enchre	-11697
etrate	-11698
fluous	-11699
LD	-11700
Se	-11701
vo	-11702
fet	-11703
ips	-11704
iri	-11705
lod	-11706
oza	-11707
sin	-11708
was	-11709
Cond	-11710
THIS	-11711
Whom	-11712
adow	-11713
buke	-11714
enas	-11715
ifra	-11716
ppus	-11717
▁Aug	-11718
▁Dec	-11719
▁Lif	-11720
▁Mak	-11721
▁Sou	-11722
▁ath	-11723
▁sed	-11724
eight	-11725
jured	-11726
ppose	-11727
vance	-11728
vites	-11729
▁Fore	-11730
▁Tart	-11731
▁itch	-11732
▁spat	-11733
▁sunk	-11734
▁swan	-11735
▁trod	-11736
▁vind	-11737
fourth	-11738
hearse	-11739
holars	-11740
iatory	-11741
icriae	-11742
iderer	-11743
ifrage	-11744
isadai	-11745
iverer	-11746
kerchi	-11747
ldiers	-11748
lerate	-11749
mental	-11750
oditus	-11751
omoron	-11752
opards	-11753
ovable	-11754
parent	-11755
ppharu	-11756
radath	-11757
retans	-11758
rifice	-11759
saying	-11760
senain	-11761
strong	-11762
struct	-11763
▁Abdon	-11764
▁Aelam	-11765
▁Aelus	-11766
▁Aenan	-11767
▁Angai	-11768
▁Arboc	-11769
▁Asaph	-11770
▁Ausis	-11771
▁Awful	-11772
▁Aziph	-11773
▁Balad	-11774
▁Bezek	-11775
▁Chelc	-11776
▁Curse	-11777
▁ENDED	-11778
▁Ebron	-11779
▁Ellel	-11780
▁Emiud	-11781
▁Encom	-11782
▁Esdri	-11783
▁Feast	-11784
▁Gebal	-11785
▁Ghost	-11786
▁Guide	-11787
▁Hagar	-11788
▁Hymen	-11789
▁Iroth	-11790
▁Itaby	-11791
▁Jassa	-11792
▁Latin	-11793
▁Laugh	-11794
▁Lodge	-11795
▁Lydia	-11796
▁Maker	-11797
▁Masur	-11798
▁Oboth	-11799
?)	-11800
GH	-11801
Ye	-11802
rt	-11803
sa	-11804
zi	-11805
GHT	-11806
bba	-11807
eze	-11808
omf	-11809
rit	-11810
sos	-11811
sta	-11812
wls	-11813
▁Ae	-11814
▁SE	-11815
▁Sk	-11816
▁ah	-11817
Abba	-11818
Fear	-11819
Feed	-11820
cian	-11821
eens	-11822
enon	-11823
erah	-11824
idan	-11825
lace	-11826
pous	-11827
▁MAN	-11828
▁Net	-11829
▁gad	-11830
▁mir	-11831
aling	-11832
arent	-11833
chest	-11834
ecost	-11835
iance	-11836
otham	-11837
roups	-11838
share	-11839
staff	-11840
their	-11841
▁Adas	-11842
▁Etam	-11843
▁Ital	-11844
▁Till	-11845
▁amen	-11846
▁barg	-11847
▁dish	-11848
▁kite	-11849
▁skil	-11850
▁stam	-11851
▁vest	-11852
antial	-11853
upiter	-11854
▁Anger	-11855
▁Assos	-11856
▁Cause	-11857
▁Macha	-11858
▁Netop	-11859
▁Ommin	-11860
▁Ophir	-11861
▁Orion	-11862
▁Phalt	-11863
▁Phino	-11864
▁Prove	-11865
▁Rasim	-11866
▁Repay	-11867
▁Salam	-11868
▁Salpa	-11869
▁Segor	-11870
▁Serve	-11871
▁Sessi	-11872
▁Skull	-11873
▁Sobac	-11874
▁Stach	-11875
▁THERE	-11876
▁Tanis	-11877
▁Tarry	-11878
▁Theco	-11879
▁Touch	-11880
▁Trans	-11881
▁WORDS	-11882
▁alleg	-11883
▁aloes	-11884
▁annul	-11885
▁arbit	-11886
▁baths	-11887
▁bribe	-11888
▁cance	-11889
▁cared	-11890
▁chann	-11891
▁clerk	-11892
▁cliff	-11893
▁colts	-11894
▁conso	-11895
▁copul	-11896
▁daint	-11897
▁ditch	-11898
▁dowry	-11899
CT	-11900
iu	-11901
Eat	-11902
asp	-11903
imp	-11904
wat	-11905
zan	-11906
▁ST	-11907
▁Sh	-11908
▁TH	-11909
Cast	-11910
erus	-11911
hera	-11912
hoob	-11913
iday	-11914
lect	-11915
meas	-11916
moth	-11917
▁Ist	-11918
▁Mab	-11919
▁Tre	-11920
▁dom	-11921
ealot	-11922
order	-11923
▁Adon	-11924
▁Hail	-11925
▁Lust	-11926
▁Mabd	-11927
▁Ress	-11928
▁alab	-11929
▁bash	-11930
▁dews	-11931
▁hare	-11932
▁sale	-11933
▁vats	-11934
▁whit	-11935
enists	-11936
▁Istob	-11937
▁Lords	-11938
▁Rhoob	-11939
▁	-11940
e	-11941
t	-11942
h	-11943
o	-11944
a	-11945
n	-11946
s	-11947
i	-11948
r	-11949
d	-11950
l	-11951
u	-11952
m	-11953
f	-11954
,	-11955
w	-11956
y	-11957
c	-11958
g	-11959
b	-11960
p	-11961
v	-11962
.	-11963
k	-11964
A	-11965
I	-11966
'	-11967
;	-11968
L	-11969
T	-11970
G	-11971
:	-11972
J	-11973
S	-11974
B	-11975
H	-11976
?	-11977
F	-11978
M	-11979
W	-11980
j	-11981
E	-11982
C	-11983
O	-11984
P	-11985
D	-11986
-	-11987
x	-11988
N	-11989
z	-11990
R	-11991
q	-11992
)	-11993
(	-11994
Y	-11995
!	-11996
