<unk>	0
<s>	0
</s>	0
▁ⲛ	-0
ⲟⲩ	-1
▁ⲉ	-2
▁ⲁ	-3
▁ⲙ	-4
ⲡⲉ	-5
ⲧⲉ	-6
▁ϩ	-7
▁ⲁⲩ	-8
ⲛⲉ	-9
ⲉⲓ	-10
ⲛⲁ	-11
ϫⲉ	-12
▁ⲁⲩⲱ	-13
ⲧⲁ	-14
ⲟⲥ	-15
ⲣⲉ	-16
ⲁⲓ	-17
ⲟⲗ	-18
▁.	-19
▁ⲙⲡ	-20
▁ⲡⲉ	-21
ⲟⲟⲩ	-22
▁ϫⲉ	-23
ⲛⲟⲩ	-24
▁ⲡ	-25
ⲙⲁ	-26
ⲃⲟⲗ	-27
ⲧⲛ	-28
▁ⲉⲃⲟⲗ	-29
▁ⲛⲁ	-30
▁ⲉⲧ	-31
ⲙⲉ	-32
ϩⲉ	-33
ⲇⲉ	-34
ⲣⲟ	-35
ⲓⲥ	-36
ϣⲁ	-37
ⲟⲉⲓ	-38
ⲕⲁ	-39
▁ⲇⲉ	-40
▁ⲙⲙ	-41
ⲛⲧ	-42
ⲣⲁ	-43
▁ⲁϥ	-44
ⲧⲏ	-45
▁ⲛⲧ	-46
▁ⲙⲡⲉ	-47
▁ⲛⲉ	-48
ⲟⲛ	-49
▁ⲙⲛ	-50
ⲥⲁ	-51
ϫⲟⲉⲓ	-52
▁ⲛⲧⲉ	-53
▁ⲉϩ	-54
ϫⲟⲉⲓⲥ	-55
▁ⲟⲩ	-56
ⲙⲡ	-57
ⲛⲟ	-58
ϩⲏ	-59
▁·	-60
▁ϩⲛ	-61
ϫⲱ	-62
▁ⲛⲛⲉ	-63
ⲱⲧ	-64
ϣⲱ	-65
ⲣⲱ	-66
▁ⲛⲟⲩ	-67
ⲗⲁ	-68
ϭⲓ	-69
ⲃⲉ	-70
ⲥⲉ	-71
ⲓⲁ	-72
ⲣⲁⲓ	-73
▁ⲉϥ	-74
ⲁⲣ	-75
▁ⲉⲩ	-76
ⲟⲟ	-77
ϣⲏ	-78
ⲱⲛ	-79
ⲁⲩ	-80
ⲛⲟⲩⲧⲉ	-81
ϣⲉ	-82
ϫⲓ	-83
ⲛⲧⲁ	-84
▁ⲁⲛ	-85
▁ϩⲓ	-86
▁ⲧⲏ	-87
ϣⲱⲡⲉ	-88
▁ⲛϭⲓ	-89
ϩⲏⲧ	-90
ϩⲁ	-91
ⲟⲩⲛ	-92
▁ⲧⲉ	-93
ⲓⲙ	-94
ⲏⲥ	-95
ϣⲏⲣⲉ	-96
▁ⲉⲣⲟ	-97
▁ⲉⲡ	-98
ⲣⲟⲩ	-99
ⲙⲡⲉ	-100
ⲕⲉ	-101
▁ⲉϩⲣⲁⲓ	-102
ⲥⲱ	-103
ⲟϥ	-104
ϩⲓ	-105
ⲙⲟⲩ	-106
▁ϣⲁ	-107
ϩⲟⲟⲩ	-108
▁ⲧ	-109
ⲁϥ	-110
ⲧⲟⲩ	-111
▁ⲛⲧⲁ	-112
▁ϩⲙⲡ	-113
ⲣⲱⲙⲉ	-114
ⲃⲱ	-115
ⲙⲙⲁ	-116
ⲏⲩ	-117
ⲡⲁ	-118
▁ⲉⲧⲉ	-119
ⲙⲛⲧ	-120
ⲏⲗ	-121
▁ϯ	-122
ⲧϥ	-123
ⲛⲁⲩ	-124
▁ⲛⲛ	-125
▁ϩⲛⲟⲩ	-126
ⲕⲁϩ	-127
ⲟⲣ	-128
ϣⲁϫⲉ	-129
▁ⲛⲁⲓ	-130
▁ⲛⲓⲙ	-131
ⲟⲩⲱ	-132
▁ⲅ	-133
▁ⲉϫ	-134
▁ⲙⲙⲟⲥ	-135
ϩⲉⲛ	-136
ϩⲙ	-137
▁ⲅⲁⲣ	-138
ϩⲟ	-139
ⲣⲓ	-140
ⲙⲏ	-141
▁ⲡⲉϫ	-142
ⲧⲟ	-143
▁ⲛⲁϥ	-144
ⲕⲱ	-145
▁ⲉϩⲟⲩⲛ	-146
▁ⲧⲁ	-147
ⲣⲉϥ	-148
ⲟⲕ	-149
ⲃⲁ	-150
ⲟⲩⲥ	-151
▁ⲛϩⲏⲧ	-152
ⲃⲱⲕ	-153
▁ⲥ	-154
▁ⲉⲡⲉ	-155
▁ⲧⲏⲣⲟⲩ	-156
ⲟⲙ	-157
ϭⲉ	-158
ⲧⲱ	-159
ⲛⲉⲩ	-160
ⲡϫⲟⲉⲓⲥ	-161
ⲟⲩⲁ	-162
▁ϩⲁ	-163
▁ⲛⲧϩⲉ	-164
▁ⲉⲣ	-165
ⲩⲥ	-166
ⲁⲥ	-167
▁ⲛⲅ	-168
ⲗⲏ	-169
▁ϩⲙⲡⲉ	-170
▁ⲉⲣⲟϥ	-171
ⲱⲧⲙ	-172
▁ⲉⲓ	-173
..	-174
▁ⲡⲉⲧ	-175
ⲟⲓ	-176
▁ⲙⲡϫⲟⲉⲓⲥ	-177
▁ⲕⲁ	-178
▁ϥ	-179
ⲩⲉ	-180
ⲟⲟⲥ	-181
ⲣⲣⲟ	-182
ⲁⲃ	-183
ⲛⲏ	-184
▁ⲙⲙⲟϥ	-185
▁ⲛⲥⲁ	-186
▁ⲁⲓ	-187
▁ⲥⲉ	-188
ⲙⲟⲥ	-189
ⲕⲟ	-190
ⲥⲟ	-191
ϭⲱ	-192
ⲣⲏ	-193
▁ⲉⲣⲉ	-194
▁ⲡϫⲟⲉⲓⲥ	-195
▁ⲛⲁⲩ	-196
▁ⲡⲉϫⲁϥ	-197
▁ⲛϥ	-198
▁ϩⲛⲧ	-199
▁ⲉⲛⲧⲁ	-200
▁ⲉⲧⲃⲉ	-201
ⲕⲏ	-202
▁ⲛⲥⲉ	-203
ⲣⲁⲏⲗ	-204
ⲓⲥⲣⲁⲏⲗ	-205
▁ⲛⲛⲁ	-206
ⲛⲟⲕ	-207
▁ⲉⲛⲉ	-208
▁ⲙⲡⲉϥ	-209
ϣⲓ	-210
ⲥⲟⲟⲩ	-211
ⲛⲟⲥ	-212
ⲙⲙⲁⲩ	-213
▁ⲧⲏⲣ	-214
▁ⲙⲙⲟⲟⲩ	-215
ⲓⲕ	-216
▁ϫⲉⲉ	-217
ⲟⲩⲉ	-218
▁ⲡⲁⲓ	-219
ⲗⲁⲟⲥ	-220
ϩⲱ	-221
ⲗⲉ	-222
ⲧⲟⲥ	-223
▁ⲕⲁⲧⲁ	-224
▁ⲡⲁ	-225
▁ϯⲛⲁ	-226
ⲏⲥⲟⲩⲥ	-227
ⲥⲱⲧⲙ	-228
ⲥⲏ	-229
▁ϫⲉⲁ	-230
▁ⲙⲡⲛⲟⲩⲧⲉ	-231
▁ⲙⲛⲛⲉ	-232
▁ϭⲉ	-233
▁ϩⲛⲛⲉ	-234
ϣⲧ	-235
ⲗⲗⲁ	-236
ⲧⲏⲥ	-237
ⲛⲧⲉ	-238
ϭⲟⲙ	-239
ⲗⲟ	-240
▁ϩⲱ	-241
▁ⲉϫⲱ	-242
ⲛⲟϭ	-243
ⲭⲏ	-244
ⲡⲉⲧ	-245
ⲙⲧⲟ	-246
ⲁⲓⲟⲥ	-247
ⲡⲏ	-248
▁ⲁⲛⲟⲕ	-249
ⲡⲟⲗ	-250
▁ⲛⲥ	-251
ϩⲁⲗ	-252
▁ⲙⲙⲁ	-253
▁ϩⲛⲧⲉ	-254
ϫⲟⲟⲥ	-255
▁ⲁⲥ	-256
▁ⲁⲗⲗⲁ	-257
ⲅⲉ	-258
▁ⲕ	-259
ⲗⲟⲥ	-260
ⲙⲓ	-261
▁ⲙⲡⲁ	-262
▁ⲥⲉⲛⲁ	-263
▁ⲙⲡⲣ	-264
ⲣⲟⲥ	-265
▁ⲛⲏ	-266
▁ϫⲓ	-267
ϣⲟⲟ	-268
ⲟⲟⲩⲉ	-269
ⲩⲧⲛ	-270
ⲓⲏⲥⲟⲩⲥ	-271
▁ⲙⲛⲛ	-272
ϣⲟ	-273
ϣⲟⲟⲡ	-274
ϩⲟⲩ	-275
▁ⲉⲧⲙⲙⲁⲩ	-276
ϩⲙϩⲁⲗ	-277
ⲛⲟⲃⲉ	-278
▁ϥⲛⲁ	-279
ϣⲁⲛ	-280
ⲛⲉⲓ	-281
ⲏⲏ	-282
▁ⲙⲡⲓⲥⲣⲁⲏⲗ	-283
▁ⲏ	-284
▁ⲟⲛ	-285
ⲣⲓⲥ	-286
ⲙⲛ	-287
▁ⲛⲁⲕ	-288
ϭⲓϫ	-289
▁ⲉⲛ	-290
ⲟⲟϣⲉ	-291
ⲏⲓ	-292
ⲱⲛϩ	-293
▁ⲛⲧⲉⲧⲛ	-294
ⲣⲁⲛ	-295
ⲛⲧⲁϥ	-296
ⲣⲡ	-297
ⲟⲧⲉ	-298
▁ⲙⲛⲟⲩ	-299
▁ⲧⲏⲣϥ	-300
▁ϩⲓⲧ	-301
ⲧⲕ	-302
▁ⲉⲧⲣⲉ	-303
ⲇⲓⲕ	-304
ⲟⲩⲱϣ	-305
ⲉⲣⲉ	-306
ⲉⲓⲇ	-307
▁ⲛⲥⲱ	-308
ⲉⲛ	-309
ⲗⲓ	-310
▁ⲉⲥ	-311
ⲓⲱ	-312
▁ⲛϩⲉⲛ	-313
ⲡⲓⲥ	-314
▁ⲉϥϫⲱ	-315
▁ⲛⲏⲧⲛ	-316
▁ⲡⲉϫⲉ	-317
ⲓⲟⲩ	-318
▁ⲛⲉϥ	-319
ⲙⲟⲟⲩ	-320
ⲍⲉ	-321
ⲇⲁⲩ	-322
▁ⲉϫⲛ	-323
ⲇⲁⲩⲉⲓⲇ	-324
ⲓⲥⲉ	-325
ⲡⲟⲗⲓⲥ	-326
▁ⲉⲕ	-327
ⲛⲁⲓ	-328
▁ϫⲉⲕⲁ	-329
ⲟⲉⲓϣ	-330
ⲇⲁ	-331
▁ⲉⲣⲟⲟⲩ	-332
▁ⲙⲁ	-333
ⲱⲧⲛ	-334
ⲅⲁ	-335
ⲡⲓ	-336
ⲉⲓⲱⲧ	-337
▁ⲛⲉⲩ	-338
ⲗⲁⲁⲩ	-339
ⲉⲩⲉ	-340
ⲙⲟⲟϣⲉ	-341
ⲥⲟⲟⲩⲛ	-342
ⲛⲉϩ	-343
ⲧⲥ	-344
ⲩⲭⲏ	-345
▁ⲙⲡⲉⲕ	-346
▁ⲉⲓⲥ	-347
ⲏⲩⲉ	-348
ⲑⲁ	-349
ⲯⲩⲭⲏ	-350
ⲧⲛⲁ	-351
▁ⲛϩ	-352
▁ⲉⲣⲟⲓ	-353
▁ⲡⲛⲟⲩⲧⲉ	-354
ⲡⲁⲓ	-355
ⲙⲙ	-356
▁ⲁⲕ	-357
ⲛⲏⲩ	-358
ϩⲓⲙⲉ	-359
▁ⲛⲛⲉϥ	-360
ϩⲱⲃ	-361
ⲉⲓⲣⲉ	-362
ϣⲟⲩ	-363
ⲡⲣⲟ	-364
▁ϩⲣⲁⲓ	-365
▁ⲛⲧⲟϥ	-366
ⲧⲉⲧⲛ	-367
ⲇⲓⲕⲁⲓⲟⲥ	-368
ϣⲓⲛⲉ	-369
▁ⲛⲙⲙⲁ	-370
ϥⲓ	-371
ϫⲁⲓ	-372
ϥⲉ	-373
ⲃⲏ	-374
ⲭⲣⲓⲥ	-375
ⲧⲟⲟⲩ	-376
▁ϣⲱⲡⲉ	-377
▁ⲧⲁⲓ	-378
▁ⲙⲛⲡ	-379
▁ⲟⲩⲇⲉ	-380
ⲭⲣⲓⲥⲧⲟⲥ	-381
▁ϩⲓϫ	-382
▁ϫⲉⲟⲩ	-383
▁ⲡϣⲏⲣⲉ	-384
ϩⲣ	-385
ⲛⲉⲩⲙⲁ	-386
ⲟⲧ	-387
ⲙⲉⲉⲩⲉ	-388
ⲱϣ	-389
▁ⲡⲉⲕ	-390
ⲃⲃ	-391
ⲡⲉϥ	-392
ⲑⲛⲟⲥ	-393
▁ⲛϩⲏⲧϥ	-394
ϩⲧ	-395
ⲧⲣⲉ	-396
ϩⲟⲧⲉ	-397
ⲡⲛⲟⲩⲧⲉ	-398
ϩⲉⲑⲛⲟⲥ	-399
ⲛⲟⲙ	-400
▁ⲉⲣⲟⲕ	-401
▁ϫⲉⲛ	-402
ⲑⲏ	-403
ϩⲃ	-404
ⲱⲣ	-405
ϫⲟⲟⲩ	-406
▁ⲛⲛⲉⲩ	-407
ⲧⲙ	-408
ⲕⲟⲩ	-409
▁ⲛⲛⲉⲕ	-410
▁ⲡⲉϥ	-411
▁ⲛⲉⲧ	-412
ⲟⲟⲧϥ	-413
▁ⲛⲧⲉϥ	-414
ⲗⲁⲥ	-415
ⲧⲱⲟⲩⲛ	-416
ϩⲓⲏ	-417
ⲣⲁⲧϥ	-418
▁ⲛⲧⲟⲕ	-419
ⲅⲏ	-420
ϣⲟⲣ	-421
▁ⲥⲁ	-422
▁ⲡⲉⲧⲛⲁ	-423
▁ϩⲏ	-424
▁ⲧⲉⲛⲟⲩ	-425
ⲇⲓⲁ	-426
ⲧϩⲉ	-427
ⲣⲉϩ	-428
ⲩⲥⲏⲥ	-429
▁ⲛⲛⲉⲧ	-430
ⲱⲩⲥⲏⲥ	-431
ⲙⲟⲩⲧⲉ	-432
▁ⲙⲡⲉⲙⲧⲟ	-433
ⲃⲁⲗ	-434
▁ⲉⲛⲁ	-435
ⲡⲟ	-436
ⲁϫⲉ	-437
▁ϩⲉⲛ	-438
ⲓⲁⲥ	-439
ⲅⲅⲉ	-440
▁ⲉⲧⲉⲧⲛ	-441
ⲕⲏⲙⲉ	-442
ⲟⲩⲁⲁⲃ	-443
▁ⲙⲙⲟⲓ	-444
▁ⲛϭⲓⲡ	-445
ⲫⲏ	-446
▁ⲛϩⲟⲟⲩ	-447
ⲡⲛⲉⲩⲙⲁ	-448
ⲓⲉ	-449
▁ⲓⲏⲥⲟⲩⲥ	-450
ⲟⲩⲗ	-451
▁ⲙⲙⲁⲩ	-452
ϣⲟⲣⲡ	-453
▁ⲧϩⲉ	-454
ⲡⲉⲕ	-455
▁ⲉϫⲙⲡ	-456
▁ⲛⲙ	-457
ⲛⲏⲥ	-458
ⲥⲟⲩ	-459
ϣϥ	-460
ⲛⲟⲙⲟⲥ	-461
ⲁⲧ	-462
▁ϫⲉⲕⲁⲁⲥ	-463
....	-464
▁ⲡⲉⲛⲧⲁϥ	-465
ⲧⲟⲛ	-466
ⲗⲏⲗ	-467
ⲛⲟϥ	-468
▁ⲙⲏ	-469
▁ⲁϥⲉⲓ	-470
▁ⲛⲧⲁϥ	-471
ⲧⲏⲩⲧⲛ	-472
ⲣⲭ	-473
ⲩⲛⲏ	-474
ϩⲁⲓ	-475
ⲛⲧⲁⲩ	-476
ⲥϩⲓⲙⲉ	-477
▁ⲙⲛⲧ	-478
ⲛⲉϥ	-479
▁ⲛⲧⲉⲩ	-480
▁ⲉϥⲉ	-481
ⲙⲏⲧⲉ	-482
ϩⲁⲡ	-483
ϩⲛ	-484
ⲣⲓⲟⲛ	-485
ⲟⲩⲱⲙ	-486
ⲣⲙ	-487
▁ⲉⲧⲛⲁ	-488
▁ⲉⲧⲁ	-489
▁ⲧⲏⲩⲧⲛ	-490
▁ⲛϩⲏⲧⲟⲩ	-491
ⲫⲩ	-492
▁ⲉϣ	-493
ⲙⲏⲏ	-494
▁ϣⲁⲉ	-495
ⲱϥ	-496
ϩⲧⲉ	-497
▁ⲡⲣⲣⲟ	-498
ⲧⲉϥ	-499
ⲡⲉⲓ	-500
▁ⲙⲙⲟⲕ	-501
▁ⲉⲙⲁ	-502
▁ⲉⲕⲉ	-503
▁ϫⲉⲉⲓ	-504
▁ⲕⲁⲧⲁⲧϩⲉ	-505
ⲙⲉϩ	-506
ⲫⲁ	-507
ϩⲙⲟⲟⲥ	-508
ⲛⲟⲩϥ	-509
▁ϩⲛⲛ	-510
▁ⲛⲣⲱⲙⲉ	-511
▁ⲙⲡⲉⲓ	-512
▁ⲁⲩⲉⲓ	-513
ⲥⲩ	-514
ⲧⲉⲓ	-515
ϩⲃⲏⲩⲉ	-516
ⲡⲁⲣⲁ	-517
ⲧⲉⲩⲉ	-518
▁ⲙⲡⲕⲁϩ	-519
▁ⲁϥⲧⲁ	-520
ϯⲛⲁ	-521
ⲣⲱⲧⲛ	-522
▁ⲉⲩϫⲱ	-523
▁ⲛⲁⲥ	-524
▁ⲉⲧⲃⲉⲡⲁⲓ	-525
ⲑⲉ	-526
▁ⲙⲡⲟⲩ	-527
ⲙⲏⲏϣⲉ	-528
ϩⲓⲉ	-529
ⲟⲡ	-530
▁ⲉⲣⲟⲥ	-531
ⲏϩ	-532
ⲭⲁ	-533
ⲇⲁⲓ	-534
▁ⲛⲧⲉⲣⲉϥ	-535
▁ⲟⲩⲁ	-536
▁ϫⲉⲛⲧ	-537
▁ⲉⲡⲉϥ	-538
ϫⲛ	-539
▁ⲛⲧⲁⲩ	-540
ⲛⲁⲥ	-541
ⲱⲙ	-542
ⲧⲓⲥ	-543
▁ⲉϣⲱⲡⲉ	-544
ⲧⲣ	-545
ⲱⲥ	-546
▁ϫⲱ	-547
ⲕⲗⲏ	-548
ⲟⲗⲉ	-549
ⲉⲓⲙⲉ	-550
ϣⲉⲉⲣⲉ	-551
ⲟⲉⲓⲕ	-552
ⲧⲁⲕⲟ	-553
▁ϣⲁⲉⲛⲉϩ	-554
ⲟⲛⲥ	-555
▁ⲉϣϫⲉ	-556
▁ⲡⲟⲩⲁ	-557
ϩⲧⲏ	-558
▁ⲙⲉ	-559
▁ⲛϭⲓⲛ	-560
▁ⲉⲛⲧⲁϥ	-561
▁ⲛⲁⲛ	-562
▁ⲙⲡⲉⲧ	-563
▁ⲧⲉⲧⲛ	-564
▁ⲉⲙⲁⲧⲉ	-565
▁ⲛϣⲏⲣⲉ	-566
ⲣⲏⲩ	-567
ϭⲱϣⲧ	-568
▁ⲣ	-569
ⲟⲩϩ	-570
ϩⲣⲁⲓ	-571
▁ϫⲓⲛ	-572
▁ⲟⲩⲛ	-573
ϫⲱⲱ	-574
▁ϩⲓⲧⲛ	-575
▁ⲉⲧⲟⲟ	-576
ⲗⲏⲙ	-577
▁ⲛⲛϣⲏⲣⲉ	-578
ϭⲟⲛⲥ	-579
ⲑⲩⲥ	-580
▁ϩⲙⲡⲉϥ	-581
ⲛⲟⲙⲓⲁ	-582
ⲕⲱⲧⲉ	-583
▁ⲉⲧⲟⲩⲁⲁⲃ	-584
ⲕⲟⲥ	-585
ⲉⲓⲛⲉ	-586
ⲏⲏⲧⲉ	-587
▁ⲛⲧⲟⲟⲩ	-588
ⲅⲅⲉⲗⲟⲥ	-589
ϫⲓⲛ	-590
ⲗⲗⲟ	-591
ⲣⲟⲙⲡⲉ	-592
ϩⲁⲣⲉϩ	-593
ⲣⲟⲩⲥⲁ	-594
ⲉⲓⲛ	-595
ⲗⲉⲓ	-596
ⲛⲟⲟⲩ	-597
ⲣⲟⲩⲥⲁⲗⲏⲙ	-598
ⲟⲉⲓⲛ	-599
▁ϩⲏⲏⲧⲉ	-600
ϩⲓⲉⲣⲟⲩⲥⲁⲗⲏⲙ	-601
▁ⲧⲛ	-602
ⲱⲛⲉ	-603
ⲧⲟⲩⲁ	-604
▁ⲙⲛⲡⲉ	-605
ⲗⲁⲥⲥⲁ	-606
ⲇⲓⲕⲁⲓⲟⲥⲩⲛⲏ	-607
▁ⲉⲡⲁ	-608
ⲛⲉⲕ	-609
▁ⲛⲧⲉⲕ	-610
ⲣⲟϥ	-611
ⲧⲁⲥ	-612
ⲥⲃ	-613
ⲡⲱⲧ	-614
ⲥⲟⲡ	-615
▁ϣ	-616
▁ⲕⲛⲁ	-617
ⲧⲓ	-618
▁ϫ	-619
ⲥⲟⲛ	-620
ⲕⲟⲩⲓ	-621
ⲡⲣⲟⲫⲏ	-622
▁ⲉⲁ	-623
▁ⲙⲙⲱⲧⲛ	-624
▁ⲉⲧⲉⲣⲉ	-625
ϩⲱⲛ	-626
▁ϣⲁⲣⲉ	-627
ⲙⲛⲧⲣⲉ	-628
ϭⲙ	-629
ⲟⲛⲏ	-630
ⲥⲏⲧ	-631
ⲧⲉⲕ	-632
ⲥⲙⲟⲩ	-633
▁ⲁϥⲃⲱⲕ	-634
ⲧⲟⲩⲁⲁⲃ	-635
ϩⲥ	-636
▁ϩⲙⲡⲕⲁϩ	-637
▁ⲉⲩⲉ	-638
▁ⲁⲡ	-639
ϭⲱⲛⲧ	-640
ⲣⲱⲟⲩ	-641
▁ⲛⲧⲱⲧⲛ	-642
ⲧⲱⲛ	-643
ⲥⲧⲉ	-644
ϫⲁϫⲉ	-645
ⲣⲛⲟⲃⲉ	-646
▁ⲉⲣⲁⲧϥ	-647
▁ⲛϩⲉ	-648
ϣⲙ	-649
ⲥⲟⲫ	-650
▁ⲇⲁⲩⲉⲓⲇ	-651
ϫⲡ	-652
ⲁϩⲉ	-653
ⲟⲛϩ	-654
ⲕⲱⲃ	-655
ⲟⲩⲱϣⲃ	-656
▁ⲉⲧⲣⲉϥ	-657
▁ⲙⲡⲣⲱⲙⲉ	-658
ⲣⲱⲛ	-659
▁ⲉⲧⲣⲉⲩ	-660
ⲕⲁⲕ	-661
ⲟⲗⲏ	-662
▁...	-663
▁ⲉⲧⲟⲩ	-664
▁ϣⲟⲟⲡ	-665
▁ⲁϥϫⲓ	-666
ⲟⲥⲉ	-667
▁ⲛⲉⲓ	-668
ⲡⲏⲣⲉ	-669
▁ⲛϭⲓⲛⲉ	-670
ⲁⲣⲓⲥ	-671
▁ϩⲓϫⲙⲡ	-672
ϩⲟⲩⲟ	-673
▁ⲙⲙⲟⲛ	-674
ⲣϩⲟⲧⲉ	-675
▁ⲡⲉⲧⲉ	-676
ⲥⲃⲱ	-677
▁ⲥⲱⲧⲙ	-678
▁ⲛⲟⲩⲱⲧ	-679
ⲗⲩ	-680
▁ⲙⲁⲣ	-681
▁ⲁⲥϣⲱⲡⲉ	-682
ⲣⲟⲛ	-683
ⲣⲁⲧⲟⲩ	-684
▁ⲡⲉⲕⲛⲟⲩⲧⲉ	-685
ⲧⲁⲙⲓ	-686
▁ⲛⲁϣⲱⲡⲉ	-687
ⲃⲟ	-688
▁ϣⲏ	-689
▁ⲙⲡⲉⲥ	-690
ⲓⲟⲩⲇⲁⲓ	-691
ⲡⲱ	-692
▁ⲁϥϯ	-693
▁ⲛⲙⲙⲁϥ	-694
ⲟⲩⲱϩ	-695
ⲙⲱⲩⲥⲏⲥ	-696
ϩⲩ	-697
▁ⲙⲡⲓ	-698
▁ⲡⲉϫⲁⲩ	-699
ϣⲗⲏⲗ	-700
ⲥⲛⲏⲩ	-701
▁ⲥⲛⲁⲩ	-702
▁ⲧⲏⲣⲥ	-703
▁ⲙⲛⲛⲥⲁ	-704
ⲧⲱⲣ	-705
ⲑⲃⲃ	-706
▁ⲉϣⲁ	-707
▁ⲛⲣⲉϥ	-708
▁ⲛⲧⲉⲓ	-709
ⲕⲗⲏⲣⲟ	-710
ⲣⲏⲛⲏ	-711
ⲁⲣⲭ	-712
▁ⲛⲧⲛ	-713
▁ⲙⲡⲉⲩ	-714
▁ⲛⲧⲉⲣⲟⲩ	-715
▁ⲛⲛⲟⲩ	-716
▁ⲛⲥⲱϥ	-717
ⲁⲗ	-718
▁ⲉⲧⲉⲧ	-719
▁ⲙⲛϩⲉⲛ	-720
▁ⲧⲱ	-721
ⲡⲓⲥⲧⲓⲥ	-722
▁ⲛⲇⲁⲩⲉⲓⲇ	-723
ⲣⲁϣⲉ	-724
ϣⲡⲏⲣⲉ	-725
▁ⲉϫⲱϥ	-726
▁ϩⲙⲡⲙⲁ	-727
ⲣⲙⲛ	-728
▁ϫⲉⲡ	-729
ⲥⲱⲙⲁ	-730
ⲟⲩⲱⲛϩ	-731
ⲟⲩⲟⲉⲓϣ	-732
ⲕⲟⲧⲕ	-733
▁ⲉⲛⲧⲁⲩ	-734
ⲓⲙⲁ	-735
ⲟⲩⲟ	-736
ⲡⲟⲥ	-737
ⲧⲁⲡⲣⲟ	-738
ⲥⲁⲣ	-739
▁ⲡⲉⲛ	-740
ⲛⲧⲟⲩ	-741
▁ϩⲛϩⲉⲛ	-742
ⲥⲱϣⲉ	-743
▁ⲉϥⲛⲁ	-744
ⲓⲛⲉ	-745
ⲏⲏⲃ	-746
ⲧⲁⲓ	-747
ⲗⲟⲟⲗⲉ	-748
ϩⲓⲟⲟⲩⲉ	-749
▁ⲙⲡⲣⲣⲟ	-750
ⲙⲁϩⲧⲉ	-751
▁ⲉⲡⲉⲥⲏⲧ	-752
ⲥⲉⲃ	-753
ⲧⲁⲩ	-754
ϫⲱⲕ	-755
ⲫⲣⲁ	-756
ϣⲓⲡⲉ	-757
ⲕⲱϩⲧ	-758
ⲡⲣⲟⲫⲏⲧⲏⲥ	-759
ϩⲓⲥⲉ	-760
▁ϩⲏⲧϥ	-761
▁ⲡⲉⲭⲣⲓⲥⲧⲟⲥ	-762
▁ⲛⲃ	-763
ⲅⲁⲑ	-764
ⲉⲟⲟⲩ	-765
ⲟⲩϫⲁⲓ	-766
▁ϣⲏⲙ	-767
ⲣⲏⲧⲉ	-768
▁ϫⲉⲉⲓⲥ	-769
▁ⲉⲁϥ	-770
ⲣⲓⲛⲉ	-771
ⲓⲁⲕⲱⲃ	-772
▁ⲉⲡϫⲟⲉⲓⲥ	-773
▁ⲁⲡⲁ	-774
ⲑⲃⲃⲓ	-775
ϩⲣⲟⲟⲩ	-776
ϩⲁⲙ	-777
ϭⲙϭⲟⲙ	-778
▁ⲉⲣⲉⲡ	-779
ⲑⲏⲧⲏⲥ	-780
▁ⲉⲣⲱⲧⲛ	-781
ⲙⲁⲁⲩ	-782
ⲥⲱⲟⲩϩ	-783
▁ϩⲉ	-784
ⲏⲧⲉ	-785
ⲛⲁⲙ	-786
▁ⲉⲧⲛ	-787
▁ϫⲉⲁⲩ	-788
▁ⲙⲡⲙⲁ	-789
ⲓⲛ	-790
ϫⲛⲉ	-791
▁ⲉⲧⲃ	-792
ⲑⲁⲗⲁⲥⲥⲁ	-793
▁ⲛⲛⲣⲱⲙⲉ	-794
ⲱⲧⲡ	-795
ϫⲓⲥⲉ	-796
▁ϫⲉⲙⲡ	-797
▁ϫⲉⲡϫⲟⲉⲓⲥ	-798
▁ⲛⲓⲱ	-799
▁ⲉⲡⲙⲁ	-800
▁ⲛⲕⲏⲙⲉ	-801
ⲁⲕ	-802
▁ⲧⲉϥ	-803
ⲥⲧ	-804
ⲱⲃ	-805
ϣⲟⲙⲛⲧ	-806
▁ⲙⲁⲣⲉ	-807
ϩⲏⲕⲉ	-808
▁ⲛϣⲁ	-809
ⲉⲓⲧ	-810
▁ⲡⲉⲓ	-811
ⲙⲛⲧⲣⲣⲟ	-812
▁ⲙⲡϩⲟⲟⲩ	-813
ⲛⲁⲅ	-814
▁ⲛⲉⲕ	-815
▁ⲛⲙⲡ	-816
▁ⲉϫⲙⲡⲉ	-817
ⲡⲉⲧϩⲟⲟⲩ	-818
▁ⲉϫⲱⲟⲩ	-819
ⲧⲁⲙ	-820
▁ⲧⲟⲧⲉ	-821
ⲭⲱ	-822
ⲣⲓⲁ	-823
ⲗⲗⲟⲫⲩ	-824
ⲡⲉⲧⲛⲁ	-825
▁ⲙⲡⲉϩⲟⲟⲩ	-826
ⲧⲁϫ	-827
ⲧⲃⲃ	-828
▁ⲁⲩϯ	-829
▁ⲛⲧⲉⲣⲉ	-830
▁ⲡⲉϫⲉⲡϫⲟⲉⲓⲥ	-831
▁ϩⲓⲧⲙⲡ	-832
▁ⲛⲛⲁϩⲣ	-833
ⲃⲧ	-834
ϩⲁϩ	-835
▁ⲛⲕ	-836
ⲑⲗⲓ	-837
ϭⲥ	-838
ⲛⲟϫ	-839
ⲛⲧϥ	-840
ⲥⲏϥⲉ	-841
▁ϩⲛⲧⲉϥ	-842
▁ⲙⲛⲛⲉϥ	-843
ⲇⲓ	-844
▁ⲛϣ	-845
▁ⲙⲛⲛⲉⲩ	-846
▁ⲛⲟⲩⲟⲉⲓϣ	-847
▁ⲙⲙⲉ	-848
ⲟⲣⲅⲏ	-849
▁ⲉϩⲉⲛ	-850
▁ⲡⲕⲁϩ	-851
ⲥⲉⲃⲏⲥ	-852
▁ϣⲁϩⲣⲁⲓ	-853
▁ⲙⲡⲗⲁⲟⲥ	-854
ⲡⲓⲥⲧⲉⲩⲉ	-855
▁ⲙⲡⲉⲛ	-856
▁ⲡⲉⲧⲛ	-857
ⲓⲟⲩⲇⲁ	-858
ⲥⲓ	-859
ⲧⲁⲛ	-860
ϫⲁⲓⲉ	-861
ⲛⲁϣ	-862
ⲥⲁⲃ	-863
ⲧⲉⲩ	-864
ϫⲟⲥⲉ	-865
▁ⲛϩⲏⲧⲥ	-866
ⲁⲁϥ	-867
ⲃⲟⲗⲏ	-868
ϩⲏⲏⲧⲉ	-869
▁ϩⲓϫⲙⲡⲕⲁϩ	-870
ⲕⲗ	-871
▁ⲉⲧⲙ	-872
ⲙⲙⲁⲟ	-873
ⲑⲩⲥⲓⲁ	-874
▁ⲓⲱ	-875
▁ϣⲁϥ	-876
ϣⲟϫⲛⲉ	-877
▁ϫⲉⲁⲓ	-878
▁ϩⲛⲛⲉⲩ	-879
ⲥⲉⲓ	-880
▁ⲃⲱⲕ	-881
▁ⲛⲙⲙⲁⲩ	-882
▁ⲛⲛⲉⲧⲛ	-883
▁ⲛⲣⲟⲙⲡⲉ	-884
▁ⲱ	-885
▁ⲉϯ	-886
ⲥⲁⲣⲝ	-887
▁ϫⲉⲕⲁⲥ	-888
ⲟϣ	-889
ⲥⲁϩ	-890
ⲧⲁⲁϥ	-891
▁ⲛϣⲟⲣⲡ	-892
ϫⲟⲟ	-893
ⲣⲓⲙⲉ	-894
▁ϫⲉⲁⲛⲟⲕ	-895
ϣⲙϣⲉ	-896
ⲣⲙⲙⲁⲟ	-897
▁ⲁⲧⲉⲧⲛ	-898
ⲧⲏⲣⲓⲟⲛ	-899
ϥⲛⲁ	-900
ⲯⲁⲗ	-901
ⲙⲓϣⲉ	-902
▁ⲉⲣⲟⲛ	-903
ⲛⲧⲟⲗⲏ	-904
▁ⲉⲧⲃⲏⲏ	-905
ⲕⲟⲥⲙⲟⲥ	-906
ⲛⲛⲏⲥ	-907
▁ⲉϫⲛⲧ	-908
ⲗⲗⲟⲫⲩⲗⲟⲥ	-909
▁ⲛϯ	-910
▁ⲁϥⲟⲩⲱϣⲃ	-911
▁ⲡⲙⲁ	-912
▁ⲛⲧⲉⲡ	-913
▁ⲉϩⲟⲩⲉ	-914
ⲣⲟⲕ	-915
▁ⲉⲧϩ	-916
ⲑⲏⲕⲏ	-917
▁ⲡⲣⲱⲙⲉ	-918
ⲑⲩ	-919
▁ⲉⲁⲩ	-920
ⲟⲗⲓⲥ	-921
ϩⲁⲛⲛⲏⲥ	-922
ⲉⲧ	-923
▁ⲛⲧⲁⲓ	-924
▁ⲟⲩⲟⲛ	-925
ⲱⲕ	-926
▁ϫⲉⲛⲉ	-927
▁ⲃ	-928
ⲡⲉⲩ	-929
▁ⲗⲁⲁⲩ	-930
▁ⲁⲣⲓ	-931
ϫⲱⲱⲣⲉ	-932
▁ⲉⲩⲛⲁ	-933
ⲧⲟⲩⲏϩ	-934
ⲧϩⲏⲧ	-935
ⲙⲟⲟⲩⲧ	-936
ⲇⲏ	-937
ⲣⲙⲁ	-938
▁ϩⲙⲡⲁ	-939
▁ϩⲙⲡⲉϩⲟⲟⲩ	-940
▁ⲛⲧⲟⲟ	-941
▁ϩⲛⲛⲉϥ	-942
ⲧⲡ	-943
ϣⲧⲟⲣ	-944
ⲉⲣⲉⲩⲥ	-945
ϫⲓⲛϭⲟⲛⲥ	-946
ⲇⲓⲁⲑⲏⲕⲏ	-947
▁ⲉⲛⲉϩ	-948
ⲉⲣ	-949
ⲣⲣⲉ	-950
▁ⲛⲕⲉ	-951
ⲁⲣⲱⲛ	-952
ⲧⲁⲁⲩ	-953
ⲫⲁⲣⲁ	-954
ϣⲧⲟⲣⲧⲣ	-955
▁ⲛϭⲓⲡϫⲟⲉⲓⲥ	-956
ⲓⲥⲁ	-957
ⲗⲱⲛ	-958
▁ⲁⲛⲟⲛ	-959
▁ⲛⲧⲡⲉ	-960
▁ⲛⲧⲉⲩⲛⲟⲩ	-961
ⲇⲟⲩ	-962
ⲉⲓⲁ	-963
▁ⲉⲙⲡ	-964
▁ⲛⲙⲙ	-965
ⲛⲟⲩϫⲉ	-966
▁ϫⲉⲉⲣⲉ	-967
▁ⲉⲧⲟⲟⲧϥ	-968
ⲥⲙⲏ	-969
ⲥⲛⲟϥ	-970
ⲅⲁⲑⲟⲛ	-971
ⲥⲁⲗ	-972
ⲧⲁⲗ	-973
▁ϫⲉⲁϥ	-974
ⲫⲁⲣⲁⲱ	-975
ϩⲁⲧ	-976
ϭⲟⲗ	-977
▁ⲛⲁϣ	-978
▁ⲛⲕⲁ	-979
▁ⲛⲧⲉⲧ	-980
ⲁⲛ	-981
ⲕⲁⲁϥ	-982
ⲣⲭⲱⲛ	-983
▁ⲉⲧⲉⲧⲛⲉ	-984
ⲓⲟⲥ	-985
ⲁⲩⲗⲟⲥ	-986
ⲛⲟⲙⲉⲓ	-987
ⲣⲟⲟⲩ	-988
ⲧⲏⲣ	-989
ⲟⲩⲱⲛ	-990
ⲥⲁⲃⲉ	-991
▁ⲁⲡϫⲟⲉⲓⲥ	-992
ⲣⲡⲟⲥ	-993
ⲕⲣⲓⲛⲉ	-994
ⲥⲟⲫⲓⲁ	-995
ⲫⲣⲁⲛⲉ	-996
▁ⲛϭⲓⲓⲏⲥⲟⲩⲥ	-997
ⲉⲥ	-998
ϫⲡⲟ	-999
▁ⲛⲉⲧⲉ	-1000
ⲟⲩⲉⲣⲏⲧⲉ	-1001
▁ⲙⲁⲩ	-1002
▁ⲛⲁⲣ	-1003
▁ⲁⲩϫⲓ	-1004
▁ⲛⲟⲩⲁ	-1005
ϫⲟ	-1006
ϣⲏⲛ	-1007
▁ⲛⲟ	-1008
ⲡⲟⲩ	-1009
ⲭⲁⲣⲓⲥ	-1010
ⲁⲁⲩ	-1011
ⲡⲁⲣ	-1012
▁ϩⲓⲱ	-1013
ϫⲏ	-1014
ϣⲕⲁⲕ	-1015
▁ϩⲱⲱϥ	-1016
ϣⲟⲩⲉⲓⲧ	-1017
ⲥϩⲁⲓ	-1018
ⲧⲣⲁ	-1019
▁ⲙⲉⲛ	-1020
▁ⲛⲓⲟⲩⲇⲁ	-1021
▁ϩⲛⲧⲉⲕ	-1022
▁ⲙⲡⲉⲧⲛ	-1023
▁ⲛⲧⲉⲓϩⲉ	-1024
ⲥⲕ	-1025
ⲟⲩⲥⲟⲡ	-1026
▁ϩⲙⲡⲉⲕ	-1027
▁ⲉⲛⲁϣⲱ	-1028
ⲙⲏⲛ	-1029
▁ϩⲁⲧ	-1030
▁ⲉⲉⲓ	-1031
ⲛⲓ	-1032
ⲙⲙⲟ	-1033
ⲏⲥⲓⲁ	-1034
ⲟⲟⲛⲉ	-1035
▁ϩⲓϫⲛ	-1036
▁ⲉⲡⲕⲁϩ	-1037
▁ϩⲓⲟⲩⲥⲟⲡ	-1038
ⲏⲑ	-1039
▁ⲙⲙⲛⲧ	-1040
▁ⲉⲧⲃⲉⲟⲩ	-1041
ⲃⲏⲣ	-1042
ⲩⲗⲏ	-1043
ⲉⲩ	-1044
ⲧⲃⲉ	-1045
ⲧⲣⲉⲩ	-1046
▁ϩⲛⲧⲡⲉ	-1047
▁ϫⲉⲛⲧⲟⲕ	-1048
▁ⲉⲛⲧⲁⲡϫⲟⲉⲓⲥ	-1049
ϣⲁⲓ	-1050
ⲯⲓⲥ	-1051
ⲡⲟⲗⲉ	-1052
▁ⲉⲛⲉϥ	-1053
ⲣⲣⲱⲟⲩ	-1054
ⲭⲉ	-1055
ⲧⲟⲓ	-1056
ϩⲧⲏϥ	-1057
▁ϩⲁⲡ	-1058
▁ⲙⲡϥ	-1059
ⲇⲱ	-1060
ϩⲣⲁ	-1061
ⲟⲉⲓⲧ	-1062
▁ϯϫⲱ	-1063
▁ⲡⲟⲩ	-1064
ⲟⲣⲇⲁ	-1065
▁ⲡⲉⲛⲛⲟⲩⲧⲉ	-1066
ⲙⲁⲥ	-1067
▁ⲛⲉⲥ	-1068
▁ⲟⲩⲉ	-1069
▁ϩⲓϫⲱ	-1070
▁ⲛⲙⲙⲁⲓ	-1071
ⲟⲣⲇⲁⲛⲏⲥ	-1072
........	-1073
ϩⲙⲉ	-1074
ⲓⲟⲛ	-1075
▁ⲙⲛⲁ	-1076
▁ϫⲉⲁⲛ	-1077
ⲙⲟⲩⲏⲗ	-1078
▁ⲉⲕϣⲁⲛ	-1079
ⲡⲟⲣ	-1080
ⲣⲱϥ	-1081
ⲟⲩⲉϩ	-1082
ⲫⲩⲗⲏ	-1083
▁ⲛⲛⲉⲓ	-1084
▁ⲉⲣϣⲁⲛ	-1085
▁ϫⲉⲉⲓⲥϩⲏⲏⲧⲉ	-1086
ϩⲏⲩ	-1087
ⲕⲁⲗⲉⲓ	-1088
▁ⲟⲩⲣⲱⲙⲉ	-1089
ⲣⲏⲧ	-1090
ϣⲱⲱⲧ	-1091
▁ⲡⲉⲩ	-1092
ⲙⲉⲣⲓ	-1093
▁ϫⲉⲡⲁ	-1094
ⲡⲉⲣⲙⲁ	-1095
ⲧⲛⲛⲟⲟⲩ	-1096
ϫⲓⲥ	-1097
ⲣⲓⲟⲥ	-1098
ⲣⲁϩⲁⲙ	-1099
▁ⲙⲁⲣⲉϥ	-1100
ⲕⲁⲣⲡⲟⲥ	-1101
▁ⲡⲁϣⲏⲣⲉ	-1102
▁ϩⲛⲧⲙⲏⲧⲉ	-1103
ⲕⲗⲏⲣⲟⲛⲟⲙⲓⲁ	-1104
ⲟⲩⲧ	-1105
ⲥⲏϩ	-1106
▁ⲉⲟⲩ	-1107
ⲕⲁⲕⲉ	-1108
▁ⲉⲡⲛⲟⲩⲧⲉ	-1109
ⲍⲁ	-1110
ⲉⲓⲟ	-1111
ⲑⲁⲛ	-1112
ⲡⲁϩ	-1113
▁ϩⲓⲧⲟⲟ	-1114
▁ⲙⲛⲛⲉⲧ	-1115
ⲙⲟ	-1116
ⲃⲉⲥ	-1117
▁ⲉⲓⲉ	-1118
ⲃⲟⲏⲑ	-1119
▁ⲛϭⲓⲡⲉ	-1120
▁ⲛⲙⲙⲁⲕ	-1121
ⲉⲓⲣⲏⲛⲏ	-1122
ⲙⲁⲑⲏⲧⲏⲥ	-1123
▁ⲛⲓⲏⲥⲟⲩⲥ	-1124
ⲅⲣⲁ	-1125
▁ⲛⲏⲩ	-1126
ⲟⲩⲟⲓ	-1127
▁ϩⲛⲧⲁ	-1128
▁ϫⲟⲟⲥ	-1129
ⲛⲉⲧ	-1130
ⲧⲟϥ	-1131
▁ⲉϥⲟ	-1132
▁ⲛϩⲏ	-1133
ⲟⲩⲱϣⲧ	-1134
▁ⲡϣⲁϫⲉ	-1135
ⲓⲧⲉ	-1136
▁ⲉⲡⲉⲕ	-1137
▁ⲁϥϫⲟⲟⲩ	-1138
ϩⲩⲡ	-1139
ⲙⲟⲧ	-1140
ⲙⲱⲛ	-1141
▁ⲛⲥⲓ	-1142
ⲥⲟⲡⲥ	-1143
▁ϫⲉⲡⲉ	-1144
▁ⲛϭⲓⲟⲩ	-1145
▁ⲉϫⲙⲡⲕⲁϩ	-1146
ⲕϩ	-1147
ϩⲉⲗ	-1148
ⲛⲁⲅⲱ	-1149
ⲱⲧⲟⲥ	-1150
ⲣⲟⲛⲟⲥ	-1151
▁ⲉϥϣⲁⲛ	-1152
ⲃⲉⲛ	-1153
ⲡⲱⲣ	-1154
▁ϩⲱⲛ	-1155
ⲙⲛⲧⲁ	-1156
ϫⲁ	-1157
▁ϫⲉϯ	-1158
ⲅⲁⲡⲏ	-1159
▁ⲛⲉⲣⲉ	-1160
▁ⲙⲛⲛⲥⲱ	-1161
▁ⲛϣⲁϫⲉ	-1162
▁ⲛϭⲟⲛⲥ	-1163
ⲡⲟⲗⲉⲙⲟⲥ	-1164
▁ⲁϥⲧⲱⲟⲩⲛ	-1165
ⲣⲉϥⲣⲛⲟⲃⲉ	-1166
ⲙⲉⲥ	-1167
ⲛⲉϭ	-1168
ⲱⲃϣ	-1169
▁ϩⲱⲥ	-1170
▁ⲛⲧⲁⲕ	-1171
▁ⲟⲩⲱϣ	-1172
ⲑⲗⲓⲯⲓⲥ	-1173
▁ⲉⲧⲟⲟⲧⲟⲩ	-1174
ⲕⲛⲁ	-1175
ⲟⲙⲉ	-1176
ⲡⲗⲁ	-1177
ⲣⲡⲉ	-1178
▁ⲙⲟⲩ	-1179
▁ⲥⲛⲁ	-1180
ⲁⲇ	-1181
ⲑⲁⲣ	-1182
▁ⲁⲩⲃⲱⲕ	-1183
▁ϩⲓⲧⲟⲟⲧϥ	-1184
ϭⲟ	-1185
ⲡϥ	-1186
▁ⲛϥⲛⲁ	-1187
▁ϩⲛⲛⲉⲕ	-1188
▁ϫⲉⲛⲧⲁ	-1189
▁ⲛⲁⲛⲟⲩ	-1190
▁ⲡⲗⲁⲟⲥ	-1191
ⲑⲣⲟⲛⲟⲥ	-1192
▁ⲛⲧⲟⲟⲧϥ	-1193
ϩⲟⲙ	-1194
ⲓⲍⲉ	-1195
ϩⲙⲟⲧ	-1196
▁ⲛⲛϩⲉⲑⲛⲟⲥ	-1197
ϣⲡ	-1198
ⲧⲉⲧ	-1199
ⲧⲃⲃⲟ	-1200
▁ⲡⲓⲥⲣⲁⲏⲗ	-1201
ⲱⲃⲉ	-1202
ϣⲃⲏⲣ	-1203
ⲡⲕⲁϩ	-1204
▁ⲉⲡⲉⲓ	-1205
▁ⲉⲧⲣⲁ	-1206
ⲉⲓⲱ	-1207
ⲣⲁⲧ	-1208
ⲧⲉⲛ	-1209
ⲧⲏⲩ	-1210
▁ⲛⲧⲕ	-1211
ⲕⲁⲁⲩ	-1212
ϣⲁⲛⲟⲩ	-1213
▁ϩⲛⲛⲁ	-1214
ⲥⲁϩⲛⲉ	-1215
▁ϩⲙⲡⲉⲩ	-1216
▁ⲉϫⲛⲧⲉ	-1217
▁ⲛϩⲟⲩⲟ	-1218
ⲛⲁⲅⲱⲅⲏ	-1219
▁ϩⲛⲟⲩⲛⲟϭ	-1220
▁ⲛⲧⲡⲟⲗⲓⲥ	-1221
▁ⲛϭ	-1222
ⲣⲉⲙ	-1223
ⲙⲧⲟⲛ	-1224
▁ⲛⲛⲁⲓ	-1225
ⲉⲓⲟⲧⲉ	-1226
▁ⲛϭⲓⲙⲱⲩⲥⲏⲥ	-1227
▁ⲙⲡⲉⲭⲣⲓⲥⲧⲟⲥ	-1228
ⲅⲉⲓ	-1229
▁ϫⲉϩ	-1230
▁ⲧⲉⲕ	-1231
▁ⲛⲟⲩⲉ	-1232
ⲣⲁⲓⲟⲥ	-1233
▁ⲉϫⲛⲟⲩ	-1234
ⲱϩ	-1235
▁ϣⲁϫⲉ	-1236
▁ϫⲉⲙⲁ	-1237
ⲑⲃⲃⲓⲟ	-1238
ⲛⲕⲟⲧⲕ	-1239
▁ⲥⲁⲟⲩⲗ	-1240
ⲕⲗⲏⲥⲓⲁ	-1241
▁ⲙⲙⲱⲩⲥⲏⲥ	-1242
ⲏⲣ	-1243
ⲁⲡⲉ	-1244
ⲗⲟⲛ	-1245
ⲙⲉⲓ	-1246
▁ⲁⲩⲣ	-1247
▁ⲉⲛⲉⲩ	-1248
▁ⲧⲡⲟⲗⲓⲥ	-1249
ⲃⲛ	-1250
ⲅⲟⲥ	-1251
ⲕⲱⲧ	-1252
ϣⲱⲛⲉ	-1253
ⲁⲅⲅⲉ	-1254
▁ⲉⲓⲛⲁ	-1255
▁ⲉⲧⲉϥ	-1256
ⲡⲟⲧⲟⲩ	-1257
▁ⲙⲛⲡⲉϥ	-1258
▁ⲛⲉⲛⲧⲁⲩ	-1259
▁ⲁϥⲙⲟⲩⲧⲉ	-1260
ⲡⲉⲧⲛⲁⲛⲟⲩϥ	-1261
ⲗⲡ	-1262
ⲛⲉⲥ	-1263
ⲟⲗⲟ	-1264
ϭⲉⲡⲏ	-1265
ⲓⲧⲏⲥ	-1266
▁ⲉϫⲱⲓ	-1267
ⲁⲅⲅⲉⲗⲓ	-1268
▁ⲛⲥⲁⲟⲩⲗ	-1269
ⲉⲓⲏⲥⲟⲩⲥ	-1270
ⲱⲣⲕ	-1271
ⲙⲏⲧⲛ	-1272
ⲙⲁⲁϫⲉ	-1273
ⲧⲟⲗ	-1274
▁ⲉⲡⲏⲓ	-1275
▁ⲧⲛⲛⲁ	-1276
▁ⲙⲁⲣⲟⲩ	-1277
ⲃⲟⲧ	-1278
▁ⲛϣⲉ	-1279
ϫⲱⲱⲙⲉ	-1280
▁ϫⲉⲛⲓⲙ	-1281
▁ⲛⲥⲱⲟⲩ	-1282
ⲥⲟⲟⲩⲧⲛ	-1283
ⲟϭ	-1284
ⲉⲡⲉ	-1285
ⲱⲧⲉ	-1286
▁ϣⲁⲩ	-1287
ⲛⲟⲩⲃ	-1288
ⲇⲓⲕⲁⲓ	-1289
ⲛⲉⲓⲟⲧⲉ	-1290
▁ϫⲉⲉⲧⲃⲉ	-1291
▁ⲛⲧⲉⲩϣⲏ	-1292
ⲟⲃ	-1293
ⲫⲓ	-1294
ⲕⲟⲛ	-1295
ⲗⲓⲗ	-1296
ⲩⲗⲱⲛ	-1297
▁ⲁⲩⲧⲁ	-1298
▁ⲉⲧϩⲛ	-1299
ⲧⲟⲟⲩⲉ	-1300
▁ⲧⲉⲧⲛⲁ	-1301
▁ⲧⲱⲟⲩⲛ	-1302
▁ⲁϥϣⲱⲡⲉ	-1303
ⲣⲟⲓ	-1304
ⲩⲧⲉ	-1305
▁ϫⲉϥ	-1306
▁ⲁⲓⲥ	-1307
ⲕⲁⲧⲁ	-1308
ϩⲓⲧⲟⲩ	-1309
ⲕⲟⲟⲩⲉ	-1310
ⲟⲩⲥⲓⲁ	-1311
ⲑⲩⲥⲓⲁⲥ	-1312
ⲁϩⲉⲣⲁⲧϥ	-1313
▁ⲛⲁⲃ	-1314
ⲥⲁϣϥ	-1315
▁ⲛⲧⲃⲁ	-1316
ⲛⲁⲑⲁⲛ	-1317
ⲡⲁⲧⲁⲥ	-1318
ϣⲟⲩϣⲟⲩ	-1319
▁ⲁϥⲛⲁⲩ	-1320
ⲥⲡⲉⲣⲙⲁ	-1321
ⲉⲓⲥ	-1322
▁ⲙⲛⲛⲁ	-1323
▁ⲛϯⲛⲁ	-1324
▁ϩⲱⲥⲧⲉ	-1325
▁ϫⲉϯⲛⲁ	-1326
▁ⲕⲉ	-1327
ⲡⲣⲉ	-1328
ⲛⲟⲟⲩⲥ	-1329
ⲥⲁⲟⲩⲗ	-1330
▁ⲛⲛⲉϩⲟⲟⲩ	-1331
ⲑⲩⲥⲓⲁⲥⲧⲏⲣⲓⲟⲛ	-1332
ϩⲟϥ	-1333
ϩⲱⲧ	-1334
ϫⲣⲟ	-1335
ϯⲥⲃⲱ	-1336
▁ⲛⲉⲧⲛ	-1337
▁ⲛⲛⲉⲥ	-1338
▁ⲉⲧⲣⲉⲕ	-1339
ⲣⲉⲙⲃⲟⲗⲏ	-1340
▁ⲟ	-1341
ⲭⲓ	-1342
ⲙⲁⲓ	-1343
ⲙⲟⲣ	-1344
▁ⲉⲙⲛ	-1345
▁ⲉⲥⲉ	-1346
▁ⲛⲁⲧ	-1347
ⲥⲟⲫⲟⲥ	-1348
▁ϫⲓⲛⲧⲉ	-1349
ϣⲁⲩ	-1350
ⲃⲱⲗ	-1351
ⲱⲙⲁ	-1352
ϣⲱϫⲡ	-1353
ⲥⲟⲧⲡ	-1354
▁ⲛⲧⲉⲣ	-1355
ⲓⲕⲧⲱⲣ	-1356
▁ϣⲁⲛⲧⲉ	-1357
ⲓⲉⲣⲉⲩⲥ	-1358
▁ⲛⲉⲗⲟⲟⲗⲉ	-1359
▁ⲛⲟⲩⲣⲱⲙⲉ	-1360
ⲥⲩⲛⲁⲅⲱⲅⲏ	-1361
ⲕⲧⲟ	-1362
ⲗⲏⲛ	-1363
ⲙⲟⲕ	-1364
ⲟⲟⲣ	-1365
▁ⲙⲏⲡ	-1366
ϩⲓⲟⲙⲉ	-1367
▁ϫⲉⲥⲉ	-1368
▁ⲛⲧⲉⲥ	-1369
▁ⲥⲙⲟⲩ	-1370
▁ⲕⲁⲧⲁⲡ	-1371
ⲁⲙⲁϩⲧⲉ	-1372
ⲝⲟⲩⲥⲓⲁ	-1373
ⲙⲓⲛ	-1374
ⲟⲩⲓ	-1375
ⲧⲣⲉϥ	-1376
▁ⲛϩⲱⲃ	-1377
▁ⲛⲥⲱⲓ	-1378
ⲙⲁⲉⲓⲛ	-1379
ⲛⲉⲓⲣⲉ	-1380
ⲃⲛⲟⲟⲩⲉ	-1381
ⲏⲣⲡ	-1382
▁ⲉⲧⲓ	-1383
▁ϫⲉⲛⲁ	-1384
▁ⲉϫⲱⲕ	-1385
ⲥⲁⲓⲟⲥ	-1386
ⲥⲉⲉⲡⲉ	-1387
▁ϩⲛⲧⲉⲩ	-1388
▁ⲡⲉⲛⲧⲁ	-1389
ⲩⲧⲉⲣⲟⲥ	-1390
▁ⲛⲙⲙⲏⲧⲛ	-1391
ⲗⲱⲥ	-1392
ⲡⲏⲧ	-1393
ⲣⲁⲕ	-1394
ⲙⲟⲩϩ	-1395
ⲃⲱⲧⲟⲥ	-1396
ⲟⲩⲛⲟⲥ	-1397
ⲣⲁⲥⲧⲉ	-1398
▁ϩⲓⲧϩⲏ	-1399
▁ϩⲛⲛⲉⲧ	-1400
▁ϫⲉⲙⲡⲉ	-1401
ⲙⲟⲩⲟⲩⲧ	-1402
ⲥⲛⲟⲟⲩⲥ	-1403
▁ⲉⲣⲁⲧⲟⲩ	-1404
▁ⲙⲡⲟⲗⲓⲥ	-1405
▁ⲛϩⲙϩⲁⲗ	-1406
ⲥⲃⲩⲧⲉⲣⲟⲥ	-1407
ⲃⲥ	-1408
ϣⲱⲡ	-1409
ⲕⲏⲛⲏ	-1410
ⲛⲁⲁⲩ	-1411
▁ⲉⲧϩⲓ	-1412
▁ⲙⲛⲡⲁ	-1413
▁ⲛⲧⲉⲛ	-1414
▁ϩⲙⲡⲏⲓ	-1415
▁ϫⲉⲃⲱⲕ	-1416
▁ⲙⲡⲙⲧⲟ	-1417
▁ⲃⲓⲕⲧⲱⲣ	-1418
▁ⲉⲡⲉϥⲣⲁⲛ	-1419
ⲃⲁⲧⲟⲛ	-1420
ⲃⲩⲗⲱⲛ	-1421
▁ⲙⲡⲛⲁⲩ	-1422
▁ⲁϥϣⲁϫⲉ	-1423
ⲡⲁⲣⲉⲙⲃⲟⲗⲏ	-1424
ϭⲃ	-1425
ⲛⲁϥ	-1426
ⲥⲙⲁ	-1427
ⲡⲟⲛⲏ	-1428
▁ⲥⲟⲟⲩ	-1429
ⲛⲉⲣⲏⲩ	-1430
ⲣⲏⲙⲟⲥ	-1431
▁ϩⲁⲙⲏⲛ	-1432
▁ϩⲓⲛⲁⲓ	-1433
ⲛⲟϭⲛⲉϭ	-1434
▁ⲛⲓⲁⲕⲱⲃ	-1435
▁ⲛⲧⲉⲡⲛⲟⲩⲧⲉ	-1436
ⲡⲣⲉⲥⲃⲩⲧⲉⲣⲟⲥ	-1437
ⲥⲏⲫ	-1438
▁ⲉⲣⲁ	-1439
▁ϫⲉⲁⲕ	-1440
ⲛⲟⲩⲟⲩ	-1441
ⲥⲁⲗⲱⲙ	-1442
▁ⲛⲧⲙⲛⲧ	-1443
ⲡⲉⲧⲟⲩⲁⲁⲃ	-1444
ϣⲥ	-1445
ⲛⲉⲁ	-1446
ⲥⲱϣ	-1447
ⲙⲉⲗⲉ	-1448
▁ϫⲉⲙⲛ	-1449
▁ⲥⲛⲧⲉ	-1450
ⲟⲩⲉϩⲥⲁϩⲛⲉ	-1451
ϩⲁⲏ	-1452
▁ⲏⲛ	-1453
ⲉⲓⲃ	-1454
ⲭⲁⲣ	-1455
▁ⲉⲧⲡⲉ	-1456
ⲧⲁⲙⲓⲟ	-1457
▁ⲉⲧⲉⲣⲉⲡϫⲟⲉⲓⲥ	-1458
ϣⲣ	-1459
▁ϥⲓ	-1460
▁ⲁϥⲣ	-1461
ⲓⲥⲧⲁ	-1462
ⲛⲉⲧⲛ	-1463
▁ⲉⲣⲉⲟⲩ	-1464
▁ⲛⲃⲣⲣⲉ	-1465
▁ⲉⲡⲁϩⲟⲩ	-1466
ⲗⲱ	-1467
ϩⲁⲣ	-1468
ⲕⲓⲙ	-1469
▁ⲕⲁⲓ	-1470
▁ⲛⲓⲉ	-1471
ⲡⲓⲍⲉ	-1472
▁ⲉϣⲁⲩ	-1473
▁ⲙⲡⲏⲓ	-1474
▁ϫⲉⲙⲡⲣ	-1475
▁ⲛⲙⲙⲁⲛ	-1476
▁ⲙⲡⲣⲧⲣⲉ	-1477
▁ⲙⲡⲉϥⲙⲧⲟ	-1478
▁ⲙⲛⲛⲥⲁⲛⲁⲓ	-1479
ⲙⲏⲧ	-1480
ϣⲁⲛⲧ	-1481
ⲉⲣⲏⲩ	-1482
ϩⲩⲡⲟⲙ	-1483
▁ⲉϫⲛⲛ	-1484
ⲛⲉⲓⲱⲧ	-1485
ⲧⲟⲗⲟⲥ	-1486
▁ⲙⲛⲧⲉϥ	-1487
▁ⲙⲡⲉⲓⲙⲁ	-1488
▁ⲛϩⲉⲑⲛⲟⲥ	-1489
ⲥⲁⲃⲃⲁⲧⲟⲛ	-1490
ⲕⲗⲏⲣⲟⲛⲟⲙⲉⲓ	-1491
ϫⲁⲥ	-1492
ⲥⲓⲥ	-1493
ⲙⲛⲧⲉ	-1494
▁ϩⲱⲟⲩ	-1495
▁ϩⲁⲧϩⲏ	-1496
▁ϫⲉⲉⲛⲉ	-1497
▁ⲙⲡⲙⲟⲩ	-1498
▁ⲛⲟⲩⲟⲛ	-1499
▁ⲟⲩⲛⲟϭ	-1500
▁ⲉⲧϣⲟⲟⲡ	-1501
▁ⲛⲛⲁϩⲣⲛ	-1502
ⲣⲡⲙⲉⲉⲩⲉ	-1503
▁ⲉⲧⲃⲏⲏⲧϥ	-1504
▁ϩⲙ	-1505
ⲕⲱϩ	-1506
ⲗⲉⲩ	-1507
ⲙⲓⲛⲉ	-1508
ⲙⲕⲁϩ	-1509
ⲣⲓⲕⲉ	-1510
▁ⲉⲛⲉⲕ	-1511
ⲙⲟⲥⲧⲉ	-1512
ⲟⲩⲱϣϥ	-1513
ⲟⲩⲟⲉⲓⲛ	-1514
ⲡⲁⲧⲁⲥⲥⲉⲓ	-1515
ⲡⲟⲥⲧⲟⲗⲟⲥ	-1516
ⲱⲑ	-1517
ⲧⲟϣ	-1518
▁ϩⲁⲣ	-1519
▁ⲉⲩⲟ	-1520
▁ⲛϩⲛ	-1521
ⲥⲛⲁⲩ	-1522
▁ⲛⲥⲱⲕ	-1523
ⲟⲩⲛⲟϥ	-1524
▁ⲛⲛⲟⲩⲃ	-1525
ⲡⲙⲉⲉⲩⲉ	-1526
ⲣⲙⲛⲕⲏⲙⲉ	-1527
ⲃⲁⲡ	-1528
ⲗⲓⲁ	-1529
ⲥⲟⲃ	-1530
ⲧⲱⲧ	-1531
ⲱⲁⲃ	-1532
ⲡⲣⲟⲥ	-1533
ⲧⲁϣⲉ	-1534
ⲛⲟⲩϭⲥ	-1535
ⲣⲙⲛϩⲏⲧ	-1536
▁ⲛⲉⲧⲉⲣⲉ	-1537
▁ϩⲛⲧϩⲓⲉⲣⲟⲩⲥⲁⲗⲏⲙ	-1538
ϫⲡⲓ	-1539
ϭⲱⲗⲡ	-1540
▁ⲁϩⲉ	-1541
ⲕⲟⲧϥ	-1542
▁ⲙⲡⲁⲓ	-1543
▁ⲟⲩⲟⲓ	-1544
▁ⲉⲧⲣⲉⲛ	-1545
ϭⲛ	-1546
ⲇⲏⲥ	-1547
ⲕⲧⲟϥ	-1548
ϩⲟⲓⲧⲉ	-1549
▁ϩⲟⲧⲉ	-1550
▁ⲉⲓⲙⲉ	-1551
▁ⲙⲡⲣⲏ	-1552
ⲧⲱⲱⲃⲉ	-1553
ⲙⲓⲁⲥ	-1554
ⲛⲟⲩⲉ	-1555
ⲧⲟⲩϫ	-1556
▁ⲁⲛⲁⲩ	-1557
ⲃⲟⲗⲟⲥ	-1558
▁ⲉⲩϣⲁⲛ	-1559
▁ⲟⲩⲱϣⲃ	-1560
▁ϫⲉⲉⲧⲃⲉⲟⲩ	-1561
ϩϥ	-1562
ϩⲣⲉ	-1563
ϫⲱⲙ	-1564
ϫⲟⲟϥ	-1565
ⲙⲉⲣⲉ	-1566
ⲙⲡⲉϥ	-1567
▁ⲁϥⲕⲱ	-1568
▁ⲉⲕⲛⲁ	-1569
▁ⲡⲗⲏⲛ	-1570
ⲕⲁⲑⲁⲣ	-1571
ⲥⲁϩⲟⲩ	-1572
▁ⲉϫⲛⲛⲉ	-1573
▁ⲡⲉϫⲁⲥ	-1574
ⲧⲁⲯⲩⲭⲏ	-1575
▁ⲙⲛⲛⲥⲱⲥ	-1576
▁ⲙⲡⲓⲟⲣⲇⲁⲛⲏⲥ	-1577
ⲃⲓ	-1578
ϣⲟⲙ	-1579
ϭⲱⲃ	-1580
ⲃⲏⲕ	-1581
ⲣⲏⲥ	-1582
▁ⲡⲕⲉ	-1583
▁ⲧⲱⲛ	-1584
▁ϯⲛⲁϯ	-1585
▁ⲉϫⲱⲛ	-1586
▁ⲛⲥⲟⲡ	-1587
▁ⲡⲁⲣⲁ	-1588
ⲙⲉⲣⲓⲧ	-1589
▁ϩⲁⲣⲟϥ	-1590
▁ⲉⲛⲧⲁⲕ	-1591
▁ⲛϣⲱⲡⲉ	-1592
ⲇⲓⲕⲁⲓⲱⲙⲁ	-1593
▁ϩⲛⲛⲉϩⲟⲟⲩ	-1594
ⲛⲉϫ	-1595
▁ϩⲓⲡ	-1596
ⲛⲟϫϥ	-1597
ⲡⲓⲑⲩ	-1598
ⲣϩⲱⲃ	-1599
ⲣⲁⲓⲙ	-1600
ⲥⲁⲧⲉ	-1601
ⲫⲣⲁⲓⲙ	-1602
▁ⲉⲧⲃⲉⲡ	-1603
▁ⲙⲫⲁⲣⲁⲱ	-1604
▁ⲁⲡⲛⲟⲩⲧⲉ	-1605
▁ⲉⲛⲁϣⲱⲟⲩ	-1606
ⲧⲩ	-1607
▁ⲁⲛⲅ	-1608
ⲭⲁⲛⲁ	-1609
ⲕⲟⲧⲟⲩ	-1610
ⲣⲓⲧⲏⲥ	-1611
▁ϫⲉⲡⲁⲓ	-1612
▁ⲛϭⲓⲛⲁ	-1613
▁ⲡⲁⲛⲟⲩⲧⲉ	-1614
ⲁⲅⲅⲉⲗⲓⲟⲛ	-1615
ⲇⲩ	-1616
ⲫⲉ	-1617
ⲃⲟⲩ	-1618
ⲕⲉⲩ	-1619
ⲡⲁⲥ	-1620
▁ⲉϫⲓ	-1621
ⲡⲣⲣⲟ	-1622
ⲣⲟⲩϩⲉ	-1623
▁ⲛⲥϩⲓⲙⲉ	-1624
▁ⲁⲩⲧⲱⲟⲩⲛ	-1625
ⲙⲛⲧⲙⲛⲧⲣⲉ	-1626
▁ⲉⲧϩⲓⲉⲣⲟⲩⲥⲁⲗⲏⲙ	-1627
ⲁⲧⲉ	-1628
ⲛⲁⲛ	-1629
ⲥⲁϣ	-1630
ⲭⲱⲣⲁ	-1631
▁ϩⲱⲱⲕ	-1632
▁ϭⲱϣⲧ	-1633
ⲫⲁⲣⲓⲥ	-1634
▁ⲙⲡⲟⲛⲏ	-1635
▁ⲛⲗⲁⲁⲩ	-1636
ⲣⲙⲛⲧⲣⲉ	-1637
▁ⲉⲧⲉⲧⲛⲁ	-1638
▁ⲛⲧⲁⲡϫⲟⲉⲓⲥ	-1639
ⲫⲁⲣⲓⲥⲥⲁⲓⲟⲥ	-1640
ϩⲱⲡ	-1641
ⲃⲁⲓ	-1642
ⲥⲩⲛ	-1643
ⲱϫⲛ	-1644
ⲗⲉⲉⲧ	-1645
ⲥⲱⲃⲉ	-1646
ⲣⲟⲟⲩϣ	-1647
▁ⲛⲉⲧⲛⲁ	-1648
ⲱⲧⲧⲏⲩⲧⲛ	-1649
▁ⲛϭⲓⲛϣⲏⲣⲉ	-1650
ϣⲁϥ	-1651
ⲁⲧϥ	-1652
ⲣⲱⲃ	-1653
ⲧⲱϣ	-1654
▁ⲛϣⲟ	-1655
▁ⲛϩⲟ	-1656
ⲙⲡϣⲁ	-1657
▁ⲉⲛⲁⲓ	-1658
ⲅⲉⲛⲉⲁ	-1659
▁ϩⲓϫⲱϥ	-1660
▁ⲙⲛⲡⲉⲕ	-1661
▁ⲉⲧⲟⲟⲧⲕ	-1662
▁ⲙⲁⲩⲁⲁϥ	-1663
...	-1664
▁ϩⲟ	-1665
ⲛⲱⲛ	-1666
ⲟⲟϥ	-1667
ⲡⲱϩ	-1668
ⲧⲟⲟ	-1669
ϩⲧⲏⲕ	-1670
ⲙⲁⲁⲧ	-1671
ⲙⲁⲥⲉ	-1672
ⲣⲉⲓⲁ	-1673
ⲧⲉⲩⲥ	-1674
▁ⲉⲧⲉⲛ	-1675
ⲁⲣⲭⲱⲛ	-1676
ⲧⲁϫⲣⲟ	-1677
▁ⲙⲏⲡⲟⲧⲉ	-1678
▁ⲛϭⲓⲛⲉⲧ	-1679
▁ϩⲛⲟⲩⲙⲛⲧ	-1680
ⲏⲡ	-1681
ϯⲟⲩ	-1682
ⲃⲁⲁ	-1683
ⲥⲉⲡ	-1684
▁ⲇⲓⲁ	-1685
ⲧⲁⲁⲥ	-1686
ϭⲉⲣⲱⲃ	-1687
▁ⲉⲛⲁⲩ	-1688
ⲥⲡⲟⲧⲟⲩ	-1689
▁ⲁⲩϣⲱⲡⲉ	-1690
▁ⲛⲧⲙⲏⲧⲉ	-1691
▁ϩⲙⲡⲧⲟⲟⲩ	-1692
ϩⲏⲡ	-1693
ⲇⲟⲕ	-1694
ⲗⲗⲉ	-1695
ⲡⲩⲗⲏ	-1696
ⲧⲥⲁⲃ	-1697
▁ϣⲓⲛⲉ	-1698
ⲕⲁⲕⲓⲁ	-1699
ⲙⲡⲏⲩⲉ	-1700
▁ϫⲉⲛⲁⲓ	-1701
ϩⲁⲗⲁⲥⲥⲁ	-1702
ⲇⲓⲁⲃⲟⲗⲟⲥ	-1703
ⲏⲧ	-1704
▁ⲣⲱ	-1705
ⲙⲁⲣ	-1706
ⲣⲭⲏ	-1707
ⲏⲩⲧⲛ	-1708
ⲙⲙⲁϥ	-1709
ⲥⲱⲧⲡ	-1710
▁ⲛⲙⲡⲉ	-1711
ⲙⲟⲟⲛⲉ	-1712
ⲟⲩⲛⲁⲙ	-1713
ⲧⲉϩⲓⲏ	-1714
▁ϩⲏⲧⲟⲩ	-1715
▁ⲙⲙⲁⲧⲉ	-1716
▁ⲉⲧⲟⲩⲛⲁ	-1717
▁ⲛⲛⲉⲛⲧⲁⲩ	-1718
ⲁϩⲉⲣⲁⲧⲟⲩ	-1719
ϣⲱⲥ	-1720
ⲁⲓⲁ	-1721
ⲙⲓⲁ	-1722
ⲭⲙⲁ	-1723
ϩⲱⲧⲃ	-1724
▁ⲁϥⲓ	-1725
ⲥⲟⲃⲧ	-1726
ⲃⲉⲛⲓⲁ	-1727
ⲡⲣⲱⲙⲉ	-1728
ⲧⲉⲗⲏⲗ	-1729
▁ⲛⲥⲉⲧⲙ	-1730
▁ⲡⲉϫⲁⲓ	-1731
▁ϫⲉϩⲛⲟⲩ	-1732
▁ⲁϥⲥⲱⲧⲙ	-1733
▁ⲙⲡϣⲁϫⲉ	-1734
▁ⲛⲧⲟⲟⲧⲟⲩ	-1735
▁ⲁⲣⲓⲡⲙⲉⲉⲩⲉ	-1736
ϣⲱⲗ	-1737
ⲟⲟϩ	-1738
ⲥⲛⲧⲉ	-1739
▁ⲁⲩϩⲉ	-1740
▁ⲙⲛⲧⲉ	-1741
▁ⲧⲙⲛⲧ	-1742
ⲑⲗⲓⲃⲉ	-1743
ⲛⲟⲩϩⲙ	-1744
▁ϩⲓⲱⲱϥ	-1745
▁ⲉⲛⲧⲁⲓ	-1746
▁ⲛⲥⲉⲛⲁ	-1747
▁ⲡⲉⲓⲱⲧ	-1748
▁ⲉⲡⲉⲓⲙⲁ	-1749
▁ⲙⲡϣⲏⲣⲉ	-1750
▁ⲡⲉⲧⲛⲛⲟⲩⲧⲉ	-1751
ⲕⲓ	-1752
ⲁⲗⲉ	-1753
ⲧⲙⲉ	-1754
ϣⲙⲙⲟ	-1755
ϩⲗⲗⲟ	-1756
▁ϩⲱⲃ	-1757
ⲛⲉⲓⲁ	-1758
▁ϫⲉⲙⲏ	-1759
ⲛⲁⲓⲟⲥ	-1760
ⲛⲉⲓⲙⲉ	-1761
▁ⲙⲡⲱⲛϩ	-1762
ⲡⲁⲉⲓⲱⲧ	-1763
▁ⲙⲱⲩⲥⲏⲥ	-1764
▁ⲛϭⲓⲡⲉⲧ	-1765
▁ⲙⲡⲁⲉⲓⲱⲧ	-1766
ⲣⲛ	-1767
ϣⲧⲉ	-1768
ϫⲟⲩ	-1769
ⲡⲱϣ	-1770
▁ⲛⲉⲛ	-1771
ⲑⲓⲟⲥ	-1772
▁ϣⲁⲛⲧ	-1773
▁ⲛⲁⲙⲉ	-1774
▁ⲛⲧⲟⲥ	-1775
ⲃⲟⲏⲑⲉⲓ	-1776
▁ⲛⲟⲩⲛⲟϭ	-1777
▁ⲉϥⲟⲩⲁⲁⲃ	-1778
▁ⲙⲡⲉⲕⲙⲧⲟ	-1779
▁ⲙⲡⲉϥⲉⲓⲱⲧ	-1780
ⲡⲉⲧϣⲟⲩⲉⲓⲧ	-1781
▁ⲛⲛⲁⲗⲗⲟⲫⲩⲗⲟⲥ	-1782
ⲡⲏⲓ	-1783
▁ϩⲁϩ	-1784
▁ϫⲱⲕ	-1785
▁ⲉⲛϥ	-1786
ⲛⲧⲁⲕ	-1787
▁ⲟⲩⲃⲉ	-1788
ⲇⲱⲣⲟⲛ	-1789
ϩⲉⲗⲡⲓⲥ	-1790
▁ⲁϥⲙⲟⲩ	-1791
ⲕⲗⲏⲣⲟⲥ	-1792
▁ⲡⲁⲉⲓⲱⲧ	-1793
▁ⲉⲧⲡⲟⲗⲓⲥ	-1794
▁ϫⲓⲛⲧⲉⲛⲟⲩ	-1795
▁ⲛⲛⲁⲥⲉⲃⲏⲥ	-1796
ϩⲏⲛ	-1797
ⲥⲁⲛ	-1798
ⲥⲓⲁ	-1799
▁ⲉⲧⲟ	-1800
ⲗⲁⲁⲇ	-1801
ⲧⲁⲩⲟ	-1802
▁ϩⲓϩⲏ	-1803
▁ⲉϣⲁϥ	-1804
▁ⲉⲡⲉⲩ	-1805
▁ⲙⲛⲧⲁ	-1806
▁ⲉⲧⲛⲏⲩ	-1807
▁ϩⲙⲡⲧⲣⲉ	-1808
ⲉⲩⲫⲣⲁⲛⲉ	-1809
▁ⲉⲣϣⲁⲛⲟⲩ	-1810
▁ϩⲱⲧⲧⲏⲩⲧⲛ	-1811
▁ⲛⲉⲧⲉⲣⲉⲡϫⲟⲉⲓⲥ	-1812
ϣⲛ	-1813
ϣϣⲉ	-1814
▁ⲕⲱ	-1815
ⲭⲟⲥ	-1816
▁ⲛⲅⲁ	-1817
▁ⲛⲛⲧ	-1818
▁ⲡⲉⲥ	-1819
ⲟⲩⲏϩ	-1820
ⲡⲁⲛⲧ	-1821
ⲧⲏⲣϥ	-1822
▁ϫⲟⲟⲩ	-1823
▁ⲉϯⲛⲁ	-1824
▁ⲉⲃⲱⲕ	-1825
▁ⲛϭⲓⲧ	-1826
▁ϫⲉⲧⲁⲓ	-1827
▁ⲁⲓⲛⲁⲩ	-1828
▁ⲉⲧϫⲟⲥⲉ	-1829
▁ⲙⲛⲛⲉⲧⲛ	-1830
▁ϥⲛⲁϣⲱⲡⲉ	-1831
ⲉⲓⲏ	-1832
ⲓⲣⲉ	-1833
ⲟⲙϥ	-1834
▁ϣⲁⲡ	-1835
▁ⲛⲁϯ	-1836
▁ⲧⲉⲧ	-1837
ⲓⲙⲱⲛ	-1838
▁ⲛϩⲁϩ	-1839
ⲇⲓⲇⲟⲩ	-1840
ⲛⲁⲥⲥⲏ	-1841
ⲯⲁⲗⲙⲁ	-1842
ϩⲁⲓⲃⲉⲥ	-1843
▁ⲛⲥⲓⲱⲛ	-1844
ⲡⲉϩⲟⲟⲩ	-1845
▁ⲁⲓϫⲟⲟⲥ	-1846
▁ⲙⲡⲉⲟⲟⲩ	-1847
▁ϩⲛⲧⲉϩⲓⲏ	-1848
▁ⲙⲡⲉⲛⲧⲁϥ	-1849
▁ⲇⲓⲁⲯⲁⲗⲙⲁ	-1850
▁ⲛⲇⲓⲕⲁⲓⲟⲥ	-1851
▁ϩⲙⲡⲓⲥⲣⲁⲏⲗ	-1852
ϩⲕⲟ	-1853
ϭⲓⲛ	-1854
ⲗⲟϭ	-1855
ⲙⲁⲛ	-1856
ⲧⲏⲛ	-1857
ϩⲟⲉⲓ	-1858
ϫⲟⲟⲣ	-1859
ⲛⲧⲁⲓ	-1860
▁ϫⲉⲧⲉ	-1861
▁ϫⲓⲛⲛ	-1862
▁ⲁϥϥⲓ	-1863
▁ⲉⲧⲉⲕ	-1864
▁ⲙⲁⲣⲛ	-1865
▁ⲛⲛⲉⲛ	-1866
ⲛⲧⲉⲧⲛ	-1867
ⲡⲁϩⲟⲩ	-1868
ⲣⲁⲧⲱⲣ	-1869
ⲥⲃⲧⲱⲧ	-1870
ⲧϩⲟⲟⲩ	-1871
ⲧⲛⲧⲱⲛ	-1872
▁ⲁⲩⲛⲁⲩ	-1873
▁ⲟⲩⲱⲛϩ	-1874
ⲧⲁϫⲣⲏⲩ	-1875
▁ⲡⲁⲩⲗⲟⲥ	-1876
▁ϩⲛⲧⲥⲱϣⲉ	-1877
ⲡⲁⲣⲁⲕⲁⲗⲉⲓ	-1878
▁ⲛⲛⲉⲧⲟⲩⲁⲁⲃ	-1879
▁ⲛⲧⲑⲁⲗⲁⲥⲥⲁ	-1880
ⲏⲛ	-1881
ⲣϭ	-1882
ϩⲟⲣ	-1883
ⲁⲁⲥ	-1884
ⲛⲏⲓ	-1885
ⲛⲟⲛ	-1886
ϩⲟⲩⲛ	-1887
▁ⲉⲙⲉ	-1888
▁ⲛϩⲁ	-1889
▁ⲛⲛⲓ	-1890
ⲓⲕⲟⲥ	-1891
ⲧⲁϩⲉ	-1892
ⲭⲏⲣⲁ	-1893
▁ⲁⲩϥⲓ	-1894
▁ⲉⲛⲉⲧ	-1895
▁ⲛⲟⲃⲉ	-1896
ⲟⲩⲏⲏⲃ	-1897
ⲡⲉⲧⲣⲁ	-1898
ⲣⲟⲉⲓⲥ	-1899
ϣⲉⲗⲉⲉⲧ	-1900
ⲃⲏⲥⲁⲗⲱⲙ	-1901
▁ⲉⲛⲁⲛⲟⲩϥ	-1902
▁ϩⲛⲟⲩϭⲉⲡⲏ	-1903
▁ⲛⲧⲇⲓⲕⲁⲓⲟⲥⲩⲛⲏ	-1904
ϥⲟ	-1905
ⲃϩ	-1906
ϫⲱϩ	-1907
ⲃⲁⲣ	-1908
ⲭⲟⲣ	-1909
ϩⲙⲟⲩ	-1910
ϫⲁⲥⲓ	-1911
▁ⲉⲩⲁ	-1912
▁ⲙⲙⲛ	-1913
▁ⲡⲏⲓ	-1914
ⲟⲩⲉϣ	-1915
ⲡⲉⲧⲛ	-1916
ϩⲓⲉⲓⲃ	-1917
ϯⲉⲟⲟⲩ	-1918
▁ⲛϥⲧⲙ	-1919
ⲛⲟϫⲟⲩ	-1920
ⲥⲱⲧⲏⲣ	-1921
▁ϩⲙⲡⲉⲓ	-1922
ϩⲓⲉⲣⲉⲩⲥ	-1923
▁ϣⲁⲣⲉⲟⲩ	-1924
▁ⲡⲙⲉⲉⲩⲉ	-1925
ⲓⲟⲩⲇⲁⲓⲁ	-1926
ϫϥ	-1927
ϣⲣⲡ	-1928
ϫⲓⲧϥ	-1929
ⲕⲓⲁⲥ	-1930
ϫⲓⲧⲟⲩ	-1931
▁ⲉⲥϫⲱ	-1932
ⲟⲉⲓⲗⲉ	-1933
ⲡⲱⲱⲛⲉ	-1934
ⲧⲁⲓⲏⲩ	-1935
▁ϩⲁⲣⲉϩ	-1936
▁ϩⲓⲧⲛⲟⲩ	-1937
▁ϩⲛⲛⲉⲧⲛ	-1938
ⲙⲙⲁⲧⲉⲩⲥ	-1939
ⲟⲕⲣⲁⲧⲱⲣ	-1940
ⲥⲙⲁⲙⲁⲁⲧ	-1941
▁ⲡⲉⲡⲛⲉⲩⲙⲁ	-1942
▁ⲙⲡⲉⲡⲛⲉⲩⲙⲁ	-1943
ϩⲓⲧ	-1944
ⲛⲧⲏ	-1945
ⲧⲏⲕ	-1946
ⲫⲟⲥ	-1947
▁ⲁϥⲥ	-1948
▁ⲡⲁⲥ	-1949
ⲃⲉⲕⲉ	-1950
ⲕⲁⲁⲧ	-1951
ⲙⲙⲱⲛ	-1952
▁ⲛⲧⲙⲉ	-1953
ⲇⲁⲓⲟⲥ	-1954
ⲧⲁⲉⲓⲟ	-1955
▁ϣⲁⲣⲟϥ	-1956
▁ⲁⲩⲡⲱⲧ	-1957
▁ⲛϣⲙⲙⲟ	-1958
▁ⲧⲏⲣⲧⲛ	-1959
▁ϩⲛⲕⲏⲙⲉ	-1960
▁ϯⲥⲟⲟⲩⲛ	-1961
▁ⲉⲃⲟⲗϫⲉ	-1962
▁ⲉⲧⲛⲁⲛⲟⲩϥ	-1963
▁ⲙⲡⲉⲛϫⲟⲉⲓⲥ	-1964
▁ⲛϩⲏⲧⲧⲏⲩⲧⲛ	-1965
▁ϩⲛⲟⲩⲉⲓⲣⲏⲛⲏ	-1966
ⲡⲁⲛⲧⲟⲕⲣⲁⲧⲱⲣ	-1967
ⲙⲥ	-1968
ⲕⲧⲉ	-1969
ϫⲁϩⲙ	-1970
▁ⲟⲩⲧⲉ	-1971
ⲁⲣⲭⲉⲓ	-1972
ⲡⲉⲓⲣⲁ	-1973
▁ϣⲁⲣⲟⲓ	-1974
▁ⲉⲧⲕⲛⲁ	-1975
ⲟⲗⲟⲅⲉⲓ	-1976
▁ⲉⲡⲧⲟⲟⲩ	-1977
▁ⲙⲡⲁⲗⲁⲟⲥ	-1978
▁ⲙⲡⲛⲟⲙⲟⲥ	-1979
▁ⲛⲛⲁϩⲣⲙⲡ	-1980
▁ⲥⲁⲙⲟⲩⲏⲗ	-1981
ⲃⲉⲛⲓⲁⲙⲓⲛ	-1982
ϭⲟⲟ	-1983
ⲕⲱⲛ	-1984
ⲭⲉⲓ	-1985
ⲱϩⲥ	-1986
ϫⲓϫⲉ	-1987
▁ⲟⲩⲱ	-1988
ⲗⲏⲣⲟ	-1989
ⲡⲁϣⲉ	-1990
ⲥⲱⲧⲉ	-1991
ϣⲁⲛⲉⲓ	-1992
ⲕⲧⲟⲟⲩ	-1993
ⲣⲉϥϫⲓ	-1994
ⲟⲩⲁϩⲟⲩ	-1995
▁ⲉⲡϣⲁϫⲉ	-1996
▁ⲙⲛⲗⲁⲁⲩ	-1997
▁ⲛⲉⲥⲛⲏⲩ	-1998
▁ⲛⲛϣⲁϫⲉ	-1999
▁ⲁϥϩⲙⲟⲟⲥ	-2000
ⲣⲭⲓⲉⲣⲉⲩⲥ	-2001
ⲧⲁϣⲉⲟⲉⲓϣ	-2002
▁ϩⲓⲧⲙⲡⲛⲟⲩⲧⲉ	-2003
▁ⲡⲉϫⲉⲓⲏⲥⲟⲩⲥ	-2004
ⲕⲏⲓ	-2005
ϩⲱⲟⲩ	-2006
ϫⲡⲓⲟ	-2007
▁ϫⲉⲧ	-2008
▁ⲛϫⲓ	-2009
▁ⲧⲉⲩ	-2010
ⲓⲉⲣⲟ	-2011
ϫⲓⲛϫⲏ	-2012
▁ⲛⲁϩⲉ	-2013
▁ⲛⲥⲁⲡ	-2014
ⲅⲁⲗⲓⲗ	-2015
ⲅⲉⲙⲱⲛ	-2016
ⲡⲁϩⲧϥ	-2017
▁ⲛⲉⲛⲉϩ	-2018
▁ⲛⲟⲉⲓⲕ	-2019
ⲕⲁⲣⲓⲟⲥ	-2020
▁ϩⲙⲡⲙⲉϩ	-2021
▁ⲉⲡϩⲟⲟⲩ	-2022
▁ⲛⲁⲣⲭⲱⲛ	-2023
▁ⲉϥⲉϣⲱⲡⲉ	-2024
▁ⲛⲓⲟⲩⲇⲁⲓ	-2025
▁ⲙⲡⲕⲟⲥⲙⲟⲥ	-2026
ⲅⲣⲁⲙⲙⲁⲧⲉⲩⲥ	-2027
ⲍⲱ	-2028
ϭⲟⲣ	-2029
▁ⲁⲃ	-2030
ⲃⲃⲉ	-2031
ⲃⲏⲑ	-2032
ⲇⲁⲥ	-2033
ⲓⲙⲏ	-2034
ⲙⲏⲣ	-2035
ⲟⲡⲥ	-2036
ⲡⲉⲥ	-2037
ⲃⲟⲧⲉ	-2038
ⲛϩⲏⲧ	-2039
ⲟⲩⲉⲙ	-2040
ⲧⲁϩⲟ	-2041
ⲁⲓⲧⲉⲓ	-2042
ⲛⲁϩⲙⲉ	-2043
▁ϫⲉⲉϥⲉ	-2044
▁ϫⲉⲛⲛⲉ	-2045
▁ⲙⲟⲟϣⲉ	-2046
ⲑⲏⲣⲓⲟⲛ	-2047
ϫⲁⲥⲓϩⲏⲧ	-2048
ⲉⲣⲉⲙⲓⲁⲥ	-2049
ⲥⲁⲙⲟⲩⲏⲗ	-2050
ⲡⲁⲣⲁⲇⲓⲇⲟⲩ	-2051
ⲗⲙ	-2052
ϯⲡⲉ	-2053
▁ⲛⲓ	-2054
ⲥⲱⲕ	-2055
ⲭⲁⲗ	-2056
ⲱⲣϫ	-2057
▁ⲡⲱⲧ	-2058
▁ⲧⲟⲩ	-2059
ⲁⲧⲟⲩ	-2060
ⲣⲁⲧⲉ	-2061
ϣⲧⲉⲕⲟ	-2062
▁ⲉϫⲱⲥ	-2063
ⲅⲣⲁⲫⲏ	-2064
ⲗⲩⲡⲉⲓ	-2065
▁ⲉⲥⲱⲧⲙ	-2066
ⲑⲃⲃⲓⲏⲩ	-2067
▁ϣⲁⲣⲱⲧⲛ	-2068
▁ϩⲓⲧⲙⲡⲉ	-2069
▁ⲉⲡⲉϥⲏⲓ	-2070
▁ⲙⲛⲛϣⲏⲣⲉ	-2071
▁ϩⲓⲧⲟⲟⲧⲟⲩ	-2072
▁ⲛⲁⲃⲣⲁϩⲁⲙ	-2073
▁ⲙⲡⲉⲟⲩⲟⲉⲓϣ	-2074
▁ⲛⲧⲃⲁⲃⲩⲗⲱⲛ	-2075
ⲡⲥ	-2076
ϣⲃⲉ	-2077
ϣⲧⲣ	-2078
▁ϣⲉ	-2079
▁ⲁϫⲛ	-2080
▁ⲁⲓϯ	-2081
▁ⲁⲩⲥ	-2082
ⲇⲟⲩⲝ	-2083
ⲕⲣⲟϥ	-2084
ⲗⲩⲡⲏ	-2085
▁ϩⲱⲱⲛ	-2086
ⲓⲥⲁⲁⲕ	-2087
ⲙⲉⲗⲉⲭ	-2088
ⲛϣⲏⲣⲉ	-2089
ⲥⲕⲩⲛⲏ	-2090
ⲥⲟⲃⲧⲉ	-2091
ⲧⲁⲙⲓⲉ	-2092
ⲧⲉⲓⲣⲉ	-2093
▁ϣⲁⲣⲉⲡ	-2094
▁ⲙⲛⲧⲉⲕ	-2095
ⲇⲁⲓⲙⲱⲛ	-2096
▁ⲉⲛⲁϣⲱϥ	-2097
▁ⲧⲉⲧⲛⲛⲁ	-2098
▁ϫⲉⲁⲡϫⲟⲉⲓⲥ	-2099
ⲇⲟ	-2100
ϫⲡⲉ	-2101
ϯⲙⲉ	-2102
▁ϭⲱ	-2103
ⲕⲁⲛ	-2104
ⲣⲭⲟⲥ	-2105
ⲥⲱⲛⲉ	-2106
▁ⲙⲉⲣⲉ	-2107
ⲑⲉⲛⲟⲥ	-2108
ⲧⲁⲥⲥⲉ	-2109
▁ⲙⲛⲡⲉⲧ	-2110
ⲃⲁⲡⲧⲓⲥ	-2111
ⲟⲩⲟⲙⲟⲩ	-2112
ⲥⲟⲩⲧⲱⲛ	-2113
▁ⲉϫⲙⲡⲉϥ	-2114
▁ⲥⲛⲁϣⲱⲡⲉ	-2115
▁ⲉϫⲛⲧⲏⲩⲧⲛ	-2116
ϭⲁ	-2117
ⲅⲝ	-2118
ϣϫⲉ	-2119
ϭⲣⲟ	-2120
ⲥⲁⲓ	-2121
ⲧⲁⲕ	-2122
▁ϩⲛⲁ	-2123
ⲣⲁⲧⲕ	-2124
ⲥⲟⲧⲉ	-2125
ⲥⲱⲛⲧ	-2126
ⲭⲣⲏⲥ	-2127
▁ⲙⲙⲓⲛ	-2128
▁ⲙⲡⲣⲟ	-2129
▁ⲛϩⲁⲧ	-2130
▁ⲛϭⲓⲁ	-2131
ⲅⲁⲑⲟⲥ	-2132
ⲓⲙⲓⲛⲉ	-2133
ⲥϣⲱⲡⲉ	-2134
▁ϩⲛϩⲱⲃ	-2135
▁ϫⲉⲁⲛⲅ	-2136
▁ⲉⲓϣⲁⲛ	-2137
▁ⲛⲛⲉⲩⲉ	-2138
▁ⲛⲥⲁϣϥ	-2139
▁ⲥⲟⲟⲩⲛ	-2140
ⲧⲟⲩⲛⲟⲥ	-2141
ϩⲓⲧⲟⲩⲱϥ	-2142
▁ⲛⲙⲡⲏⲩⲉ	-2143
▁ⲛⲟⲩⲙⲛⲧ	-2144
▁ϩⲛⲛϩⲉⲑⲛⲟⲥ	-2145
▁ⲛⲧⲇⲓⲁⲑⲏⲕⲏ	-2146
▁ϩⲙⲡⲉⲭⲣⲓⲥⲧⲟⲥ	-2147
ⲃϣ	-2148
ⲃⲓⲱ	-2149
ⲍⲁⲣ	-2150
ⲙⲉⲕ	-2151
ⲟⲩⲣ	-2152
ⲥⲁⲩ	-2153
ϩⲉⲛⲉ	-2154
ϭⲟⲟⲩ	-2155
▁ϣⲁⲧ	-2156
▁ϩⲛⲡ	-2157
ⲃⲁⲱⲑ	-2158
ⲛⲟⲩⲥ	-2159
ⲛⲧⲁⲛ	-2160
ⲟⲩⲟⲛ	-2161
ϩⲟⲓⲛⲉ	-2162
▁ϫⲉϫⲓ	-2163
▁ⲛⲉⲩⲛ	-2164
▁ⲛⲣⲣⲟ	-2165
ⲙⲟⲉⲓⲧ	-2166
▁ϫⲉⲟⲩⲛ	-2167
▁ⲁϥⲡⲱⲧ	-2168
ⲇⲓⲁⲕⲟⲛ	-2169
ⲙⲟⲟⲩⲧϥ	-2170
ⲣⲭⲣⲉⲓⲁ	-2171
ⲁⲅⲅⲉⲗⲟⲥ	-2172
▁ϩⲓⲡⲁϩⲟⲩ	-2173
▁ⲙⲡⲉⲥⲛⲁⲩ	-2174
▁ⲉⲧⲉⲧⲛϣⲁⲛ	-2175
ⲇⲁⲓⲙⲱⲛⲓⲟⲛ	-2176
ⲡⲉⲭⲣⲓⲥⲧⲟⲥ	-2177
▁.........	-2178
▁ⲁⲧ	-2179
ⲇⲁⲛ	-2180
ⲏⲛⲉ	-2181
ϫⲱϩⲙ	-2182
▁ϣⲁⲛ	-2183
▁ⲁⲩⲁ	-2184
▁ⲉⲩⲛ	-2185
ⲙⲟⲩⲓ	-2186
ⲛⲧⲟϣ	-2187
ⲧⲁⲗⲟ	-2188
ⲃⲉⲛⲛⲏ	-2189
ⲙⲉⲣⲓⲥ	-2190
ⲡⲗⲁⲛⲁ	-2191
ϣϭⲙϭⲟⲙ	-2192
▁ⲉϣⲁⲣⲉ	-2193
▁ⲛⲙⲙⲁⲥ	-2194
▁ⲛⲥⲁⲧⲉ	-2195
ⲭⲣⲏⲥⲧⲟⲥ	-2196
▁ⲁⲩⲥⲱⲟⲩϩ	-2197
▁ϩⲙⲡⲉⲡⲛⲉⲩⲙⲁ	-2198
▁ⲡⲉϫⲉⲇⲁⲩⲉⲓⲇ	-2199
▁ⲛⲧϩⲓⲉⲣⲟⲩⲥⲁⲗⲏⲙ	-2200
ⲉⲙ	-2201
ⲡⲧ	-2202
▁ⲁϣ	-2203
ⲑⲁⲃ	-2204
ⲟⲗⲥ	-2205
ϣⲓⲣⲉ	-2206
▁ⲁⲉⲓ	-2207
▁ⲁⲛⲁ	-2208
ⲕⲉⲉⲥ	-2209
ⲕⲉⲙⲁ	-2210
ⲙⲉⲛⲏ	-2211
ⲙⲙⲟⲛ	-2212
▁ⲉⲓⲣⲉ	-2213
▁ⲉⲟⲟⲩ	-2214
▁ⲉⲡⲁⲓ	-2215
▁ⲉⲣⲉⲛ	-2216
▁ⲙⲟⲩϩ	-2217
▁ⲛϣⲏⲛ	-2218
▁ⲛⲅⲧⲙ	-2219
▁ⲛⲧⲁⲡ	-2220
▁ⲣⲱⲙⲉ	-2221
ⲫⲁⲛⲟⲥ	-2222
ϩⲧⲟⲟⲩⲉ	-2223
▁ⲉϥⲛⲏⲩ	-2224
▁ⲉⲡⲙⲟⲩ	-2225
▁ⲛⲉⲓⲱⲧ	-2226
▁ⲟⲩⲛⲟⲩ	-2227
▁ϩⲛⲧϭⲓϫ	-2228
▁ⲉⲧⲃⲉϫⲉ	-2229
▁ⲛⲁⲥⲛⲏⲩ	-2230
▁ⲛⲧⲉⲧⲛⲁ	-2231
▁ⲧϣⲉⲉⲣⲉ	-2232
ⲡⲓⲕⲁⲗⲉⲓ	-2233
▁ⲛϭⲓⲡⲣⲣⲟ	-2234
▁ⲛⲟⲩϣⲏⲣⲉ	-2235
▁ϫⲓⲛⲛϣⲟⲣⲡ	-2236
ⲙⲛⲧⲥⲛⲟⲟⲩⲥ	-2237
▁ⲡⲡⲁⲛⲧⲟⲕⲣⲁⲧⲱⲣ	-2238
ϩⲟⲧ	-2239
ⲕⲟⲓ	-2240
ⲛⲛⲁ	-2241
ϣⲧⲏⲛ	-2242
▁ⲉϫⲉ	-2243
▁ⲕⲁⲛ	-2244
▁ⲛⲅⲉ	-2245
ⲕⲁⲁⲥ	-2246
ⲙⲟⲩⲛ	-2247
ⲧⲱϭⲉ	-2248
ϩⲟⲟⲩⲧ	-2249
▁ϫⲉⲉⲕ	-2250
▁ⲁⲓϫⲓ	-2251
ⲗⲁⲧⲟⲥ	-2252
ⲛⲟⲩⲱⲙ	-2253
ⲣⲡⲱⲃϣ	-2254
ⲥⲕⲏⲛⲏ	-2255
▁ⲉⲉⲓⲣⲉ	-2256
▁ⲙⲡⲉⲧⲉ	-2257
▁ⲛϩⲏⲧⲕ	-2258
▁ⲛⲅⲃⲱⲕ	-2259
▁ⲛⲛⲉⲧⲉ	-2260
ⲃⲉⲛⲛⲏⲣ	-2261
ⲡⲓⲥⲧⲟⲥ	-2262
ⲣϣⲡⲏⲣⲉ	-2263
ⲯⲁⲗⲙⲟⲥ	-2264
▁ⲁϥϫⲟⲟⲥ	-2265
▁ⲁⲓⲥⲱⲧⲙ	-2266
▁ⲉⲩⲣⲱⲙⲉ	-2267
▁ⲛⲉⲥⲟⲟⲩ	-2268
▁ⲡⲉⲧⲉⲣⲉ	-2269
ⲡⲓⲑⲩⲙⲓⲁ	-2270
▁ⲉⲧⲉⲧⲛⲛⲁ	-2271
▁ⲛⲧⲉϥϭⲓϫ	-2272
ⲡⲁⲣⲁⲃⲟⲗⲏ	-2273
▁ϩⲛⲧⲡⲟⲗⲓⲥ	-2274
▁ⲉⲓⲥϩⲏⲏⲧⲉ	-2275
▁ⲛⲁⲅⲅⲉⲗⲟⲥ	-2276
▁ⲛⲧⲙⲛⲧⲣⲣⲟ	-2277
▁ϩⲛⲛⲉⲧⲙⲟⲟⲩⲧ	-2278
ⲕⲣ	-2279
ⲃⲏⲛ	-2280
ⲅⲓⲁ	-2281
ϣⲁⲁⲣ	-2282
▁ϣⲁⲓ	-2283
ⲁⲣⲉϩ	-2284
ⲗⲓⲃⲁ	-2285
ⲡⲏⲅⲏ	-2286
ⲣⲓⲭⲱ	-2287
ⲧⲁⲗⲉ	-2288
▁ϣⲓⲡⲉ	-2289
▁ⲁϥϩⲉ	-2290
▁ⲉⲧⲏⲡ	-2291
▁ⲉⲩⲙⲁ	-2292
▁ⲛⲛⲓⲙ	-2293
▁ⲡⲣⲁⲛ	-2294
ⲣⲓⲥⲓⲥ	-2295
▁ϩⲟⲧⲁⲛ	-2296
▁ⲕⲁⲗⲱⲥ	-2297
▁ⲙⲙⲱⲁⲃ	-2298
▁ⲛⲉⲃⲟⲧ	-2299
▁ⲛⲥⲁⲟⲩ	-2300
▁ⲡⲉⲟⲟⲩ	-2301
▁ⲉⲧϩⲟⲟⲩ	-2302
▁ⲙⲛⲡⲕⲁϩ	-2303
▁ⲙⲡⲁⲙⲧⲟ	-2304
▁ⲙⲡⲧⲟⲟⲩ	-2305
▁ⲛⲁⲁⲣⲱⲛ	-2306
▁ⲛⲁⲙⲙⲱⲛ	-2307
▁ⲛⲟⲩⲛⲁⲙ	-2308
▁ⲛⲣⲟⲩϩⲉ	-2309
▁ⲡⲉⲧⲣⲟⲥ	-2310
▁ⲁϥⲙⲟⲟϣⲉ	-2311
▁ⲛⲉⲫⲣⲁⲓⲙ	-2312
▁ⲛⲧⲁⲯⲩⲭⲏ	-2313
ⲅⲁⲗⲓⲗⲁⲓⲁ	-2314
ⲙⲟⲣⲣⲁⲓⲟⲥ	-2315
▁ϩⲙⲡϫⲟⲉⲓⲥ	-2316
▁ⲙⲡⲉϥⲗⲁⲟⲥ	-2317
ⲗⲏⲣⲟⲛⲟⲙⲉⲓ	-2318
▁ⲁϥⲡⲁⲧⲁⲥⲥⲉⲓ	-2319
▁ⲡⲉⲡⲣⲟⲫⲏⲧⲏⲥ	-2320
ϫϩ	-2321
ϩⲟⲥ	-2322
ⲅⲙⲁ	-2323
ⲗⲁϩ	-2324
ϣϭⲟⲙ	-2325
ϩⲃⲥⲱ	-2326
▁ϩⲏⲧ	-2327
▁ϫⲉⲕ	-2328
ⲛⲟⲩⲛ	-2329
ⲡⲁⲍⲉ	-2330
ⲥⲃⲃⲉ	-2331
▁ϫⲉⲉϥ	-2332
▁ⲉⲓⲧⲉ	-2333
▁ⲉⲙⲡⲉ	-2334
▁ⲙⲡⲓⲥ	-2335
▁ⲙⲡⲣϯ	-2336
▁ⲛⲙⲟⲩ	-2337
▁ⲛⲛⲁⲩ	-2338
ⲟⲓⲕⲟⲩ	-2339
ⲧⲁⲥⲓⲥ	-2340
▁ϩⲙⲡⲁⲓ	-2341
▁ϫⲉⲉⲓⲉ	-2342
▁ⲉⲧϩⲛⲧ	-2343
▁ⲉⲧⲟⲛϩ	-2344
▁ⲙⲙⲏⲛⲉ	-2345
▁ⲙⲟⲩⲧⲉ	-2346
▁ⲙⲡⲙⲉϩ	-2347
▁ⲛⲥⲁⲃⲉ	-2348
▁ⲛⲧⲉⲧⲙ	-2349
ⲯⲁⲗⲗⲉⲓ	-2350
▁ⲁϥⲉⲓⲛⲉ	-2351
▁ⲁⲩⲟⲩⲱⲙ	-2352
▁ⲥⲁⲃⲁⲱⲑ	-2353
▁ⲡⲉϥϣⲏⲣⲉ	-2354
▁ⲙⲡⲟⲛⲏⲣⲟⲛ	-2355
▁ⲛⲧⲉⲓⲙⲓⲛⲉ	-2356
ϩⲕ	-2357
▁ϭ	-2358
ⲱⲡ	-2359
ⲅⲓⲥ	-2360
ⲕⲁⲩ	-2361
ⲧⲓⲁ	-2362
ϩⲁⲗⲁ	-2363
▁ⲉⲧⲱ	-2364
▁ⲛⲙⲛ	-2365
▁ⲧⲡⲉ	-2366
ⲙϩⲓⲧ	-2367
ⲥⲓⲟⲩ	-2368
ⲥⲓⲱⲛ	-2369
ⲧⲛⲟϭ	-2370
▁ⲕⲟⲩⲓ	-2371
ϩⲟⲉⲓⲧⲉ	-2372
▁ⲙⲛⲛⲉⲕ	-2373
▁ⲛϫⲁⲓⲉ	-2374
▁ⲛⲉⲧⲟⲩ	-2375
ⲗⲓⲃⲁⲛⲟⲥ	-2376
▁ϫⲉⲧⲱⲟⲩⲛ	-2377
▁ⲉⲧⲛⲙⲙⲁϥ	-2378
▁ⲛⲉⲧⲟⲩⲏϩ	-2379
▁ⲡⲁϫⲟⲉⲓⲥ	-2380
ⲙⲛⲧⲣⲙⲙⲁⲟ	-2381
ⲟⲓⲕⲟⲩⲙⲉⲛⲏ	-2382
▁ⲛⲧⲁⲡⲛⲟⲩⲧⲉ	-2383
▁ⲉⲙ	-2384
ⲕⲁⲥ	-2385
ⲗⲟⲓ	-2386
ⲛⲁϩ	-2387
ⲣⲁϣ	-2388
ⲣⲉⲕ	-2389
ⲥⲟϭ	-2390
ⲫⲑⲁ	-2391
ϫⲓⲧⲥ	-2392
ϭⲃⲟⲓ	-2393
ⲉⲓⲟⲩ	-2394
ⲓⲕⲟⲛ	-2395
ⲗⲡⲓⲥ	-2396
ⲡⲱϩⲧ	-2397
ⲥⲁϩⲱ	-2398
ⲧⲉⲓⲁ	-2399
ϣⲟⲙⲧⲉ	-2400
ϩⲓⲟⲩⲉ	-2401
▁ϩⲁⲧⲛ	-2402
▁ⲁϫⲓⲥ	-2403
▁ⲉⲕϫⲱ	-2404
▁ⲙⲁⲩⲁ	-2405
▁ⲛϭⲓϫ	-2406
▁ⲛⲁϫⲓ	-2407
▁ⲛⲛⲟϭ	-2408
ⲧⲉⲩϣⲏ	-2409
▁ϫⲉⲉⲩⲉ	-2410
▁ⲉⲡⲣⲁⲛ	-2411
▁ⲛϩⲏⲧⲛ	-2412
ⲁⲛⲟⲙⲓⲁ	-2413
ϩⲉⲗⲡⲓⲍⲉ	-2414
▁ⲁϥⲉⲓⲣⲉ	-2415
▁ⲉⲡⲉϥⲙⲁ	-2416
▁ⲛⲟⲩⲏⲏⲃ	-2417
▁ⲁⲓⲏⲥⲟⲩⲥ	-2418
▁ⲙⲛⲁⲁⲣⲱⲛ	-2419
▁ⲙⲡⲛⲉⲩⲙⲁ	-2420
▁ⲙⲙⲁⲛⲁⲥⲥⲏ	-2421
ⲛⲱ	-2422
ⲇⲱⲛ	-2423
ⲡⲉⲛ	-2424
ⲣⲱϩ	-2425
ⲧⲏϥ	-2426
ϫⲡⲟϥ	-2427
ϭⲗⲟϭ	-2428
▁ⲙⲡⲕ	-2429
▁ⲡⲓⲥ	-2430
ⲏⲏϣⲉ	-2431
ⲏⲥⲓⲥ	-2432
ⲙⲛⲧϥ	-2433
ⲟⲓⲗⲉ	-2434
ⲟⲓⲛⲉ	-2435
ⲣⲱⲕϩ	-2436
ϥⲧⲟⲟⲩ	-2437
ϩⲁⲣⲙⲁ	-2438
ϩⲛⲁⲁⲩ	-2439
▁ⲉⲧⲉⲩ	-2440
▁ⲛⲁⲉⲓ	-2441
ⲕⲁⲛⲇⲁ	-2442
ⲟⲩⲟⲛϩ	-2443
ϫⲓϣⲓⲡⲉ	-2444
▁ⲉⲗⲁⲁⲩ	-2445
▁ⲛϩⲣⲟⲩ	-2446
▁ⲛϭⲓⲓⲱ	-2447
▁ⲡⲉϫⲉⲡ	-2448
ⲥⲩⲣⲓⲟⲥ	-2449
▁ϩⲛⲟⲩⲙⲉ	-2450
▁ⲁⲩⲥⲱⲧⲙ	-2451
▁ⲉϥϩⲟⲟⲩ	-2452
▁ⲛϭⲓϩⲉⲛ	-2453
▁ϫⲉⲛⲧⲱⲧⲛ	-2454
▁ϩⲙⲡⲉϥϩⲏⲧ	-2455
▁ϩⲛⲧⲡⲓⲥⲧⲓⲥ	-2456
▁ⲁϥⲁϩⲉⲣⲁⲧϥ	-2457
▁ⲙⲛⲛⲉⲩⲉⲣⲏⲩ	-2458
ⲑⲓ	-2459
ⲑⲙ	-2460
▁ⲥⲟ	-2461
ⲇⲁⲃ	-2462
ⲉⲓⲙ	-2463
ⲛⲉⲛ	-2464
ⲣⲙⲡ	-2465
ϥⲱⲧⲉ	-2466
ϩⲏⲃⲉ	-2467
ϩⲓⲏⲙ	-2468
▁ⲉⲩⲥ	-2469
▁ⲛⲧⲟ	-2470
ⲕⲉⲩⲏ	-2471
▁ⲁⲥⲉⲓ	-2472
▁ⲉⲩϫⲓ	-2473
ⲧⲉⲧⲛⲁ	-2474
▁ⲉϫⲱⲧⲛ	-2475
▁ⲉⲧⲉⲙⲡ	-2476
▁ⲉⲧⲥⲏϩ	-2477
▁ⲛϭⲓⲡⲁ	-2478
▁ⲉⲧⲟⲟⲧⲛ	-2479
▁ⲛⲅϫⲟⲟⲥ	-2480
▁ⲛⲧⲥⲱϣⲉ	-2481
▁ⲡⲉϩⲟⲟⲩ	-2482
▁ⲡⲟⲩⲏⲏⲃ	-2483
▁ⲛⲧϣⲉⲉⲣⲉ	-2484
▁ϩⲛⲟⲩⲥⲁⲧⲉ	-2485
▁ⲛⲛⲉⲓϣⲁϫⲉ	-2486
▁ⲛⲟⲩⲥϩⲓⲙⲉ	-2487
▁ⲛⲧⲉϥⲯⲩⲭⲏ	-2488
▁ⲥⲉⲛⲁϣⲱⲡⲉ	-2489
▁ⲉⲣⲉⲡϫⲟⲉⲓⲥ	-2490
▁ⲛⲛⲇⲓⲕⲁⲓⲟⲥ	-2491
ϥⲱ	-2492
ⲣⲕ	-2493
ⲁⲩⲱ	-2494
ⲏⲟⲩ	-2495
ⲗⲏⲕ	-2496
ⲙϩⲁ	-2497
ⲭⲉⲃ	-2498
ϩⲩⲗⲏ	-2499
ϫⲛⲟⲩ	-2500
ϭⲗⲓⲗ	-2501
▁ⲁϥⲁ	-2502
ⲁⲣⲛⲁ	-2503
ⲛⲉⲩⲉ	-2504
ⲟⲟⲧⲉ	-2505
ⲥⲟⲩⲟ	-2506
▁ⲉϩⲣⲁ	-2507
▁ⲛϫⲓⲛ	-2508
▁ⲛⲱⲛⲉ	-2509
ⲟⲩⲥⲏⲥ	-2510
ⲟⲩⲧⲱⲛ	-2511
▁ⲉⲧϩⲙⲡ	-2512
▁ⲉⲧⲃⲉⲧ	-2513
▁ⲡⲁⲥⲟⲛ	-2514
ⲑⲩⲣⲓⲟⲛ	-2515
▁ϫⲉⲥⲉⲛⲁ	-2516
▁ⲉⲧⲉⲡⲁⲓ	-2517
▁ⲡϩⲙϩⲁⲗ	-2518
ⲡⲉⲓⲣⲁⲍⲉ	-2519
▁ⲉϥⲙⲟⲟϣⲉ	-2520
▁ϩⲙⲡⲉⲩϩⲏⲧ	-2521
▁ϫⲉⲡⲛⲟⲩⲧⲉ	-2522
▁ⲓⲱϩⲁⲛⲛⲏⲥ	-2523
▁ⲡⲉⲕϩⲙϩⲁⲗ	-2524
ⲭⲁⲛⲁⲛⲁⲓⲟⲥ	-2525
▁ⲛⲧⲉⲣⲉϥⲛⲁⲩ	-2526
ϫⲃ	-2527
ϣⲱϥ	-2528
ϥⲁⲓ	-2529
ⲃⲁⲥ	-2530
ⲅⲱⲛ	-2531
ⲉⲓⲉ	-2532
ⲕⲁⲡ	-2533
ϣⲟⲩⲱ	-2534
▁ⲙⲙⲟ	-2535
ⲛⲁϩⲃ	-2536
ⲛⲧⲁⲥ	-2537
ⲡⲱⲣϣ	-2538
ϣⲁϩⲟⲙ	-2539
▁ⲓⲱⲁⲃ	-2540
▁ⲙⲡⲣⲣ	-2541
▁ⲛⲥⲟⲩ	-2542
▁ⲛⲧⲟⲩ	-2543
ⲛⲟⲩⲱϣ	-2544
ⲛⲧⲟⲟⲩ	-2545
▁ϣⲁⲃⲟⲗ	-2546
▁ⲉⲧϥⲛⲁ	-2547
▁ⲓⲁⲕⲱⲃ	-2548
▁ⲛⲕⲱϩⲧ	-2549
▁ⲧⲉϩⲓⲏ	-2550
ⲱⲟⲩⲥⲏⲥ	-2551
▁ϣⲁⲛⲧⲟⲩ	-2552
▁ⲉⲛϣⲁϫⲉ	-2553
▁ⲉⲧⲉϩⲓⲏ	-2554
ⲗⲉⲩⲓⲧⲏⲥ	-2555
▁ⲛⲟⲩⲙⲟⲟⲩ	-2556
ⲃⲁⲡⲧⲓⲥⲙⲁ	-2557
▁ϩⲉⲛⲕⲟⲟⲩⲉ	-2558
ⲁⲣⲭⲓⲉⲣⲉⲩⲥ	-2559
▁ⲛⲃⲉⲛⲓⲁⲙⲓⲛ	-2560
ⲓⲟ	-2561
▁ⲡⲱ	-2562
ⲅⲁⲣ	-2563
ⲟⲣⲧ	-2564
ⲡⲓⲣ	-2565
ⲧⲱⲕ	-2566
▁ⲁⲡⲉ	-2567
ⲁⲓⲁⲥ	-2568
ⲃⲏⲩⲉ	-2569
ⲗⲩⲅⲏ	-2570
ϣⲁϥⲧⲉ	-2571
▁ⲁϥϫⲱ	-2572
▁ⲉⲓϫⲱ	-2573
▁ⲉⲛⲥⲉ	-2574
▁ⲛⲥⲙⲏ	-2575
ⲙⲛⲧⲟⲩ	-2576
ⲥⲁϣϥⲉ	-2577
ⲧⲱⲙⲛⲧ	-2578
▁ϣⲁⲣⲟⲕ	-2579
▁ϩⲟⲓⲛⲉ	-2580
▁ⲁϥϩⲱⲛ	-2581
▁ⲙⲡⲟⲩⲁ	-2582
▁ⲙⲡⲟⲩⲥ	-2583
▁ⲛⲥⲁⲡⲉ	-2584
ⲧⲁⲛⲟⲉⲓ	-2585
ⲧⲟⲩϫⲟⲓ	-2586
▁ϩⲙⲡⲣⲁⲛ	-2587
▁ⲁⲩⲉⲓⲛⲉ	-2588
▁ⲉⲣⲉⲛⲉϥ	-2589
▁ⲉⲣⲉⲡⲉϥ	-2590
ⲡⲉϥⲉⲓⲱⲧ	-2591
ϩⲩⲡⲟⲙⲟⲛⲏ	-2592
▁ϣⲁⲉϩⲣⲁⲓ	-2593
▁ϩⲙⲡⲧⲣⲉϥ	-2594
▁ⲉⲡϫⲓⲛϫⲏ	-2595
▁ⲛⲟⲩϣⲁϫⲉ	-2596
▁ⲙⲡⲉϥϣⲏⲣⲉ	-2597
▁ⲛⲛⲉϩⲃⲏⲩⲉ	-2598
ⲡⲣⲟⲫⲏⲧⲉⲩⲉ	-2599
▁ⲛⲛⲉϥϩⲙϩⲁⲗ	-2600
▁ϩⲓⲧⲙⲡϫⲟⲉⲓⲥ	-2601
ⲅⲓ	-2602
ⲗϩ	-2603
ⲗⲥ	-2604
ϣⲁϩ	-2605
▁ⲓⲉ	-2606
ⲑⲟⲥ	-2607
ⲕⲃⲁ	-2608
ⲛⲁⲣ	-2609
ⲣⲁϩ	-2610
ⲣⲟϣ	-2611
ϣⲓⲃⲉ	-2612
ϩⲏⲛⲉ	-2613
▁ⲁⲁⲩ	-2614
▁ⲁⲙⲏ	-2615
▁ⲁⲣⲁ	-2616
▁ⲛⲃⲁ	-2617
ⲇⲩⲛⲁ	-2618
ⲥⲧⲣⲁ	-2619
▁ⲉⲡⲉⲧ	-2620
ⲇⲏⲙⲟⲥ	-2621
ⲑⲓⲥⲧⲁ	-2622
ⲙⲁⲗⲏⲕ	-2623
ⲣⲁⲥⲟⲩ	-2624
ⲥⲉⲡⲥⲱ	-2625
ϣⲡϩⲙⲟⲧ	-2626
▁ϫⲉϩⲉⲛ	-2627
▁ϫⲉⲡⲉⲧ	-2628
▁ⲛⲉⲩϫⲱ	-2629
ⲭⲉⲃⲣⲱⲛ	-2630
▁ϫⲉⲧⲉⲧⲛ	-2631
▁ⲉⲧⲟⲩⲏϩ	-2632
▁ϩⲓⲧⲉϩⲓⲏ	-2633
▁ⲁϥⲡⲁϩⲧϥ	-2634
▁ⲕⲁⲧⲁⲛⲉⲩ	-2635
▁ⲙⲛⲛⲕⲉⲙⲁ	-2636
▁ⲡⲉⲧϣⲟⲟⲡ	-2637
ⲭⲁⲗⲇⲁⲓⲟⲥ	-2638
▁ⲉⲡⲉϩⲣⲟⲟⲩ	-2639
▁ϩⲛⲧⲉⲣⲏⲙⲟⲥ	-2640
▁ⲛⲛⲣⲙⲛⲕⲏⲙⲉ	-2641
▁ⲛⲧⲉⲡϫⲟⲉⲓⲥ	-2642
ⲩⲣ	-2643
ϫⲏⲕ	-2644
▁ⲡⲓ	-2645
ⲁⲕⲉ	-2646
ⲏⲡⲉ	-2647
ⲗⲟⲙ	-2648
ⲧⲉⲥ	-2649
ⲫⲟⲣ	-2650
ϭⲓⲛⲉ	-2651
▁ⲁⲓⲣ	-2652
▁ⲉϥϩ	-2653
▁ⲉⲁⲥ	-2654
▁ⲉⲧϥ	-2655
▁ⲧⲉⲓ	-2656
ⲙⲓⲥⲉ	-2657
ⲟⲩⲧⲛ	-2658
ⲡⲉⲍⲁ	-2659
ⲧⲱⲙⲁ	-2660
▁ϥⲛⲏⲩ	-2661
▁ϫⲉⲉⲩ	-2662
▁ⲛⲃⲁⲗ	-2663
▁ⲛⲟⲩⲥ	-2664
ⲕⲉⲟⲩⲁ	-2665
ⲟⲩⲛⲟⲩ	-2666
ⲡⲁϩⲣⲉ	-2667
ⲣⲙⲣⲁϣ	-2668
▁ϣⲁⲛⲧϥ	-2669
▁ⲉⲙⲓϣⲉ	-2670
▁ⲛⲛⲟⲃⲉ	-2671
▁ⲛⲧϭⲟⲙ	-2672
▁ⲡⲉⲧⲉⲛ	-2673
▁ⲡⲉⲧⲟⲩ	-2674
ⲓⲟⲩⲇⲁⲥ	-2675
ⲙⲡⲟⲗⲓⲥ	-2676
▁ⲁϥⲕⲧⲟϥ	-2677
▁ⲁⲩⲉⲓⲣⲉ	-2678
▁ⲛϣⲟⲙⲛⲧ	-2679
▁ⲛⲛⲉⲧⲛⲁ	-2680
▁ⲡⲛⲟⲙⲟⲥ	-2681
ⲇⲩⲛⲁⲧⲟⲥ	-2682
▁ⲉϩⲧⲟⲟⲩⲉ	-2683
▁ⲙⲡⲉⲕⲉⲓⲱⲧ	-2684
▁ⲧϩⲁⲗⲁⲥⲥⲁ	-2685
ⲃⲛⲏ	-2686
ⲇⲟⲥ	-2687
ⲛⲧⲥ	-2688
ⲟⲡϥ	-2689
ⲱϩⲉ	-2690
ϣⲁⲁⲧ	-2691
ϩⲉⲛⲁ	-2692
ϩⲱⲃⲥ	-2693
▁ⲉⲕⲁ	-2694
▁ⲛϥϯ	-2695
ⲃⲗⲗⲉ	-2696
ⲟⲛⲧⲉ	-2697
ⲡⲓⲅⲝ	-2698
ϫⲛⲟⲩϥ	-2699
▁ϩⲛⲅⲁ	-2700
▁ϫⲉⲧⲁ	-2701
▁ϫⲓⲛⲉ	-2702
▁ⲉⲛⲉⲓ	-2703
▁ⲛⲅⲛⲁ	-2704
▁ⲛⲱⲛϩ	-2705
▁ⲟⲩⲙⲉ	-2706
▁ⲡⲃⲟⲗ	-2707
ⲙⲛⲧⲁⲧ	-2708
ⲛⲁϩⲧⲉ	-2709
ⲧⲁⲙⲟⲓ	-2710
▁ⲁⲩⲙⲟⲩ	-2711
▁ⲉϫⲛⲧⲁ	-2712
▁ⲉⲣⲁⲧⲥ	-2713
▁ⲛⲛⲟⲩϫ	-2714
▁ⲡⲉϥⲛⲁ	-2715
▁ⲛⲁⲓⲁⲧϥ	-2716
▁ⲛⲁⲧϩⲏⲧ	-2717
▁ⲛⲓⲱⲥⲏⲫ	-2718
▁ⲛⲛⲟⲩⲧⲉ	-2719
▁ⲛⲧⲉϩⲓⲏ	-2720
ⲃⲁⲃⲩⲗⲱⲛ	-2721
ⲧⲉⲥϩⲓⲙⲉ	-2722
▁ⲡⲟⲩⲟⲉⲓⲛ	-2723
ⲛⲧⲃⲛⲟⲟⲩⲉ	-2724
▁ϩⲙⲡⲛⲟⲙⲟⲥ	-2725
▁ⲙⲡⲉϥⲣⲁⲥⲧⲉ	-2726
ⲟⲇ	-2727
ϣⲏⲓ	-2728
▁ⲗⲟ	-2729
ⲁⲛⲉ	-2730
ⲑⲁⲓ	-2731
ⲗⲓⲡ	-2732
ⲗⲓⲥ	-2733
ⲙⲙⲉ	-2734
ⲙⲡⲁ	-2735
ⲣⲱⲓ	-2736
ⲧⲟϭ	-2737
ϩⲣⲁϥ	-2738
▁ⲁⲛⲉ	-2739
ⲗⲉⲉⲙ	-2740
ⲣⲉϥϯ	-2741
ⲣⲣⲣⲟ	-2742
ⲥⲟⲩⲛ	-2743
ⲭⲟⲩⲥ	-2744
ϩⲟⲙⲛⲧ	-2745
ϫⲓⲟⲟⲣ	-2746
ϭⲟⲓⲗⲉ	-2747
ϭⲟⲟⲗⲉ	-2748
▁ⲁϥϭⲱ	-2749
▁ⲙⲙⲟⲩ	-2750
▁ⲛⲉⲩⲥ	-2751
ⲓⲙⲏⲧⲓ	-2752
ⲫⲓⲗⲓⲡ	-2753
▁ϩⲛⲛⲁⲓ	-2754
▁ϩⲛⲟⲩⲁ	-2755
▁ϯϩⲧⲏⲕ	-2756
▁ⲁϥϫⲡⲟ	-2757
▁ⲛⲧⲉⲣⲓ	-2758
ⲇⲟⲕⲓⲙⲁ	-2759
▁ϩⲁⲣⲟⲟⲩ	-2760
▁ϩⲛⲟⲩⲙⲁ	-2761
▁ϫⲉⲙⲁⲣⲉ	-2762
▁ϫⲉⲛⲧⲟϥ	-2763
▁ⲁϥⲟⲩⲱϩ	-2764
ⲕⲉⲛⲧⲟⲗⲏ	-2765
ⲛⲏⲥⲧⲉⲩⲉ	-2766
ⲟⲓⲃⲱⲧⲟⲥ	-2767
ⲡⲟⲧⲁⲥⲥⲉ	-2768
▁ⲙⲡⲉⲕⲣⲁⲛ	-2769
▁ⲛⲟⲩⲕⲟⲩⲓ	-2770
▁ⲉⲧⲛⲁϣⲱⲡⲉ	-2771
▁ⲛⲛⲉⲩⲉⲣⲏⲩ	-2772
▁ⲡⲉϫⲉⲥⲁⲟⲩⲗ	-2773
▁ϩⲙⲡⲉⲟⲩⲟⲉⲓϣ	-2774
▁ⲁⲩⲁϩⲉⲣⲁⲧⲟⲩ	-2775
▁ⲁϥⲟⲩⲉϩⲥⲁϩⲛⲉ	-2776
ⲃⲣ	-2777
ⲣⲩ	-2778
ϩⲟⲓ	-2779
ϫⲱϥ	-2780
▁ϣⲟ	-2781
ⲇⲁⲙ	-2782
ⲕⲉⲇ	-2783
ⲣⲁⲥ	-2784
ⲥⲁⲙ	-2785
ⲧⲁⲡ	-2786
ⲱⲙⲉ	-2787
ϩⲣⲟⲕ	-2788
▁ⲁϥⲉ	-2789
▁ⲉϥϯ	-2790
▁ⲥⲟⲧ	-2791
ⲃⲧⲱⲧ	-2792
ⲓⲙⲟⲩ	-2793
ⲡⲟⲩⲁ	-2794
ⲣⲙϩⲉ	-2795
ϥⲟⲧⲟⲩ	-2796
▁ϩⲙⲙⲁ	-2797
▁ϫⲓⲥⲉ	-2798
▁ⲉϩⲱⲃ	-2799
▁ⲛⲧⲁⲛ	-2800
▁ⲡⲙⲉϩ	-2801
▁ⲡⲛⲟϭ	-2802
ⲇⲓϩⲁⲙ	-2803
ⲙⲁⲣⲓⲁ	-2804
ⲛⲟⲩⲛⲉ	-2805
ⲡⲁⲥⲭⲁ	-2806
ⲧⲁⲗϭⲟ	-2807
ϩⲁⲗⲁⲧⲉ	-2808
▁ⲉⲣⲉⲡⲁ	-2809
▁ⲛⲅⲛⲁⲩ	-2810
▁ⲛⲉⲛⲧⲁ	-2811
ⲃⲁⲁⲙⲡⲉ	-2812
ⲏⲥⲁⲓⲁⲥ	-2813
ⲙⲛⲧⲛⲟϭ	-2814
▁ⲛϥϣⲱⲡⲉ	-2815
▁ⲛϫⲱⲱⲣⲉ	-2816
ⲁⲃⲣⲁϩⲁⲙ	-2817
ⲃⲏⲑⲗⲉⲉⲙ	-2818
ⲙⲟⲟⲩⲧⲟⲩ	-2819
ⲣⲟⲩⲟⲉⲓⲛ	-2820
ⲧⲉⲓⲣⲏⲛⲏ	-2821
▁ϩⲙⲡⲉⲓⲙⲁ	-2822
▁ⲉⲩⲫⲣⲁⲛⲉ	-2823
ⲇⲟⲕⲓⲙⲁⲍⲉ	-2824
▁ϩⲙⲡⲛⲟⲩⲧⲉ	-2825
▁ⲙⲡⲉϥⲥⲱⲙⲁ	-2826
▁ⲛⲟⲩⲙⲏⲏϣⲉ	-2827
▁ⲛⲧⲉⲥⲕⲏⲛⲏ	-2828
▁ⲛⲁⲗⲗⲟⲫⲩⲗⲟⲥ	-2829
ϩⲁⲉ	-2830
▁ⲥⲱ	-2831
ⲏⲃⲉ	-2832
ⲕⲁⲓ	-2833
ⲣⲟⲧ	-2834
ⲱⲥⲕ	-2835
▁ϣϣⲉ	-2836
▁ϩⲓⲥ	-2837
▁ϭⲟⲙ	-2838
▁ⲱϫⲛ	-2839
ⲙⲁⲕϩ	-2840
ⲟⲩϣⲏ	-2841
ⲧⲉⲣⲉ	-2842
ϫⲟⲉⲓⲧ	-2843
▁ϩⲟⲟⲩ	-2844
▁ⲉⲛⲛⲁ	-2845
▁ⲉⲣⲉⲧ	-2846
▁ⲙⲛⲓⲱ	-2847
▁ⲙⲡⲉⲣ	-2848
▁ⲛϭⲟⲙ	-2849
▁ⲛⲛⲁⲥ	-2850
ⲛⲣⲱⲙⲉ	-2851
ⲥⲟⲩⲱⲛ	-2852
▁ϩⲁⲣⲟⲥ	-2853
▁ϩⲓⲧⲛⲧ	-2854
▁ϫⲉⲉⲕⲉ	-2855
▁ⲉϫⲙⲡⲁ	-2856
▁ⲙⲉⲉⲩⲉ	-2857
▁ⲛⲟⲩⲙⲁ	-2858
▁ⲡⲧⲟⲟⲩ	-2859
ⲟⲩⲛⲧⲁϥ	-2860
ⲭⲟⲣⲧⲟⲥ	-2861
▁ϩⲁⲣⲱⲧⲛ	-2862
▁ⲉϥϣⲁϫⲉ	-2863
▁ⲉϫⲛⲧⲉϥ	-2864
▁ⲉⲓⲙⲏⲧⲓ	-2865
▁ⲧⲁⲯⲩⲭⲏ	-2866
ⲃⲁⲓϣⲓⲛⲉ	-2867
ⲧⲃⲛⲟⲟⲩⲉ	-2868
▁ⲓⲱⲛⲁⲑⲁⲛ	-2869
▁ⲛϩⲧⲟⲟⲩⲉ	-2870
▁ⲛⲅⲁⲗⲁⲁⲇ	-2871
ⲙⲉⲧⲁⲛⲟⲉⲓ	-2872
ⲫⲓⲗⲓⲡⲡⲟⲥ	-2873
▁ϩⲙⲡⲉⲕϩⲏⲧ	-2874
▁ⲉⲡⲡⲟⲗⲉⲙⲟⲥ	-2875
▁ⲉϫⲙⲡⲓⲥⲣⲁⲏⲗ	-2876
ϫⲙ	-2877
▁ⲃⲁ	-2878
▁ⲏⲉ	-2879
▁ⲱϣ	-2880
ⲓⲧⲛ	-2881
ⲙⲓⲟ	-2882
ⲛⲁⲕ	-2883
ⲣⲧⲩ	-2884
▁ⲡⲣⲟ	-2885
ⲃⲟⲩⲥ	-2886
ⲃⲱⲱⲛ	-2887
ⲕⲟⲧⲥ	-2888
ⲙⲟⲕϩ	-2889
ⲣⲙⲣⲙ	-2890
ⲥⲱⲟⲩ	-2891
ⲧⲁⲩⲉ	-2892
ⲧⲟⲗⲏ	-2893
ⲧⲱⲣⲡ	-2894
ϣⲟⲣϣⲣ	-2895
ϩⲓⲥⲧⲁ	-2896
ϭⲟⲟⲙⲉ	-2897
▁ⲁⲓⲉⲓ	-2898
▁ⲛⲁϩⲣ	-2899
▁ⲟⲩⲱϩ	-2900
▁ⲧⲁⲕⲟ	-2901
ⲕⲟⲡⲟⲥ	-2902
ⲙⲛⲧⲛⲁ	-2903
ⲟⲩⲟⲙϥ	-2904
ⲣⲁⲛⲁϥ	-2905
ⲧⲁϫⲣⲉ	-2906
ⲧⲥⲃⲃⲉ	-2907
▁ϩⲁⲧⲉϥ	-2908
▁ϫⲉⲛⲉϥ	-2909
▁ϭⲙϭⲟⲙ	-2910
▁ⲉⲕⲏⲙⲉ	-2911
▁ⲉⲣⲉⲡⲉ	-2912
▁ⲙⲙⲓⲥⲉ	-2913
▁ⲛⲧⲉⲣϥ	-2914
ⲟⲩⲉⲃⲟⲗ	-2915
ⲡⲁⲣⲁⲅⲉ	-2916
ⲧⲁⲩⲣⲟⲩ	-2917
ϣⲟⲩϩⲏⲛⲉ	-2918
ϩⲏⲅⲉⲙⲱⲛ	-2919
▁ϩⲁⲛⲟⲃⲉ	-2920
▁ⲁϥⲥⲙⲟⲩ	-2921
▁ⲁⲩϫⲟⲟⲩ	-2922
▁ⲉϫⲛⲛⲉϥ	-2923
▁ⲉϫⲛⲛⲉⲩ	-2924
▁ⲉⲧⲉⲓⲣⲉ	-2925
▁ⲟⲩⲟⲉⲓϣ	-2926
ⲕⲁⲑⲓⲥⲧⲁ	-2927
ⲥⲩⲛⲑⲓⲟⲥ	-2928
▁ϩⲛⲛϣⲏⲣⲉ	-2929
▁ϫⲉⲉϣⲱⲡⲉ	-2930
▁ⲛⲧⲁⲧⲉⲧⲛ	-2931
▁ⲧⲉⲥϩⲓⲙⲉ	-2932
▁ⲛⲁⲙⲉⲣⲁⲧⲉ	-2933
▁ⲛⲛⲓⲟⲩⲇⲁⲓ	-2934
▁ϩⲛⲛⲉϩⲃⲏⲩⲉ	-2935
▁ⲛⲣⲉϥⲣⲛⲟⲃⲉ	-2936
▁ⲕⲏ	-2937
ⲃⲟⲥ	-2938
ⲗⲁⲕ	-2939
ⲗⲉⲃ	-2940
ⲯⲱⲛ	-2941
ϩⲱⲧⲡ	-2942
▁ϣⲁⲥ	-2943
▁ϫⲉⲥ	-2944
ⲛⲏⲟⲩ	-2945
ⲟⲛⲟⲛ	-2946
ⲩⲗⲟⲥ	-2947
ϣϣⲕⲁⲕ	-2948
▁ⲉⲙⲙⲁ	-2949
▁ⲉⲧϩⲁ	-2950
▁ⲟⲩⲱⲙ	-2951
▁ⲧⲁⲁⲩ	-2952
ⲟⲩⲁϣϥ	-2953
ⲡⲉⲓⲑⲉ	-2954
ⲣⲱⲇⲏⲥ	-2955
▁ϣⲟⲙⲛⲧ	-2956
▁ϫⲉϥⲛⲁ	-2957
▁ϫⲉⲛⲧⲕ	-2958
▁ⲥⲱⲟⲩϩ	-2959
ⲃⲣⲁⲓⲟⲥ	-2960
ⲡⲉⲕϩⲏⲧ	-2961
ϫⲓϫⲉⲉⲩⲉ	-2962
▁ϩⲛⲧⲉⲧⲛ	-2963
▁ϫⲉⲉϣϫⲉ	-2964
▁ϫⲉⲉⲃⲟⲗ	-2965
▁ⲉϥϣⲟⲟⲡ	-2966
▁ⲉⲧⲣⲉⲧⲛ	-2967
▁ⲙⲙⲓⲛⲙⲙ	-2968
▁ⲙⲙⲟⲟϣⲉ	-2969
▁ⲙⲡⲉⲧⲛⲁ	-2970
▁ⲙⲡⲙⲟⲟⲩ	-2971
▁ⲙⲡⲛⲟⲃⲉ	-2972
▁ϩⲙⲡⲧⲣⲉⲩ	-2973
▁ϫⲉⲉⲧⲉⲧⲛ	-2974
▁ϫⲉⲟⲩⲛⲟⲩ	-2975
▁ⲉⲧⲉⲧⲛϫⲱ	-2976
▁ⲙⲡⲙⲛⲧⲣⲉ	-2977
▁ⲛⲧⲥⲟⲫⲓⲁ	-2978
▁ⲟⲩⲥϩⲓⲙⲉ	-2979
▁ⲁⲃⲏⲥⲁⲗⲱⲙ	-2980
▁ⲛϭⲓⲛⲣⲱⲙⲉ	-2981
▁ⲛϭⲓⲡⲗⲁⲟⲥ	-2982
▁ⲛⲧⲡⲓⲥⲧⲓⲥ	-2983
ⲙⲛⲧⲣⲙⲛϩⲏⲧ	-2984
ϣⲟⲧ	-2985
ϩⲣⲱ	-2986
ⲓⲡⲉ	-2987
ⲕⲟⲗ	-2988
ⲛⲏϫ	-2989
ⲣⲱⲕ	-2990
ⲧⲥⲁ	-2991
ⲫⲁⲥ	-2992
▁ⲉⲡⲓ	-2993
▁ⲙⲉϥ	-2994
ⲟⲗⲟⲙ	-2995
ⲡⲱⲣϫ	-2996
ⲣⲏⲙⲁ	-2997
ⲣⲱⲧⲉ	-2998
ⲥⲡⲓⲣ	-2999
ⲧⲙⲟⲩ	-3000
ϣⲃⲉⲉⲣ	-3001
▁ϫⲉⲁⲥ	-3002
▁ⲉⲓⲛⲉ	-3003
▁ⲉⲟⲩⲁ	-3004
▁ⲛⲅϫⲓ	-3005
▁ⲛⲥⲟⲛ	-3006
▁ⲡⲥⲟⲛ	-3007
▁ⲥⲁϣϥ	-3008
ⲕⲟⲛⲉⲓ	-3009
ⲙⲁⲥⲧⲓ	-3010
ⲛⲁⲭⲟⲥ	-3011
ϣⲧⲣⲧⲱⲣ	-3012
ϭⲟⲟⲩⲛⲉ	-3013
▁ϩⲙⲟⲟⲥ	-3014
▁ⲉϫⲛⲛⲁ	-3015
▁ⲙⲡⲟⲩⲉ	-3016
▁ⲙⲡⲣⲁⲛ	-3017
▁ⲛⲕⲣⲟϥ	-3018
▁ⲛⲧⲉⲟⲩ	-3019
ⲍⲉⲕⲓⲁⲥ	-3020
ⲧⲛⲁϩⲧⲉ	-3021
ⲭⲁⲛⲁⲁⲛ	-3022
▁ϫⲉⲛⲧⲁⲩ	-3023
▁ϫⲉⲟⲩϣⲁ	-3024
▁ⲉϥϫⲟⲥⲉ	-3025
▁ⲉⲧⲃⲉⲡⲉ	-3026
▁ⲉⲩϩⲟⲟⲩ	-3027
▁ⲙⲡⲉⲃⲟⲧ	-3028
ⲓⲟⲩⲟⲉⲓϣ	-3029
ⲙⲛⲧⲕⲟⲩⲓ	-3030
ⲡⲟⲛⲏⲣⲟⲥ	-3031
▁ⲙⲛⲡⲗⲁⲟⲥ	-3032
▁ⲙⲡⲉⲗⲁⲁⲩ	-3033
▁ⲙⲡⲉⲩⲙⲧⲟ	-3034
▁ϫⲉⲓⲏⲥⲟⲩⲥ	-3035
▁ⲁⲩⲟⲩⲁϩⲟⲩ	-3036
▁ⲛⲧⲁϥϣⲱⲡⲉ	-3037
▁ⲉⲣⲉⲡⲛⲟⲩⲧⲉ	-3038
▁ⲙⲛⲛⲉϥϣⲏⲣⲉ	-3039
▁ⲙⲛⲡⲓⲥⲣⲁⲏⲗ	-3040
▁ⲛⲧⲉⲕⲕⲗⲏⲥⲓⲁ	-3041
▁ⲛⲧⲉⲣⲟⲩⲥⲱⲧⲙ	-3042
▁ⲧϩⲓⲉⲣⲟⲩⲥⲁⲗⲏⲙ	-3043
ϯⲁ	-3044
ⲕⲩ	-3045
ⲩϩ	-3046
ϩⲙⲡ	-3047
ϭⲟⲧ	-3048
ⲅⲟⲣ	-3049
ⲇⲣⲁ	-3050
ⲛⲧⲕ	-3051
ⲧⲛϩ	-3052
ⲱⲟⲩ	-3053
ϣϩⲏⲧ	-3054
ϭⲱⲣϭ	-3055
▁ⲙⲉⲩ	-3056
▁ⲧⲉⲥ	-3057
▁ⲧⲟⲟ	-3058
ⲛⲟⲓⲁ	-3059
ⲣⲉϥⲣ	-3060
ⲣⲱϩⲧ	-3061
ⲥⲱⲣⲙ	-3062
ⲧⲓⲍⲉ	-3063
ⲭⲙⲁⲗ	-3064
ⲱⲣⲉⲓ	-3065
▁ϫⲉϣⲁ	-3066
▁ⲁⲩϫⲱ	-3067
▁ⲉⲡⲉⲥ	-3068
▁ⲉⲣⲱϥ	-3069
▁ⲙⲏⲧⲓ	-3070
▁ⲛϩⲙⲉ	-3071
▁ⲡϩⲏⲧ	-3072
▁ⲡⲣⲟⲥ	-3073
▁ⲧⲏⲣⲛ	-3074
ⲅⲉⲛⲟⲥ	-3075
ⲗⲏⲣⲟⲥ	-3076
ⲗⲱⲥⲓⲁ	-3077
ⲙⲉⲥⲧⲉ	-3078
ⲛⲁⲅⲕⲏ	-3079
ⲥⲙⲓⲛⲉ	-3080
ⲧⲁⲛⲁⲥ	-3081
ⲧⲃⲃⲏⲩ	-3082
▁ϩⲛⲧⲉⲥ	-3083
▁ⲉϥⲟⲩⲟ	-3084
▁ⲉⲟⲩⲱⲙ	-3085
▁ⲙⲛⲛⲉⲥ	-3086
▁ⲛϩⲟⲧⲉ	-3087
ⲕⲗⲟⲟⲗⲉ	-3088
ⲧⲥⲁⲃⲟⲓ	-3089
ϣⲁⲛϩⲧⲏϥ	-3090
▁ϫⲉⲛⲛⲉⲩ	-3091
▁ⲁϥⲧⲁⲁϥ	-3092
▁ⲁⲙⲁϩⲧⲉ	-3093
▁ⲁⲩⲧⲁⲁⲩ	-3094
▁ⲙⲙⲛⲧⲣⲉ	-3095
▁ⲛϭⲓⲛⲉϥ	-3096
▁ⲛⲁⲧⲁⲕⲟ	-3097
ⲟⲣⲫⲁⲛⲟⲥ	-3098
▁ϫⲉⲛⲧⲉⲧⲛ	-3099
▁ⲁⲃⲣⲁϩⲁⲙ	-3100
▁ⲁⲩⲙⲟⲩⲧⲉ	-3101
▁ⲁⲩⲟⲩⲱϣⲃ	-3102
▁ⲧⲉⲭⲁⲣⲓⲥ	-3103
ⲁⲅⲅⲉⲗⲓⲍⲉ	-3104
▁ⲙⲡⲉⲓϣⲁϫⲉ	-3105
▁ⲙⲡⲉⲧϩⲟⲟⲩ	-3106
▁ⲙⲡⲣⲣϩⲟⲧⲉ	-3107
▁ⲛϩⲣⲟⲩⲃⲏⲛ	-3108
▁ⲛⲧⲉⲣⲉϥⲉⲓ	-3109
▁ⲛⲧⲉⲣⲟⲩⲉⲓ	-3110
▁ⲛⲓⲱϩⲁⲛⲛⲏⲥ	-3111
▁ⲧⲉⲧⲛⲥⲟⲟⲩⲛ	-3112
▁ⲉⲕⲗⲏⲣⲟⲛⲟⲙⲉⲓ	-3113
ϣϥⲉ	-3114
ϣⲉⲡ	-3115
ϩⲱⲙ	-3116
ϯⲥⲟ	-3117
ⲉⲓⲣ	-3118
ⲟⲗϭ	-3119
ⲟⲣⲙ	-3120
ⲫⲓⲁ	-3121
ϣⲟⲩⲟ	-3122
ϩⲧⲏⲩ	-3123
▁ϩⲓⲉ	-3124
▁ⲉⲅⲁ	-3125
ⲃⲁⲥⲁ	-3126
ⲍⲱⲟⲛ	-3127
ⲕⲗⲟⲙ	-3128
ⲥⲧⲱⲧ	-3129
ⲧⲱⲱⲣ	-3130
▁ϣⲏⲣⲉ	-3131
▁ϩⲓⲡⲉ	-3132
▁ⲙⲡⲁⲣ	-3133
▁ⲛⲉⲙⲛ	-3134
▁ⲣⲁϣⲉ	-3135
▁ⲧϭⲓϫ	-3136
ⲟⲩⲟⲉⲓ	-3137
ⲧⲁⲫⲟⲥ	-3138
ⲭⲣⲏⲙⲁ	-3139
▁ϩⲓⲱⲟⲩ	-3140
▁ϫⲉⲛⲉⲩ	-3141
▁ⲉϣⲁϫⲉ	-3142
▁ⲉⲥϣⲁⲛ	-3143
▁ⲛϩⲏⲕⲉ	-3144
▁ⲛⲟⲩⲛⲁ	-3145
ⲣϩⲙϩⲁⲗ	-3146
ⲧⲁϩⲟⲟⲩ	-3147
ⲧⲁⲛⲟⲓⲁ	-3148
ϩⲓⲉⲣⲓⲭⲱ	-3149
ϭⲓⲃⲱⲧⲟⲥ	-3150
▁ϩⲛⲥⲓⲱⲛ	-3151
▁ϫⲉⲥⲱⲧⲙ	-3152
▁ⲁϥⲕⲁⲁϥ	-3153
▁ⲉⲡⲧⲏⲣϥ	-3154
▁ⲉⲣϣⲁⲛⲡ	-3155
▁ⲙⲛⲟⲩⲟⲛ	-3156
▁ⲙⲡⲥⲱⲙⲁ	-3157
▁ⲛⲛϩⲏⲕⲉ	-3158
▁ⲡⲉϫⲉⲓⲱ	-3159
▁ⲡⲉⲛⲧⲁⲩ	-3160
ⲕⲉⲛⲟⲩⲧⲉ	-3161
ⲧⲣⲁⲡⲉⲍⲁ	-3162
▁ϩⲙⲡⲁϩⲏⲧ	-3163
▁ⲁⲙⲱⲩⲥⲏⲥ	-3164
▁ⲁⲩⲙⲟⲟϣⲉ	-3165
▁ⲙⲛⲛⲣⲱⲙⲉ	-3166
▁ⲙⲡⲉⲥⲙⲟⲧ	-3167
▁ⲙⲡⲣⲧⲣⲉⲩ	-3168
▁ⲛϩⲉⲛⲛⲟϭ	-3169
▁ⲛϭⲓⲟⲩⲟⲛ	-3170
▁ⲛⲟⲩϩⲟⲟⲩ	-3171
ⲩⲥⲧⲏⲣⲓⲟⲛ	-3172
▁ϩⲛⲟⲩϩⲟⲟⲩ	-3173
▁ⲉⲣϣⲁⲛⲟⲩⲁ	-3174
▁ⲛϩⲉⲛϣⲁϫⲉ	-3175
▁ⲡⲇⲓⲕⲁⲓⲟⲥ	-3176
▁ⲉⲧϩⲛⲙⲡⲏⲩⲉ	-3177
▁ⲛⲛⲁⲥⲥⲩⲣⲓⲟⲥ	-3178
▁ⲙⲡⲉⲩⲁⲅⲅⲉⲗⲓⲟⲛ	-3179
ϣⲱⲙ	-3180
ϩⲣⲃ	-3181
ϩⲧⲟ	-3182
ϭⲥⲉ	-3183
ⲗⲁⲓ	-3184
ⲗⲟⲅ	-3185
ⲝⲓⲥ	-3186
ⲟϩⲉ	-3187
ⲣⲓⲧ	-3188
ϫⲣⲟⲡ	-3189
▁ⲉⲓⲁ	-3190
▁ⲛϩⲩ	-3191
▁ⲛⲟϭ	-3192
▁ⲛⲥⲩ	-3193
ⲁⲍⲁⲣ	-3194
ⲑⲁⲣⲁ	-3195
ⲗⲗⲟⲥ	-3196
ⲙⲛⲧⲥ	-3197
ⲥⲙⲟⲧ	-3198
ⲧⲙⲁⲓ	-3199
ϩⲁⲙⲏⲛ	-3200
▁ϥⲛⲁϯ	-3201
▁ⲙⲡⲕⲉ	-3202
▁ⲙⲧⲟⲛ	-3203
▁ⲛⲥⲉϯ	-3204
ⲗⲉⲩⲉⲓ	-3205
ⲙϩⲁⲁⲩ	-3206
▁ⲕⲁϩⲏⲩ	-3207
▁ⲛⲟⲩϭⲥ	-3208
ⲃⲟⲏⲑⲓⲁ	-3209
ⲧⲁⲑⲓⲟⲥ	-3210
▁ϩⲛⲡⲕⲁϩ	-3211
▁ϫⲉⲁⲙⲟⲩ	-3212
▁ⲛⲁⲧⲁⲁϥ	-3213
▁ⲛⲟⲩϫⲁⲓ	-3214
▁ⲛⲧⲟⲟⲧⲕ	-3215
▁ⲟⲩⲉⲃⲟⲗ	-3216
ⲛⲉϩⲃⲏⲩⲉ	-3217
ⲡⲉⲩⲟⲩⲟⲓ	-3218
▁ϩⲙⲡⲗⲁⲟⲥ	-3219
▁ⲉⲡⲉϩⲟⲩⲟ	-3220
▁ⲉⲩⲙⲟⲟϣⲉ	-3221
▁ⲛⲟⲩⲕⲱϩⲧ	-3222
▁ⲟⲩⲙⲏⲏϣⲉ	-3223
ⲭⲙⲁⲗⲱⲥⲓⲁ	-3224
▁ⲉⲛⲧⲁⲧⲉⲧⲛ	-3225
▁ⲙⲡⲁϫⲟⲉⲓⲥ	-3226
▁ⲛϫⲓⲛϭⲟⲛⲥ	-3227
▁ⲛⲛⲉⲧⲟⲩⲏϩ	-3228
▁ⲛⲧⲉⲣⲟⲩⲛⲁⲩ	-3229
▁ⲡⲉⲥⲩⲛⲑⲓⲟⲥ	-3230
▁ⲉⲣⲉⲡϩⲓⲉⲣⲉⲩⲥ	-3231
▁ⲛϩⲉⲛⲡⲉⲧϩⲟⲟⲩ	-3232
ⲩⲟ	-3233
ϩⲟⲡ	-3234
ϭⲟⲥ	-3235
ⲃⲉⲉ	-3236
ⲅⲟⲩ	-3237
ⲗⲟϥ	-3238
ⲛⲉⲣ	-3239
ϣⲱⲧⲉ	-3240
▁ⲉⲥⲟ	-3241
▁ⲉⲧϯ	-3242
▁ⲛⲅϯ	-3243
▁ⲛⲅⲣ	-3244
▁ⲛⲓⲁ	-3245
ⲅⲁⲗⲁ	-3246
ⲇⲉⲱⲛ	-3247
ⲇⲣⲁⲕ	-3248
ⲕⲧⲟⲓ	-3249
ⲙⲡⲉⲩ	-3250
ⲛⲏⲙⲁ	-3251
ⲛⲟⲉⲓ	-3252
ⲛⲟⲩⲁ	-3253
ϣⲟⲟⲩⲉ	-3254
ϭⲟⲣϭⲥ	-3255
▁ϥⲛⲁⲣ	-3256
▁ϥⲥⲏϩ	-3257
▁ϫⲉⲉⲣ	-3258
▁ϫⲓⲛⲁ	-3259
▁ⲛⲅⲁⲇ	-3260
▁ⲛⲙⲡⲁ	-3261
▁ⲛⲥⲁⲃ	-3262
ⲗⲁⲥⲥⲉ	-3263
ⲙⲉⲥⲧⲱ	-3264
ⲧⲏⲏⲃⲉ	-3265
▁ϩⲁⲣⲟⲓ	-3266
▁ϯⲛⲁⲕⲱ	-3267
▁ⲙⲟⲛⲟⲛ	-3268
▁ⲛⲓⲱⲁⲃ	-3269
▁ⲛⲛϭⲟⲙ	-3270
ⲉⲛⲧⲟⲗⲏ	-3271
ⲟⲩⲣⲱⲙⲉ	-3272
▁ϣⲁⲡⲛⲁⲩ	-3273
▁ϩⲓϫⲛⲧⲉ	-3274
▁ⲁϥⲕⲟⲧϥ	-3275
▁ⲉⲡⲉⲓⲇⲏ	-3276
▁ⲉⲧⲙⲧⲣⲉ	-3277
▁ⲙⲙⲏⲏϣⲉ	-3278
▁ⲙⲡⲉⲓⲱⲧ	-3279
ⲡⲉϥⲟⲩⲟⲓ	-3280
ⲡⲟⲛⲏⲣⲓⲁ	-3281
▁ϫⲉⲁⲧⲉⲧⲛ	-3282
▁ⲁϥⲟⲩⲱⲛϩ	-3283
▁ⲁϩⲉⲣⲁⲧϥ	-3284
▁ⲙⲡⲉⲛⲓⲡⲉ	-3285
▁ⲛⲛⲉϥϭⲓϫ	-3286
▁ⲡⲉⲛⲉⲓⲱⲧ	-3287
ⲇⲓⲁⲕⲟⲛⲉⲓ	-3288
ⲙⲙⲁⲑⲏⲧⲏⲥ	-3289
ⲡⲁⲣⲑⲉⲛⲟⲥ	-3290
▁ϩⲛⲧⲉϥϭⲓϫ	-3291
▁ϩⲛⲧⲉⲫⲩⲗⲏ	-3292
▁ⲙⲡⲉⲕⲗⲁⲟⲥ	-3293
▁ⲛⲛⲉϥⲙⲁⲑⲏⲧⲏⲥ	-3294
ⲓⲧ	-3295
ϩⲛⲉ	-3296
ϩⲣⲏ	-3297
ⲇⲓⲱ	-3298
ⲓϣⲉ	-3299
ⲝⲟⲙ	-3300
ⲟⲑⲉ	-3301
ⲟⲕϩ	-3302
ⲣⲉⲥ	-3303
ⲣⲱⲥ	-3304
ϣⲧⲁⲙ	-3305
ϣⲱⲣⲡ	-3306
▁ⲁⲕϯ	-3307
▁ⲉϩⲉ	-3308
▁ⲉⲁⲛ	-3309
▁ⲉⲕⲱ	-3310
▁ⲙⲉϩ	-3311
▁ⲙⲛⲉ	-3312
▁ⲛⲛⲟ	-3313
ⲉⲓⲧⲉ	-3314
ⲕⲁⲁⲕ	-3315
ⲗⲉⲩⲉ	-3316
ⲗⲏⲅⲏ	-3317
ⲙⲟⲩⲗ	-3318
ⲙⲣⲣⲉ	-3319
ⲟⲩⲱⲧ	-3320
ⲧⲣⲓⲁ	-3321
ⲧⲱⲃϩ	-3322
ϣⲟⲛⲧⲉ	-3323
ϩⲃⲟⲩⲣ	-3324
ϩⲏⲥⲓⲁ	-3325
▁ⲁⲛⲉⲓ	-3326
▁ⲙⲛϩⲛ	-3327
▁ⲙⲡⲁⲥ	-3328
▁ⲛϭⲓⲥ	-3329
▁ⲛⲣⲱϥ	-3330
▁ⲛⲥⲁⲣ	-3331
▁ⲛⲥⲱⲥ	-3332
▁ⲛⲧⲁⲥ	-3333
▁ⲡⲉⲧϯ	-3334
ⲡϣⲏⲣⲉ	-3335
ⲡⲗⲩⲅⲏ	-3336
ⲣⲁⲥⲓⲥ	-3337
ⲣⲏⲥⲓⲁ	-3338
ⲥⲩⲣⲓⲁ	-3339
ⲧⲁⲙⲟⲕ	-3340
ⲩⲥⲱⲧⲙ	-3341
▁ϩⲛⲛⲉⲥ	-3342
▁ϫⲉⲡⲉⲕ	-3343
▁ϯⲛⲁϫⲓ	-3344
▁ⲉϥⲟⲛϩ	-3345
▁ⲉⲛϣⲁⲛ	-3346
▁ⲉⲟⲩⲟⲛ	-3347
▁ⲉⲩⲛⲏⲩ	-3348
▁ⲉⲩⲛⲟϭ	-3349
▁ⲕⲉⲟⲩⲁ	-3350
▁ⲙⲡⲁⲣⲁ	-3351
▁ⲛⲟⲩϣⲏ	-3352
▁ⲛⲥⲁⲛⲉ	-3353
▁ⲧⲟⲟⲧϥ	-3354
ⲇⲣⲁⲕⲱⲛ	-3355
ⲓⲙⲟⲟϣⲉ	-3356
ⲕⲁⲡⲛⲟⲥ	-3357
ⲙⲡϣⲓⲛⲉ	-3358
ⲛⲟⲩⲏⲏⲃ	-3359
ⲟⲗⲟⲕⲁⲩ	-3360
ⲧⲁⲣⲭⲟⲥ	-3361
ϩⲓⲧⲟⲩⲱⲕ	-3362
▁ϫⲉⲛⲉⲣⲉ	-3363
▁ⲉⲣⲉⲧⲉϥ	-3364
▁ⲛⲟⲩⲣⲣⲟ	-3365
▁ⲛⲟⲩⲥⲟⲡ	-3366
▁ⲛⲟⲩⲱⲛⲉ	-3367
▁ⲛⲥⲁⲃⲟⲗ	-3368
ⲃⲁⲡⲧⲓⲍⲉ	-3369
ⲓⲕⲟⲥⲙⲟⲥ	-3370
ⲡⲟⲣⲛⲉⲓⲁ	-3371
ⲧⲥⲟⲩⲧⲱⲛ	-3372
ⲱϩⲁⲛⲛⲏⲥ	-3373
▁ⲉⲩⲉϣⲱⲡⲉ	-3374
▁ⲙⲡⲙⲏⲏϣⲉ	-3375
▁ⲛⲥⲉϣⲱⲡⲉ	-3376
▁ⲛⲭⲁⲛⲁⲁⲛ	-3377
▁ⲡⲉϥⲉⲓⲱⲧ	-3378
▁ⲡⲓⲥⲧⲉⲩⲉ	-3379
ⲇⲓⲁⲕⲟⲛⲓⲁ	-3380
ϩⲟⲙⲟⲗⲟⲅⲉⲓ	-3381
▁ⲛⲧⲁϥϫⲟⲟⲥ	-3382
▁ⲛⲛⲉⲡⲣⲟⲫⲏⲧⲏⲥ	-3383
ⲍⲏ	-3384
ⲡⲣ	-3385
ⲥϥ	-3386
ϣⲁⲕ	-3387
ϫⲏⲩ	-3388
▁ϫⲛ	-3389
ⲃⲉϥ	-3390
ⲃⲉⲗ	-3391
ⲃⲉⲣ	-3392
ⲕⲉⲧ	-3393
ⲟⲣϫ	-3394
ⲧⲙⲁ	-3395
ⲧⲛⲟ	-3396
ⲱⲣⲉ	-3397
ϩⲏⲃⲥ	-3398
▁ϩⲣⲁ	-3399
▁ⲉϩⲛ	-3400
▁ⲓⲱⲃ	-3401
▁ⲕⲓⲙ	-3402
▁ⲛⲥⲏ	-3403
▁ⲛⲥⲟ	-3404
▁ⲛⲧⲙ	-3405
▁ⲟⲛϩ	-3406
ⲁϣⲁⲓ	-3407
ⲃⲓⲏⲛ	-3408
ⲕⲟⲟⲩ	-3409
ⲗⲟⲩⲗ	-3410
ⲛϣⲟⲧ	-3411
ⲛⲟⲩϫ	-3412
ⲥⲱϣϥ	-3413
ⲧⲟⲙⲥ	-3414
ⲧⲥⲃⲱ	-3415
ⲧⲱϩⲥ	-3416
ⲩⲣⲟⲥ	-3417
ϩⲓⲕⲱⲛ	-3418
ϩⲧⲏⲧⲛ	-3419
▁ϩⲁⲧⲉ	-3420
▁ⲁⲙⲟⲩ	-3421
▁ⲁⲧⲉⲧ	-3422
▁ⲁⲩⲕⲁ	-3423
▁ⲁⲩⲕⲱ	-3424
▁ⲉϥⲉϯ	-3425
▁ⲙⲡⲥⲁ	-3426
▁ⲛⲁⲭⲓ	-3427
▁ⲛⲏⲟⲩ	-3428
▁ⲟⲉⲓⲕ	-3429
▁ⲟⲩⲙⲁ	-3430
▁ⲡⲉⲧⲓ	-3431
ⲑⲏⲥⲓⲥ	-3432
ⲕⲟⲛⲟⲙ	-3433
ⲕⲣⲙⲣⲙ	-3434
ⲙⲙⲟⲟⲩ	-3435
ⲡⲉⲓⲱⲧ	-3436
ⲥⲧⲟⲗⲏ	-3437
▁ϩⲛⲛⲉⲛ	-3438
▁ϫⲉⲟⲩⲁ	-3439
▁ⲙⲡϩⲁⲡ	-3440
▁ⲛϩⲟⲩⲛ	-3441
▁ⲡⲉϫⲉⲁ	-3442
ⲛⲉⲥⲟⲟⲩ	-3443
ⲧⲁⲙⲓⲟϥ	-3444
▁ϣⲧⲟⲣⲧⲣ	-3445
▁ϫⲉⲁⲛⲟⲛ	-3446
▁ⲉⲁⲧⲉⲧⲛ	-3447
▁ⲉⲛϣⲏⲣⲉ	-3448
▁ⲙⲡⲟⲉⲓⲕ	-3449
▁ⲛⲛⲧⲉⲧⲛ	-3450
▁ⲛⲥⲉⲛⲁϣ	-3451
▁ⲟⲩϣⲏⲣⲉ	-3452
▁ⲧⲉⲛⲧⲁⲥ	-3453
ⲡⲓⲑⲩⲙⲉⲓ	-3454
▁ϩⲓⲡϫⲁⲓⲉ	-3455
▁ϩⲙⲡϣⲁϫⲉ	-3456
▁ϩⲙⲡⲉⲣⲡⲉ	-3457
▁ϩⲙⲡⲕⲁⲕⲉ	-3458
▁ⲙⲡⲉϥⲣⲁⲛ	-3459
▁ⲛϯⲥⲟⲟⲩⲛ	-3460
▁ⲛⲉϩⲃⲏⲩⲉ	-3461
▁ⲛⲟⲩⲟⲉⲓⲛ	-3462
▁ⲁϥⲁⲙⲁϩⲧⲉ	-3463
▁ⲉⲡⲕⲟⲥⲙⲟⲥ	-3464
▁ⲙⲛⲙⲱⲩⲥⲏⲥ	-3465
▁ⲙⲡⲟⲛⲏⲣⲟⲥ	-3466
▁ⲛϩⲉⲛⲣⲱⲙⲉ	-3467
▁ⲛϭⲓⲫⲁⲣⲁⲱ	-3468
▁ⲛⲛⲉⲣⲣⲱⲟⲩ	-3469
▁ⲡⲉⲯⲁⲗⲙⲟⲥ	-3470
▁ϩⲙⲡⲕⲟⲥⲙⲟⲥ	-3471
▁ϫⲉⲁⲡⲛⲟⲩⲧⲉ	-3472
▁ⲛϭⲓⲡⲛⲟⲩⲧⲉ	-3473
▁ⲛⲛⲣⲉϥⲣⲛⲟⲃⲉ	-3474
ⲣϩ	-3475
ϩⲱⲕ	-3476
▁ⲉⲉ	-3477
ⲗⲟⲩ	-3478
ⲙⲛⲁ	-3479
ⲙⲟⲛ	-3480
ⲛⲓⲁ	-3481
ⲡⲁϣ	-3482
ⲡⲁⲧ	-3483
ⲡⲟⲟ	-3484
ⲣⲱⲑ	-3485
ⲧⲏⲓ	-3486
ϩⲏⲧⲥ	-3487
ϭⲱⲧⲡ	-3488
▁ⲉⲓⲟ	-3489
▁ⲉⲧⲕ	-3490
▁ⲉⲧⲥ	-3491
▁ⲛϣⲓ	-3492
▁ⲱⲣⲕ	-3493
ⲙⲏⲥⲉ	-3494
ⲙⲗⲁϩ	-3495
ⲛⲓⲡⲉ	-3496
ⲟⲩⲉⲓ	-3497
ⲣⲟⲩⲃ	-3498
ⲥⲥⲁⲓ	-3499
ϣⲙⲟⲩⲛ	-3500
ϥⲉⲟⲟⲩ	-3501
ϩⲉⲣⲁⲧ	-3502
▁ϩⲁⲡⲉ	-3503
▁ϫⲉⲧⲛ	-3504
▁ⲉⲥⲛⲁ	-3505
▁ⲉⲧϫⲓ	-3506
▁ⲉⲧⲉⲡ	-3507
▁ⲙⲛϩⲉ	-3508
▁ⲙⲡϣⲁ	-3509
▁ⲡⲉⲧⲟ	-3510
▁ⲡⲱⲃϣ	-3511
ⲙⲉⲣⲟⲥ	-3512
ⲣⲉⲙⲏⲧ	-3513
ⲧⲁⲗⲁⲓ	-3514
▁ϩⲙⲡⲉⲥ	-3515
▁ϫⲉⲛⲧⲉ	-3516
▁ⲉⲛⲧⲁⲛ	-3517
▁ⲙⲡϩⲏⲧ	-3518
▁ⲛϩⲉⲛⲁ	-3519
▁ⲛⲙϩⲉⲛ	-3520
▁ⲡⲁⲣⲁⲛ	-3521
▁ⲡⲉⲧϫⲱ	-3522
ⲙⲟⲥⲩⲛⲏ	-3523
ⲟⲗⲟⲙⲱⲛ	-3524
ⲥⲟⲟⲩϩⲥ	-3525
ϩⲁⲣϣϩⲏⲧ	-3526
ϩⲟⲩⲉⲓⲧⲉ	-3527
▁ϩⲓϫⲛⲟⲩ	-3528
▁ϫⲉⲛⲧⲁⲓ	-3529
▁ⲁϥϣⲗⲏⲗ	-3530
▁ⲉϩⲁⲣⲉϩ	-3531
▁ⲉⲙⲟⲟϣⲉ	-3532
▁ⲉⲩϣⲁϫⲉ	-3533
▁ⲕⲁⲧⲁⲡⲉ	-3534
▁ⲛϣⲉⲉⲣⲉ	-3535
▁ⲛⲁϣⲏⲣⲉ	-3536
▁ⲛⲛⲉⲛⲧⲁ	-3537
▁ⲛⲛⲉⲧⲟⲩ	-3538
ⲟⲩⲥϩⲓⲙⲉ	-3539
ⲡⲉⲓϣⲁϫⲉ	-3540
ⲣⲧⲩⲣⲓⲟⲛ	-3541
ϩⲉⲃⲣⲁⲓⲟⲥ	-3542
▁ϩⲛⲙⲡⲏⲩⲉ	-3543
▁ϩⲛⲧⲥⲏϥⲉ	-3544
▁ϫⲉϩⲁⲙⲏⲛ	-3545
▁ⲉⲥⲉϣⲱⲡⲉ	-3546
▁ⲉⲧⲙⲟⲟϣⲉ	-3547
▁ⲙⲛⲧⲉⲩϣⲏ	-3548
▁ⲙⲡⲉⲥϩⲁⲓ	-3549
▁ⲙⲡⲓⲥⲧⲟⲥ	-3550
▁ⲛⲧⲉⲧⲛⲧⲙ	-3551
ⲕⲁⲑⲁⲣⲧⲟⲛ	-3552
▁ⲙⲙⲓⲛⲙⲙⲟϥ	-3553
▁ⲛϭⲓⲡⲣⲱⲙⲉ	-3554
▁ⲛⲧⲉⲧⲛⲃⲱⲕ	-3555
ⲟⲗⲟⲕⲁⲩⲧⲱⲙⲁ	-3556
▁ⲛⲁⲡⲟⲥⲧⲟⲗⲟⲥ	-3557
▁ⲉⲧⲡⲁⲣⲉⲙⲃⲟⲗⲏ	-3558
▁ⲕⲁⲧⲁⲛⲉⲩⲇⲏⲙⲟⲥ	-3559
▁ⲙⲛⲛⲉⲡⲣⲉⲥⲃⲩⲧⲉⲣⲟⲥ	-3560
ϫⲉⲕ	-3561
ϭⲏⲣ	-3562
▁ⲁϩ	-3563
▁ⲁⲗ	-3564
ⲑⲣⲁ	-3565
ⲡⲓⲉ	-3566
ⲧⲟⲣ	-3567
ⲧⲡⲉ	-3568
ϣⲟⲡⲧ	-3569
ϥⲓⲧϥ	-3570
ϩⲙⲉϥ	-3571
▁ⲁⲓⲁ	-3572
▁ⲉⲁⲓ	-3573
▁ⲙⲡⲛ	-3574
▁ⲛⲧⲱ	-3575
▁ⲡⲁⲣ	-3576
▁ⲧⲉⲛ	-3577
ⲃⲟⲉⲥ	-3578
ⲓⲕⲓⲁ	-3579
ⲟⲙⲡⲉ	-3580
ⲣⲁϩⲧ	-3581
ⲣⲱϣⲉ	-3582
ⲥⲁϩⲉ	-3583
ⲧⲁⲕⲉ	-3584
ⲩⲧⲟⲥ	-3585
ϩⲧⲱⲱⲣ	-3586
ϫⲓϭⲟⲗ	-3587
▁ϩⲁⲟⲩ	-3588
▁ϫⲉⲛϯ	-3589
▁ⲁϥⲱϣ	-3590
▁ⲁϩⲉⲛ	-3591
▁ⲉϥϩⲛ	-3592
▁ⲉⲛⲓⲙ	-3593
▁ⲉⲣϣⲁ	-3594
▁ⲙⲡⲱⲧ	-3595
▁ⲛϩⲣⲁ	-3596
ⲙⲏⲏⲧⲉ	-3597
ⲛⲟⲩϥⲉ	-3598
ⲡⲁⲣⲁⲅ	-3599
ⲡⲗⲁⲟⲥ	-3600
ⲥⲟⲟⲩϩ	-3601
ⲥⲟⲧⲡϥ	-3602
ⲧⲏⲅⲟⲣ	-3603
▁ϣⲁⲛⲧⲓ	-3604
▁ⲉⲛⲉⲧⲛ	-3605
▁ⲉⲣⲱⲙⲉ	-3606
▁ⲙⲫⲩⲗⲏ	-3607
▁ⲛⲉⲧϩⲛ	-3608
▁ⲥⲉⲛⲏⲩ	-3609
ⲛⲉⲕⲃⲁⲗ	-3610
ⲛⲟⲩϫⲁⲓ	-3611
ⲧⲁⲩⲣⲟⲥ	-3612
ⲧⲟⲩⲛⲉⲥ	-3613
▁ϩⲙⲡⲉⲧⲛ	-3614
▁ⲉⲧⲃⲉⲛⲉ	-3615
▁ⲕⲥⲟⲟⲩⲛ	-3616
▁ⲙⲡⲉⲕϩⲟ	-3617
▁ⲙⲡⲟⲩϩⲉ	-3618
▁ⲡⲉϥⲥⲟⲛ	-3619
▁ⲡⲉⲧⲛⲏⲩ	-3620
▁ⲧⲁⲅⲁⲡⲏ	-3621
▁ⲧⲛⲛⲟⲟⲩ	-3622
ⲟⲓⲕⲟⲛⲟⲙ	-3623
ⲡⲓⲥⲧⲟⲗⲏ	-3624
ⲥⲁⲙⲁⲣⲓⲁ	-3625
▁ϩⲛⲟⲩⲙⲟⲩ	-3626
▁ϫⲉⲛⲣⲱⲙⲉ	-3627
▁ⲁϥⲁⲣⲭⲉⲓ	-3628
▁ⲁϥⲟⲩⲱϣⲧ	-3629
▁ⲉϥϣⲁⲛⲉⲓ	-3630
▁ⲉⲓⲏⲥⲟⲩⲥ	-3631
▁ⲙⲡϫⲱⲱⲙⲉ	-3632
▁ⲙⲡⲉⲥⲛⲟϥ	-3633
ⲛⲁⲥⲧⲁⲥⲓⲥ	-3634
▁ϩⲛⲟⲩⲙⲟⲟⲩ	-3635
▁ⲁⲩⲣϣⲡⲏⲣⲉ	-3636
▁ⲙⲙⲁⲇⲓϩⲁⲙ	-3637
▁ⲛⲛⲉϥϣⲏⲣⲉ	-3638
▁ⲛⲧⲉⲥϩⲓⲙⲉ	-3639
▁ϫⲉⲡⲁϫⲟⲉⲓⲥ	-3640
▁ⲙⲡⲉⲛⲛⲟⲩⲧⲉ	-3641
▁ⲛⲧⲉⲧⲛϣⲱⲡⲉ	-3642
▁ⲛϭⲓⲛⲓⲟⲩⲇⲁⲓ	-3643
▁ⲉϩⲉⲛⲡⲉⲧϩⲟⲟⲩ	-3644
▁ⲟⲩⲡⲉⲧϣⲟⲩⲉⲓⲧ	-3645
▁ⲛⲛⲁϩⲣⲙⲡⲛⲟⲩⲧⲉ	-3646
ⲁⲙ	-3647
ⲉϣ	-3648
ϩⲱⲗ	-3649
ϫⲁϥ	-3650
ⲁⲃⲏ	-3651
ⲇⲓⲥ	-3652
ⲛⲧⲱ	-3653
ⲟⲣⲁ	-3654
ⲡⲟⲛ	-3655
ⲡⲟⲧ	-3656
ⲥⲙⲛ	-3657
ⲥⲭⲏ	-3658
ⲭⲓⲁ	-3659
▁ⲙⲁⲗ	-3660
▁ⲛⲏⲓ	-3661
▁ⲡⲥⲁ	-3662
▁ⲧⲃⲃ	-3663
ⲃⲣⲣⲉ	-3664
ⲉⲛⲉϩ	-3665
ⲙⲉⲱⲛ	-3666
ⲛⲟⲩϩ	-3667
ⲟⲙⲧⲉ	-3668
ⲡⲓⲧⲉ	-3669
ⲡⲱϣⲥ	-3670
ⲧⲁⲓⲟ	-3671
ⲫⲑⲁⲉ	-3672
▁ϯⲛⲏⲩ	-3673
▁ⲁϥⲕⲁ	-3674
▁ⲉⲡⲉⲛ	-3675
▁ⲉⲡⲥⲁ	-3676
▁ⲛⲅⲉⲓ	-3677
▁ⲛⲉⲓⲉ	-3678
▁ⲛⲉⲙⲁ	-3679
▁ⲛⲟⲩϣ	-3680
▁ⲧⲉⲛⲁ	-3681
ⲣϩⲟⲩⲟ	-3682
ⲥⲟⲩⲧⲛ	-3683
ⲧⲁⲅⲙⲁ	-3684
ⲧⲟⲟⲧϥ	-3685
ⲭⲓⲗⲓⲁ	-3686
ϣⲉⲟⲉⲓϣ	-3687
▁ϩⲓⲧⲟⲩ	-3688
▁ϩⲛⲣⲱϥ	-3689
▁ϫⲉⲁⲙⲏ	-3690
▁ⲁⲁⲣⲱⲛ	-3691
▁ⲉⲉⲓⲙⲉ	-3692
▁ⲉⲛϭⲓϫ	-3693
▁ⲙⲏⲡⲱⲥ	-3694
▁ⲙⲛⲧⲣⲉ	-3695
▁ⲛϩⲏⲧⲉ	-3696
▁ⲛⲃⲗⲗⲉ	-3697
▁ⲛⲕⲁⲕⲉ	-3698
▁ⲛⲕⲛⲧⲉ	-3699
▁ⲛⲥⲱⲧⲛ	-3700
▁ⲟⲩⲁⲁϥ	-3701
▁ⲟⲩⲁⲁⲃ	-3702
▁ⲡⲉⲃⲟⲗ	-3703
▁ⲡⲙⲟⲟⲩ	-3704
ⲉⲛⲕⲟⲧⲕ	-3705
ⲡⲉⲧⲣⲟⲥ	-3706
ⲡⲗⲁⲥⲥⲉ	-3707
ⲥⲧⲩⲗⲟⲥ	-3708
ⲫⲣⲁⲅⲓⲥ	-3709
ϩⲟⲣⲁⲥⲓⲥ	-3710
▁ϩⲛⲧⲙⲛⲧ	-3711
▁ⲙⲁⲩⲁⲁⲧ	-3712
▁ⲛϩⲟⲙⲛⲧ	-3713
▁ⲛϩⲟⲟⲩⲧ	-3714
▁ⲛⲁⲛⲟⲩⲥ	-3715
▁ⲛⲕⲉⲥⲟⲡ	-3716
▁ⲛⲛⲟⲉⲓⲕ	-3717
▁ⲛⲣⲙⲙⲁⲟ	-3718
▁ⲛⲥⲟⲫⲟⲥ	-3719
▁ⲛⲧⲁⲓⲉⲓ	-3720
▁ⲛⲧⲥⲏϥⲉ	-3721
▁ⲧⲥⲟⲫⲓⲁ	-3722
ⲡⲟⲛⲏⲣⲟⲛ	-3723
▁ϩⲁⲧⲉϥϩⲏ	-3724
▁ⲙⲡⲁⲩⲗⲟⲥ	-3725
▁ⲙⲡⲉϥⲥⲟⲛ	-3726
▁ⲛⲁⲅⲁⲑⲟⲛ	-3727
▁ⲛⲉϥϣⲟⲟⲡ	-3728
▁ⲛⲧⲉϥϭⲟⲙ	-3729
▁ⲡⲕⲟⲥⲙⲟⲥ	-3730
ⲙⲛⲧⲁⲧϩⲏⲧ	-3731
ϩⲩⲡⲟⲙⲉⲓⲛⲉ	-3732
▁ϩⲙⲡⲉⲥⲛⲟϥ	-3733
▁ⲁⲩϣⲧⲟⲣⲧⲣ	-3734
▁ⲙⲙⲁⲑⲏⲧⲏⲥ	-3735
▁ⲙⲡⲁⲥⲉⲃⲏⲥ	-3736
▁ⲙⲡⲟⲩⲟⲉⲓⲛ	-3737
▁ⲛⲧⲉϥⲙⲁⲁⲩ	-3738
▁ⲛⲧⲉϥⲟⲣⲅⲏ	-3739
▁ⲛⲧⲉⲡϩⲩⲗⲏ	-3740
▁ⲟⲩⲡⲛⲉⲩⲙⲁ	-3741
▁ⲡⲉϫⲉⲡⲣⲣⲟ	-3742
▁ⲡⲉⲛϫⲟⲉⲓⲥ	-3743
▁ⲧⲉϥⲥϩⲓⲙⲉ	-3744
ⲭⲓⲗⲓⲁⲣⲭⲟⲥ	-3745
▁ⲙⲡⲇⲓⲕⲁⲓⲟⲥ	-3746
▁ⲙⲡⲉⲕϩⲙϩⲁⲗ	-3747
▁ⲛⲥⲁⲡϫⲟⲉⲓⲥ	-3748
▁ⲁⲩϯⲡⲉⲩⲟⲩⲟⲓ	-3749
▁ⲛⲟⲩⲇⲓⲁⲑⲏⲕⲏ	-3750
▁ⲙⲡⲙⲁⲣⲧⲩⲣⲓⲟⲛ	-3751
ⲃⲗ	-3752
ⲗϫ	-3753
ϭⲁⲓ	-3754
▁ⲅⲉ	-3755
▁ⲥⲓ	-3756
ⲁⲣⲓ	-3757
ⲕⲓⲛ	-3758
ⲗⲓⲙ	-3759
ⲛⲓⲙ	-3760
ⲣⲩⲥ	-3761
ⲥⲟⲥ	-3762
ⲥⲱⲣ	-3763
ⲧϥⲓ	-3764
ⲧⲃⲁ	-3765
ⲧⲱϩ	-3766
ⲫⲣⲟ	-3767
ⲭⲓⲥ	-3768
ϩⲣⲁⲕ	-3769
ϭⲣⲱϩ	-3770
ϯⲧⲱⲛ	-3771
▁ⲉϥⲓ	-3772
▁ⲡⲣⲏ	-3773
ⲅⲓⲟⲥ	-3774
ⲉⲓⲇⲱ	-3775
ⲗⲓⲍⲉ	-3776
ⲗⲟⲟⲩ	-3777
ⲙⲛⲱⲛ	-3778
ⲛⲟⲩⲱ	-3779
ⲟⲗⲥⲗ	-3780
ⲟⲟⲩⲛ	-3781
ⲟⲩⲏⲩ	-3782
ⲣⲁⲧⲥ	-3783
ⲣⲃⲟⲗ	-3784
ⲥⲉⲛⲁ	-3785
ⲧⲓⲙⲁ	-3786
ⲧⲱϩⲙ	-3787
ⲧⲱⲗⲙ	-3788
.....	-3789
ϩⲁⲧⲏⲩ	-3790
▁ϣⲁⲟⲩ	-3791
▁ϫⲉⲛⲅ	-3792
▁ⲁⲥϫⲓ	-3793
▁ⲉϥⲕⲏ	-3794
▁ⲛⲥⲁϥ	-3795
▁ⲛⲧⲟϣ	-3796
▁ⲡⲱⲛϩ	-3797
ⲑⲉⲧⲉⲓ	-3798
ⲛⲁⲇⲁⲃ	-3799
ⲛⲟⲩⲱϩ	-3800
ⲧⲁϩⲟϥ	-3801
ⲧⲟⲩϫⲉ	-3802
ⲫⲏⲧⲏⲥ	-3803
ϩⲉⲃⲱⲱⲛ	-3804
ϩⲟⲩⲟⲣⲧ	-3805
ϩⲥⲁϩⲛⲉ	-3806
▁ϥⲛⲁϫⲓ	-3807
▁ϩⲁⲛⲉϥ	-3808
▁ϩⲙϩⲁⲗ	-3809
▁ϯϣⲟⲟⲡ	-3810
▁ϯⲛⲁϫⲱ	-3811
▁ⲁⲓⲃⲱⲕ	-3812
▁ⲉϩⲣⲁϥ	-3813
▁ⲉⲡⲣⲣⲟ	-3814
▁ⲕⲁⲧⲁⲧ	-3815
▁ⲛⲧⲁⲩⲥ	-3816
▁ⲛⲧⲉⲡⲉ	-3817
▁ⲛⲧⲉⲣⲛ	-3818
▁ⲥⲉⲛⲁⲣ	-3819
▁ⲧϩⲓⲙⲉ	-3820
ⲉⲓⲟⲟⲩⲉ	-3821
ⲏⲗⲩⲧⲟⲥ	-3822
ⲙⲁⲣⲣⲟⲥ	-3823
ⲙⲁⲥⲕⲟⲥ	-3824
ⲙⲉⲗⲉⲧⲁ	-3825
ⲙⲟⲕⲙⲉⲕ	-3826
ⲧⲁⲛϩⲟⲩ	-3827
ⲭⲁⲣⲓⲍⲉ	-3828
▁ϩⲁϩⲧⲏϥ	-3829
▁ϩⲓϫⲱⲟⲩ	-3830
▁ϩⲙⲡⲧⲣⲁ	-3831
▁ϫⲉϩⲣⲁⲓ	-3832
▁ϫⲉⲛϯⲛⲁ	-3833
▁ϫⲉⲛⲧⲁϥ	-3834
▁ⲁϥⲣⲓⲙⲉ	-3835
▁ⲁϥⲧⲁⲁⲩ	-3836
▁ⲁϥⲧⲣⲉⲩ	-3837
▁ⲉϥⲛⲁϣⲧ	-3838
▁ⲉⲣⲉϩⲉⲛ	-3839
▁ⲛϫⲟⲉⲓⲥ	-3840
▁ⲛⲧⲟⲟⲧⲥ	-3841
▁ⲛⲧⲥⲁⲣⲝ	-3842
ⲉⲓⲇⲱⲗⲟⲛ	-3843
ⲛⲧⲟⲩⲉⲓⲏ	-3844
ⲧⲁⲙⲓⲟⲟⲩ	-3845
ⲧⲉⲕⲯⲩⲭⲏ	-3846
▁ϩⲛⲟⲩϩⲁⲡ	-3847
▁ϩⲛⲟⲩϭⲟⲙ	-3848
▁ϩⲛⲟⲩⲱⲣϫ	-3849
▁ϫⲉⲡⲉⲧⲛⲁ	-3850
▁ϯⲛⲁⲉⲓⲛⲉ	-3851
▁ⲁⲩⲟⲩⲱϣⲧ	-3852
▁ⲁⲩⲣϩⲟⲧⲉ	-3853
▁ⲕⲁⲧⲁⲡⲉϥ	-3854
▁ⲙⲡⲉⲕⲥⲟⲛ	-3855
▁ⲛⲉⲩϣⲟⲟⲡ	-3856
▁ⲛⲛⲉⲥⲛⲏⲩ	-3857
▁ⲛⲛⲉⲩϭⲓϫ	-3858
▁ⲛⲥⲉϫⲟⲟⲥ	-3859
▁ⲡⲉⲧⲟⲩⲏϩ	-3860
▁ϫⲉⲡⲁⲉⲓⲱⲧ	-3861
▁ⲙⲁⲧⲟⲩϫⲟⲓ	-3862
▁ⲛⲣⲉϥⲙⲓϣⲉ	-3863
▁ⲛⲧⲉⲧⲛⲛⲁⲩ	-3864
ⲉⲓⲱϩⲁⲛⲛⲏⲥ	-3865
ⲝⲟⲙⲟⲗⲟⲅⲉⲓ	-3866
ⲭⲉⲓⲙⲁⲣⲣⲟⲥ	-3867
▁ⲉⲛⲧⲁϥϫⲟⲟⲥ	-3868
▁ⲛⲁⲃⲏⲥⲁⲗⲱⲙ	-3869
▁ⲛⲛⲉⲛⲉⲓⲟⲧⲉ	-3870
▁ⲙⲡⲥⲁⲃⲃⲁⲧⲟⲛ	-3871
▁ⲛⲧⲉⲣⲉϥⲥⲱⲧⲙ	-3872
▁ⲛⲛⲉⲭⲁⲗⲇⲁⲓⲟⲥ	-3873
▁ⲛⲧⲟⲓⲕⲟⲩⲙⲉⲛⲏ	-3874
▁ⲛⲧⲡⲁⲣⲉⲙⲃⲟⲗⲏ	-3875
▁ⲡⲉϫⲉⲥⲁⲙⲟⲩⲏⲗ	-3876
··	-3877
ⲡⲕ	-3878
ϩⲏⲗ	-3879
ϩⲛⲧ	-3880
▁ϥⲟ	-3881
▁ϩⲩ	-3882
▁ⲛϫ	-3883
ⲁⲓⲥ	-3884
ⲁⲣⲏ	-3885
ⲗⲏⲧ	-3886
ⲗⲥⲱ	-3887
ⲛⲏⲃ	-3888
ⲟⲩⲭ	-3889
ⲧⲁϥ	-3890
ϣⲣϣⲱ	-3891
ϩⲓϫⲛ	-3892
ϭⲣⲟϭ	-3893
▁ϩⲛⲉ	-3894
▁ϯⲟⲩ	-3895
▁ⲁⲩⲉ	-3896
▁ⲉⲕⲟ	-3897
▁ⲏⲟⲩ	-3898
▁ⲛⲃⲗ	-3899
▁ⲧⲙⲉ	-3900
ⲃⲁⲱⲛ	-3901
ⲃⲏⲙⲁ	-3902
ⲅⲓⲍⲉ	-3903
ⲉⲓⲁⲥ	-3904
ⲝⲁⲛⲉ	-3905
ⲣⲓⲁⲥ	-3906
ⲥⲟⲃⲕ	-3907
ϣⲁⲛⲧⲁ	-3908
ϣⲁⲛⲧⲙ	-3909
ϥⲓⲧⲟⲩ	-3910
ϫⲓⲥⲃⲱ	-3911
ϫⲛⲁⲁⲩ	-3912
▁ϩⲓⲥⲉ	-3913
▁ϯⲛⲁⲣ	-3914
▁ⲉϥϫⲓ	-3915
▁ⲉϥⲟϣ	-3916
▁ⲉⲙⲡϥ	-3917
▁ⲉⲡⲟⲩ	-3918
▁ⲉⲧⲙⲉ	-3919
▁ⲉⲧⲱⲛ	-3920
▁ⲉⲩⲕⲏ	-3921
▁ⲙⲡⲉⲡ	-3922
▁ⲛϩⲁⲉ	-3923
▁ⲛϭⲱⲃ	-3924
▁ⲛⲛⲕⲁ	-3925
▁ⲟⲩⲱⲛ	-3926
▁ⲧⲛⲁⲩ	-3927
ⲇⲱⲗⲟⲛ	-3928
ⲕⲁⲧⲟⲛ	-3929
ⲗⲟⲅⲭⲏ	-3930
ⲙⲁⲓⲟⲥ	-3931
ⲙⲡⲩⲗⲏ	-3932
ⲛⲧⲏⲧⲛ	-3933
ⲟⲩⲱⲗⲥ	-3934
ⲥⲁⲛⲟⲩ	-3935
ⲧⲁⲗⲟϥ	-3936
ⲧⲥⲁⲃⲉ	-3937
ϣⲟⲩⲱⲟⲩ	-3938
▁ⲁⲡⲕⲁϩ	-3939
▁ⲉⲣⲉⲧⲉ	-3940
▁ⲉⲧⲁⲁϥ	-3941
▁ⲙⲡⲣⲟⲩ	-3942
▁ⲡⲇⲟⲩⲝ	-3943
ⲃⲟⲩⲛⲟⲥ	-3944
ⲇⲉⲕⲓⲁⲥ	-3945
ⲡⲁⲧⲣⲓⲁ	-3946
ⲡⲉⲩϩⲏⲧ	-3947
ⲣⲟⲕϩⲟⲩ	-3948
▁ϣⲁⲧⲛⲁⲩ	-3949
▁ϩⲛⲧⲙⲉϩ	-3950
▁ϫⲉⲉϥⲛⲁ	-3951
▁ϫⲉⲛⲧϩⲉ	-3952
▁ϫⲉⲡⲥⲁϩ	-3953
▁ϯⲛⲁⲃⲱⲕ	-3954
▁ⲁϥⲟⲩⲱⲙ	-3955
▁ⲁⲙⲏⲓⲧⲛ	-3956
▁ⲁⲩⲕⲱⲧⲉ	-3957
▁ⲉϥϫⲁϩⲙ	-3958
▁ⲉⲃⲟⲗϩⲙ	-3959
▁ⲉⲡϣⲏⲣⲉ	-3960
▁ⲉⲣⲉⲛⲉⲩ	-3961
▁ⲉⲧⲉⲣⲉⲡ	-3962
▁ⲙⲙⲉⲉⲣⲉ	-3963
▁ⲙⲡⲟⲩⲱϣ	-3964
▁ⲛⲉϩⲟⲟⲩ	-3965
▁ⲛⲥⲁϩⲉⲛ	-3966
▁ⲡⲁⲗⲁⲟⲥ	-3967
▁ⲡⲉϥⲣⲁⲛ	-3968
▁ⲡⲉⲛⲧⲁⲕ	-3969
▁ⲥⲉⲛⲁϫⲓ	-3970
▁ⲧⲉⲫⲩⲗⲏ	-3971
ⲙⲙⲱⲩⲥⲏⲥ	-3972
ⲥⲁⲗⲡⲓⲅⲝ	-3973
ⲥⲁⲗⲡⲓⲍⲉ	-3974
ⲧⲟⲩⲛⲟⲥϥ	-3975
▁ϩⲙⲡⲉϥⲏⲓ	-3976
▁ⲉⲛⲁϣⲁϫⲉ	-3977
▁ⲉⲡⲉϩⲟⲟⲩ	-3978
▁ⲙⲡⲉϥϩⲏⲧ	-3979
▁ⲙⲡⲉⲕϩⲏⲧ	-3980
▁ⲙⲡⲣϫⲟⲟⲥ	-3981
▁ⲛⲁⲓⲁⲧⲟⲩ	-3982
▁ⲛⲧⲉⲧⲛϫⲓ	-3983
ⲁⲃⲏⲥⲁⲗⲱⲙ	-3984
ⲛⲟⲩⲉⲣⲏⲧⲉ	-3985
▁ϩⲓϫⲛⲡⲕⲁϩ	-3986
▁ϩⲛⲧⲉⲟⲩϣⲏ	-3987
▁ⲉⲛⲉϩⲃⲏⲩⲉ	-3988
▁ⲛⲓⲱⲛⲁⲑⲁⲛ	-3989
▁ⲛⲛⲉⲩϣⲏⲣⲉ	-3990
▁ⲛⲟⲩⲑⲩⲥⲓⲁ	-3991
▁ⲡⲉⲧⲙⲟⲟϣⲉ	-3992
▁ⲉⲧⲛⲁⲛⲟⲩⲟⲩ	-3993
▁ⲉⲧⲣⲉϥϣⲱⲡⲉ	-3994
▁ⲙⲛⲧⲥⲛⲟⲟⲩⲥ	-3995
▁ⲙⲡⲁⲅⲅⲉⲗⲟⲥ	-3996
▁ⲛⲛⲉⲧⲙⲟⲟⲩⲧ	-3997
ⲡⲣⲟⲥⲏⲗⲩⲧⲟⲥ	-3998
▁ϩⲛⲟⲩⲡⲓⲥⲧⲓⲥ	-3999
▁ⲛⲧⲕⲟⲓⲃⲱⲧⲟⲥ	-4000
ⲕⲁⲧⲟⲛⲧⲁⲣⲭⲟⲥ	-4001
▁ⲙⲡⲉⲧϩⲓⲧⲟⲩⲱϥ	-4002
▁ϩⲛⲟⲩⲇⲓⲕⲁⲓⲟⲥⲩⲛⲏ	-4003
▁ⲙⲫ	-4004
ⲗⲱⲙ	-4005
ⲛⲕⲁ	-4006
ⲣⲏⲛ	-4007
ⲥⲏϭ	-4008
ϣⲟⲡϥ	-4009
▁ⲉⲩϯ	-4010
▁ⲥⲃⲱ	-4011
ⲁⲓⲁⲓ	-4012
ⲉⲓⲏⲩ	-4013
ⲕⲓⲃⲉ	-4014
ⲗⲁⲙⲡ	-4015
ⲙⲉϣⲧ	-4016
ⲙⲟⲣϥ	-4017
ⲙⲟⲩⲣ	-4018
ⲙⲡⲉⲓ	-4019
ⲟⲇⲟⲗ	-4020
ⲧⲁϣⲟ	-4021
ⲧⲁⲙⲉ	-4022
ⲩⲥⲓⲥ	-4023
ϣⲟⲡⲟⲩ	-4024
ϩⲓⲛⲏⲃ	-4025
▁ϩⲏⲧⲥ	-4026
▁ϩⲛⲕⲁ	-4027
▁ϫⲟⲟϥ	-4028
▁ⲉϫⲉⲛ	-4029
▁ⲕⲱⲧⲉ	-4030
▁ⲙⲡϩⲟ	-4031
▁ⲛⲁⲣⲁ	-4032
▁ⲛⲥⲁⲧ	-4033
▁ⲡⲙⲟⲩ	-4034
▁ⲥϩⲁⲓ	-4035
ⲑⲁⲙⲁⲣ	-4036
ⲗⲁⲁⲧⲉ	-4037
ⲗⲁⲧⲏⲥ	-4038
ⲛⲟϥⲣⲉ	-4039
ⲡⲁⲣⲭⲏ	-4040
ϫⲓϫⲉⲟⲩ	-4041
▁ϩⲛⲧⲉⲓ	-4042
▁ϫⲉⲛⲛⲁ	-4043
▁ⲉⲛϥⲛⲁ	-4044
▁ⲉⲛⲉⲣⲉ	-4045
▁ⲉⲩⲛⲁⲣ	-4046
▁ⲙⲛⲡⲉⲥ	-4047
▁ⲛⲁⲃⲱⲕ	-4048
▁ⲛⲛⲉⲕⲉ	-4049
▁ⲛⲥⲉⲉⲓ	-4050
▁ⲡⲛⲟⲃⲉ	-4051
▁ⲥⲉⲛⲁϯ	-4052
ⲓⲉⲣⲱⲟⲩ	-4053
ⲗⲟⲩⲗⲁⲓ	-4054
ⲛⲉϩⲟⲟⲩ	-4055
ⲡⲁⲣⲁⲃⲁ	-4056
ⲥⲟⲩⲱⲛϥ	-4057
ⲩⲫⲣⲁⲛⲉ	-4058
ⲫⲣⲟⲛⲉⲓ	-4059
ϭⲙⲡϣⲓⲛⲉ	-4060
▁......	-4061
▁ϣⲁⲛⲧⲉϥ	-4062
▁ϩⲓⲧⲛⲛⲉ	-4063
▁ϫⲉⲉⲓⲛⲁ	-4064
▁ⲁϥⲧⲁⲙⲓ	-4065
▁ⲁⲓϣⲱⲡⲉ	-4066
▁ⲁⲓⲉⲓⲙⲉ	-4067
▁ⲉϫⲙⲡⲉⲕ	-4068
▁ⲉϫⲛϩⲉⲛ	-4069
▁ⲉⲁⲙⲛⲧⲉ	-4070
▁ⲉⲡⲉⲕⲣⲟ	-4071
▁ⲉⲧⲉⲧⲛⲟ	-4072
▁ⲉⲧⲕⲱⲧⲉ	-4073
▁ⲉⲩϣⲟⲟⲡ	-4074
▁ⲙⲡⲓⲉⲣⲟ	-4075
▁ⲛϣⲡⲏⲣⲉ	-4076
▁ⲛⲅⲥⲱⲧⲙ	-4077
▁ⲛⲗⲉⲩⲉⲓ	-4078
▁ⲛⲧⲁϥⲉⲓ	-4079
▁ⲟⲩⲕⲟⲩⲓ	-4080
▁ⲡⲁⲣⲭⲱⲛ	-4081
ⲧⲛⲛⲟⲟⲩⲧ	-4082
ϣⲁⲩⲙⲟⲩⲧⲉ	-4083
▁ⲁⲩϩⲙⲟⲟⲥ	-4084
▁ⲉϫⲛⲧⲁⲡⲉ	-4085
▁ⲉⲣⲉϣⲁⲛⲧ	-4086
▁ⲙⲛⲛⲉⲩⲕⲉ	-4087
▁ⲙⲡⲡⲁⲥⲭⲁ	-4088
▁ⲛⲁⲅⲁⲑⲟⲥ	-4089
▁ⲛⲁⲥⲉⲃⲏⲥ	-4090
▁ⲛⲙⲡⲟⲗⲓⲥ	-4091
▁ⲛⲛⲉⲥⲟⲟⲩ	-4092
▁ⲛⲟⲩⲗⲁⲟⲥ	-4093
▁ⲛⲧⲉⲕϭⲓϫ	-4094
ⲇⲁⲙⲁⲥⲕⲟⲥ	-4095
ⲇⲓⲁⲕⲟⲛⲟⲥ	-4096
ⲓⲟⲣⲇⲁⲛⲏⲥ	-4097
ⲕⲁⲑⲁⲣⲥⲓⲁ	-4098
ⲕⲁⲛⲇⲁⲗⲟⲛ	-4099
ⲡⲁⲣϩⲏⲥⲓⲁ	-4100
ⲡⲓⲥⲕⲟⲡⲟⲥ	-4101
▁ϩⲛⲟⲩⲕⲱϩⲧ	-4102
▁ϩⲛⲧⲉⲩⲛⲟⲩ	-4103
▁ϩⲛⲧⲧⲁⲡⲣⲟ	-4104
▁ⲉϥⲛⲁϣⲱⲡⲉ	-4105
▁ⲉⲑⲁⲗⲁⲥⲥⲁ	-4106
▁ⲉⲧⲉⲣⲏⲙⲟⲥ	-4107
ⲙⲩⲥⲧⲏⲣⲓⲟⲛ	-4108
▁ⲙⲛⲛⲉⲧⲟⲩⲏϩ	-4109
▁ⲛⲙⲡⲉⲧϩⲟⲟⲩ	-4110
▁ⲛⲛⲉϥϩⲟⲓⲧⲉ	-4111
▁ⲛⲛⲉⲩⲉⲓⲟⲧⲉ	-4112
▁ⲛⲟⲩⲉⲓⲣⲏⲛⲏ	-4113
▁ⲡⲉⲧⲛⲁϣⲱⲡⲉ	-4114
▁ϩⲙⲡⲡⲟⲗⲉⲙⲟⲥ	-4115
▁ⲡⲉⲛⲧⲁϥϣⲱⲡⲉ	-4116
▁ⲙⲡⲡⲉⲧⲛⲁⲛⲟⲩϥ	-4117
▁ⲓ	-4118
ϣⲏⲡ	-4119
ϣⲱⲧ	-4120
ϩⲉⲧ	-4121
ⲁⲓⲑ	-4122
ⲕⲟϥ	-4123
ⲗϭⲉ	-4124
ⲛⲛⲉ	-4125
ⲛⲧⲛ	-4126
ⲟⲃϣ	-4127
ⲧⲣⲟ	-4128
ⲧⲱⲙ	-4129
ϣⲟⲃⲉ	-4130
ϩⲣⲟⲩ	-4131
ϩⲧⲏⲓ	-4132
ϫⲉⲣⲟ	-4133
▁ⲁⲛⲣ	-4134
▁ⲕⲧⲟ	-4135
▁ⲛⲁⲉ	-4136
ⲁⲓⲣⲉ	-4137
ⲃⲱⲧⲉ	-4138
ⲉⲙⲓⲛ	-4139
ⲗⲓⲟⲥ	-4140
ⲛⲧϩⲉ	-4141
ⲛⲧⲏϭ	-4142
ⲣⲏϭⲉ	-4143
ⲣⲓⲍⲉ	-4144
ⲣⲟⲙⲁ	-4145
ⲥⲃⲧⲉ	-4146
▁ϩⲁⲡⲥ	-4147
▁ϩⲓⲟⲩ	-4148
▁ⲁϩⲁϩ	-4149
▁ⲉⲕⲉϯ	-4150
▁ⲉⲛⲉⲥ	-4151
▁ⲛⲁⲡⲁ	-4152
▁ⲛⲣⲁⲛ	-4153
▁ⲡⲣⲉϥ	-4154
▁ⲧⲁⲁϥ	-4155
▁ⲧⲁⲙⲓ	-4156
ⲇⲣⲓⲟⲛ	-4157
ⲗⲁⲭⲓⲥ	-4158
ⲗⲟⲓϭⲉ	-4159
ⲗⲱⲛⲏⲥ	-4160
ⲛⲁϣⲧⲉ	-4161
ⲡⲗⲏⲅⲏ	-4162
ⲥⲉⲃⲱⲛ	-4163
ⲧⲉⲧⲛⲉ	-4164
ⲩⲣⲅⲟⲥ	-4165
ϭⲁⲙⲟⲩⲗ	-4166
▁ϩⲁⲣⲟⲕ	-4167
▁ϩⲁⲧⲉⲕ	-4168
▁ϩⲛⲙⲙⲁ	-4169
▁ϫⲉⲡⲉⲓ	-4170
▁ⲁⲥⲃⲱⲕ	-4171
▁ⲁⲩⲛⲟϭ	-4172
▁ⲉⲙⲡⲟⲩ	-4173
▁ⲉⲣⲁⲧⲕ	-4174
▁ⲉⲣⲉⲛⲁ	-4175
▁ⲉⲧⲁϩⲉ	-4176
▁ⲉⲧⲙⲛⲧ	-4177
▁ⲕⲣⲓⲛⲉ	-4178
▁ⲙⲡⲏⲩⲉ	-4179
▁ⲛⲉⲟⲟⲩ	-4180
▁ⲛⲍⲱⲟⲛ	-4181
▁ⲛⲏⲥⲁⲩ	-4182
▁ⲛⲙⲧⲟⲛ	-4183
▁ⲛⲣⲁϣⲉ	-4184
▁ⲛⲥⲓⲟⲩ	-4185
▁ⲛⲥⲱⲉⲓ	-4186
▁ⲛⲧⲁⲓⲥ	-4187
▁ⲡⲁϩⲏⲧ	-4188
▁ⲥⲃⲧⲱⲧ	-4189
ⲕⲟⲓⲛⲱⲛ	-4190
ⲕⲟⲩⲛⲁⲙ	-4191
ⲗⲁⲙⲡⲁⲥ	-4192
ⲣⲏⲙⲓⲁⲥ	-4193
ϥⲉⲛⲧⲟⲗⲏ	-4194
ϥⲓⲣⲟⲟⲩϣ	-4195
▁ϣⲁⲣⲟⲟⲩ	-4196
▁ϩⲁⲣⲁⲧϥ	-4197
▁ϫⲉⲛⲛⲉⲕ	-4198
▁ⲁϥⲟⲩⲱⲛ	-4199
▁ⲁⲕϣⲱⲡⲉ	-4200
▁ⲁⲡⲁϩⲏⲧ	-4201
▁ⲁⲩϣⲁϫⲉ	-4202
▁ⲉϫⲛⲛⲉⲕ	-4203
▁ⲉⲧⲙⲏⲧⲉ	-4204
▁ⲙⲙⲁⲧⲟⲓ	-4205
▁ⲙⲛⲧⲙⲛⲧ	-4206
▁ⲛϫⲟⲉⲓⲧ	-4207
▁ⲛⲉⲛⲧⲁϥ	-4208
▁ⲛⲧⲉⲧⲛϯ	-4209
▁ⲛⲧⲡⲩⲗⲏ	-4210
▁ⲡⲉⲧⲛⲁϯ	-4211
▁ⲡⲙⲏⲏϣⲉ	-4212
▁ⲡⲛⲉⲩⲙⲁ	-4213
▁ⲥⲉⲛⲁϩⲉ	-4214
ⲑⲩⲥⲓⲁⲍⲉ	-4215
ⲕⲉⲥⲉⲉⲡⲉ	-4216
ⲛⲏⲥⲧⲉⲓⲁ	-4217
ⲡⲓⲗⲁⲧⲟⲥ	-4218
ⲥⲉⲡⲥⲱⲡϥ	-4219
ⲧⲉϥⲙⲁⲁⲩ	-4220
ⲧⲛⲛⲟⲟⲩϥ	-4221
▁ϫⲉⲟⲩⲛⲟϭ	-4222
▁ⲁⲧⲁⲯⲩⲭⲏ	-4223
▁ⲙⲡⲣⲧⲣⲉϥ	-4224
▁ⲛⲁⲙⲟⲟϣⲉ	-4225
▁ⲛⲧⲉⲯⲩⲭⲏ	-4226
▁ⲧⲛⲥⲟⲟⲩⲛ	-4227
ⲡⲁⲅⲅⲉⲗⲟⲥ	-4228
ⲡⲁⲣⲣⲏⲥⲓⲁ	-4229
▁ϩⲛⲟⲩⲣⲁϣⲉ	-4230
▁ⲉⲣⲉⲡⲣⲱⲙⲉ	-4231
▁ⲉⲧⲃⲏⲏⲧⲟⲩ	-4232
▁ⲙⲡⲉⲓⲗⲁⲟⲥ	-4233
▁ⲙⲡⲉⲧϫⲟⲥⲉ	-4234
▁ⲛⲧⲉⲥⲕⲩⲛⲏ	-4235
▁ⲡⲉⲧⲥⲟⲟⲩⲛ	-4236
ⲕⲁⲛⲇⲁⲗⲓⲍⲉ	-4237
▁ⲙⲛⲛⲉϥⲣⲱⲙⲉ	-4238
▁ⲙⲡⲗⲓⲃⲁⲛⲟⲥ	-4239
▁ⲛⲛⲉⲧⲛⲉⲣⲏⲩ	-4240
▁ⲛⲛⲉⲩⲛⲟⲩⲧⲉ	-4241
▁ⲥⲉⲛⲁⲙⲟⲩⲧⲉ	-4242
▁ϩⲛⲧⲉⲧⲛⲙⲏⲧⲉ	-4243
▁ⲙⲡⲇⲓⲁⲃⲟⲗⲟⲥ	-4244
▁ⲛϭⲓⲛϩⲉⲑⲛⲟⲥ	-4245
▁ⲛⲧⲉⲧⲛⲥⲟⲟⲩⲛ	-4246
▁ⲛⲧⲥⲩⲛⲁⲅⲱⲅⲏ	-4247
▁ⲙⲡⲉⲑⲩⲥⲓⲁⲥⲧⲏⲣⲓⲟⲛ	-4248
ⲕϥ	-4249
ϩⲟⲛ	-4250
▁ⲁⲣ	-4251
▁ⲛⲭ	-4252
▁ⲧⲟ	-4253
ⲅⲁⲥ	-4254
ⲅⲉⲑ	-4255
ⲙⲉϥ	-4256
ⲛⲧⲓ	-4257
ⲣⲉⲓ	-4258
ⲧⲁⲣ	-4259
ϣⲥⲛⲉ	-4260
ϫⲉⲛⲉ	-4261
▁ϫⲉⲙ	-4262
▁ⲁϥⲧ	-4263
▁ⲉϥⲣ	-4264
▁ⲉⲣⲛ	-4265
▁ⲧⲱⲕ	-4266
ⲃⲟⲩⲣ	-4267
ⲉⲓⲟⲛ	-4268
ⲙⲡⲟⲩ	-4269
ⲛⲟϫⲧ	-4270
ⲟⲛⲓⲁ	-4271
ⲟⲩⲓⲁ	-4272
ⲧⲁⲩⲱ	-4273
ⲭⲱⲣⲏ	-4274
ϫⲡⲟⲟⲩ	-4275
▁ϣⲕⲁⲕ	-4276
▁ϩⲁⲧⲙ	-4277
▁ϩⲓⲣⲛ	-4278
▁ⲁⲩϭⲱ	-4279
▁ⲉϫⲛⲡ	-4280
▁ⲕⲧⲟϥ	-4281
▁ⲙⲙⲁⲓ	-4282
▁ⲛϥϫⲓ	-4283
▁ⲛϭⲓⲉ	-4284
▁ⲛⲁⲛⲁ	-4285
▁ⲛⲅⲁⲣ	-4286
▁ⲛⲥⲉⲣ	-4287
ⲇⲏⲥⲓⲥ	-4288
ⲍⲁⲭⲁⲣ	-4289
ⲑⲃⲃⲓⲉ	-4290
ⲓⲉⲛⲉϩ	-4291
ⲗⲅⲁⲗⲁ	-4292
ⲗⲡⲓⲍⲉ	-4293
ⲟⲩⲁϩϥ	-4294
ⲟⲩⲗⲱⲛ	-4295
ⲥⲩⲅⲅⲉ	-4296
ⲧⲃⲃⲟϥ	-4297
ⲧⲛⲟⲃⲉ	-4298
ⲧⲟⲙⲥϥ	-4299
ⲧⲟⲩϫⲟ	-4300
ⲭⲁⲗⲉⲃ	-4301
ⲭⲣⲉⲓⲁ	-4302
ϯⲛⲟⲩϥⲉ	-4303
▁ϩⲁⲣⲟⲛ	-4304
▁ϩⲓϫⲛⲧ	-4305
▁ϩⲛⲡⲙⲁ	-4306
▁ϫⲉⲕⲛⲁ	-4307
▁ϫⲓⲛⲡⲉ	-4308
▁ⲉϯϩⲱⲛ	-4309
▁ⲉⲧⲃⲉⲛ	-4310
▁ⲛϣⲱⲣⲡ	-4311
▁ⲛⲁⲙⲟⲩ	-4312
▁ⲛⲁⲛⲁⲩ	-4313
▁ⲛⲣⲉϥϯ	-4314
▁ⲟⲩⲟⲛϩ	-4315
ⲃⲁⲗϩⲏⲧ	-4316
ⲃⲟⲏⲑⲟⲥ	-4317
ⲓⲙⲉⲗⲉⲭ	-4318
ⲕⲉⲗⲉⲩⲉ	-4319
ⲛⲁϩⲙⲉⲧ	-4320
ⲥⲧⲣⲁⲧⲏ	-4321
ϥⲁⲓϣⲓⲛⲉ	-4322
ϫⲉⲛⲉⲡⲱⲣ	-4323
▁ϫⲉⲙⲙⲟⲛ	-4324
▁ⲁϥϣⲓⲛⲉ	-4325
▁ⲁⲩⲧⲁⲙⲉ	-4326
▁ⲉϥⲉⲓⲛⲉ	-4327
▁ⲉϥⲉⲓⲣⲉ	-4328
▁ⲉⲡϫⲟⲉⲓ	-4329
▁ⲉⲡⲣⲱⲙⲉ	-4330
▁ⲉⲧⲃⲉⲡⲁ	-4331
▁ⲉⲧⲱⲙⲛⲧ	-4332
▁ⲙⲙⲁⲉⲓⲛ	-4333
▁ⲙⲡⲁϩⲏⲧ	-4334
▁ⲙⲡⲁⲣⲁⲛ	-4335
▁ⲙⲡⲕⲱϩⲧ	-4336
▁ⲙⲡⲙⲁⲥⲉ	-4337
▁ⲛϭⲓⲛⲉⲩ	-4338
▁ⲛⲁⲟⲩⲱϩ	-4339
▁ⲛⲛⲁⲃⲁⲗ	-4340
▁ⲛⲟⲩϩⲁⲡ	-4341
▁ⲡⲉⲧⲉⲛϥ	-4342
▁ⲡⲉⲧⲛⲁϣ	-4343
▁ⲧⲧⲁⲡⲣⲟ	-4344
ⲗⲏⲗⲟⲩⲓⲁ	-4345
ⲛⲉⲩⲉⲣⲏⲩ	-4346
ⲡⲟⲣⲛⲉⲩⲉ	-4347
▁ϩⲛⲛⲣⲱⲙⲉ	-4348
▁ϫⲓⲛⲉⲛⲉϩ	-4349
▁ⲁϥⲣϩⲟⲧⲉ	-4350
▁ⲁⲩⲕⲟⲧⲟⲩ	-4351
▁ⲉⲕⲉϫⲟⲟⲥ	-4352
▁ⲉⲧⲃⲉⲡⲉⲕ	-4353
▁ⲉⲧⲧⲁⲓⲏⲩ	-4354
▁ⲛⲉⲧϣⲟⲟⲡ	-4355
▁ⲛⲓⲉⲥⲥⲁⲓ	-4356
▁ⲛⲟⲩⲟⲉⲓⲕ	-4357
▁ⲛⲧⲉϥⲁⲡⲉ	-4358
▁ⲡⲉϩⲣⲟⲟⲩ	-4359
▁ⲡⲉⲕⲉⲓⲱⲧ	-4360
ⲍⲁⲭⲁⲣⲓⲁⲥ	-4361
ⲙⲁⲕⲁⲣⲓⲟⲥ	-4362
ⲙⲛⲧϣⲁϥⲧⲉ	-4363
ⲣⲉϥϫⲓⲟⲩⲉ	-4364
ⲣⲙⲉⲓⲟⲟⲩⲉ	-4365
▁ϣⲁⲡⲉϩⲟⲟⲩ	-4366
▁ⲉⲛⲉⲓϣⲁϫⲉ	-4367
▁ⲉⲡⲉϣⲧⲉⲕⲟ	-4368
▁ⲙⲡⲉϥⲉⲟⲟⲩ	-4369
▁ⲙⲡⲉϥⲟⲩⲱϣ	-4370
▁ⲙⲡⲉϩⲣⲟⲟⲩ	-4371
▁ⲛϩⲓⲉⲣⲓⲭⲱ	-4372
▁ⲛⲇⲩⲛⲁⲧⲟⲥ	-4373
▁ⲡⲁⲅⲅⲉⲗⲟⲥ	-4374
▁ⲡⲉⲥⲡⲉⲣⲙⲁ	-4375
▁ⲉⲧⲃⲉⲧⲏⲩⲧⲛ	-4376
▁ⲙⲛⲧⲉϥⲙⲁⲁⲩ	-4377
▁ⲙⲡⲉⲑⲩⲣⲓⲟⲛ	-4378
▁ⲛϭⲓⲡⲉⲧⲣⲟⲥ	-4379
▁ⲛⲛⲉⲕϩⲙϩⲁⲗ	-4380
▁ⲛⲧⲓⲟⲩⲇⲁⲓⲁ	-4381
▁ⲡⲇⲓⲁⲃⲟⲗⲟⲥ	-4382
ϩⲟⲗⲟⲕⲁⲩⲧⲱⲙⲁ	-4383
▁ⲁϥϯⲡⲉϥⲟⲩⲟⲓ	-4384
▁ⲉⲡⲉⲭⲣⲓⲥⲧⲟⲥ	-4385
▁ⲛⲛⲉⲧⲛⲉⲓⲟⲧⲉ	-4386
▁ϩⲛⲟⲩϫⲓⲛϭⲟⲛⲥ	-4387
▁ⲛⲛⲉⲡⲣⲉⲥⲃⲩⲧⲉⲣⲟⲥ	-4388
ⲁⲑ	-4389
ⲥⲣ	-4390
ⲩⲙ	-4391
ϣⲏⲙ	-4392
ϩⲥⲉ	-4393
▁ⲅⲁ	-4394
▁ⲥⲃ	-4395
ⲁⲡⲁ	-4396
ⲗⲁⲙ	-4397
ⲗⲓⲛ	-4398
ⲡⲏⲥ	-4399
ⲡⲥⲱ	-4400
ⲣϣⲉ	-4401
ⲣⲓⲣ	-4402
ⲥⲁⲫ	-4403
ϣⲟⲟⲥ	-4404
ϩⲣⲟϣ	-4405
▁ϫⲉⲱ	-4406
▁ⲃⲱⲗ	-4407
▁ⲕⲃⲁ	-4408
▁ⲡⲗⲁ	-4409
▁ⲡⲛⲁ	-4410
▁ⲧⲣⲉ	-4411
ⲁⲓⲱⲛ	-4412
ⲁⲣⲙⲁ	-4413
ⲇⲓⲟⲛ	-4414
ⲉⲃⲟⲗ	-4415
ⲏⲗⲟⲥ	-4416
ⲕⲧⲟⲛ	-4417
ⲙⲡⲉⲕ	-4418
ⲛⲉⲩⲏ	-4419
ⲟⲃϩⲉ	-4420
ⲟⲡⲟⲩ	-4421
ⲟⲥⲟⲛ	-4422
ⲡⲗⲁⲝ	-4423
ⲣⲉⲧⲏ	-4424
ⲥⲟⲩⲱ	-4425
ⲧⲏⲧⲛ	-4426
ⲧⲱⲣⲉ	-4427
ϫⲱⲱⲗⲉ	-4428
▁ϩⲉⲛⲉ	-4429
▁ϫⲉⲙⲉ	-4430
▁ϯⲛⲁⲩ	-4431
▁ⲁⲩⲥⲱ	-4432
▁ⲉⲛⲟⲩ	-4433
▁ⲉⲧϫⲱ	-4434
▁ⲉⲧⲃⲏ	-4435
▁ⲙⲛⲁⲃ	-4436
▁ⲙⲡⲁⲧ	-4437
▁ⲛⲥⲱⲛ	-4438
▁ⲡⲉⲧⲕ	-4439
▁ⲥⲟⲧⲡ	-4440
ⲇⲓⲥⲟⲥ	-4441
ⲓⲕⲓⲙⲁ	-4442
ⲓⲙⲟⲑⲉ	-4443
ⲕⲁⲉⲓⲧ	-4444
ⲙⲟⲩⲛⲅ	-4445
ⲛⲉⲓⲛⲉ	-4446
ⲟⲩⲛⲟϭ	-4447
ⲟⲩⲱϣⲥ	-4448
ⲥⲕⲉⲩⲏ	-4449
ⲥⲟⲉⲓⲧ	-4450
......	-4451
▁ϥⲧⲟⲟⲩ	-4452
▁ϫⲓⲛⲙⲡ	-4453
▁ⲁϥⲧⲣⲉ	-4454
▁ⲉⲧⲉⲙⲛ	-4455
▁ⲉⲧⲉⲟⲩ	-4456
▁ⲛⲉⲓⲛⲁ	-4457
▁ⲛⲉⲩⲛⲁ	-4458
▁ⲛⲛⲣⲉϥ	-4459
▁ⲛⲥⲉϫⲓ	-4460
▁ⲛⲥⲓⲛⲁ	-4461
▁ⲛⲥⲛⲟϥ	-4462
▁ⲛⲥⲱⲧⲡ	-4463
▁ⲟⲩⲕⲁϩ	-4464
▁ⲧⲁⲣⲭⲏ	-4465
▁ⲧⲡⲁϣⲉ	-4466
ⲗⲉⲁⲍⲁⲣ	-4467
ⲛⲁϣⲱⲡⲉ	-4468
ⲡⲁϩⲧⲟⲩ	-4469
ⲡⲉⲛⲓⲡⲉ	-4470
ⲥⲟⲧⲙⲟⲩ	-4471
ⲧⲁⲅⲁⲡⲏ	-4472
ϭⲣⲟⲟⲙⲡⲉ	-4473
▁ϫⲉϣⲁϫⲉ	-4474
▁ϫⲉⲛⲧⲁⲕ	-4475
▁ϫⲓⲛⲙⲙⲁ	-4476
▁ϯϩⲧⲏⲧⲛ	-4477
▁ⲁϥϭⲱⲛⲧ	-4478
▁ⲁⲩϫⲟⲟⲥ	-4479
▁ⲉⲡⲉⲟⲟⲩ	-4480
▁ⲉⲡⲧⲁⲕⲟ	-4481
▁ⲉⲧⲃⲏⲏⲧ	-4482
▁ⲉⲧⲉⲧⲁⲓ	-4483
▁ⲉⲩⲉⲓⲣⲉ	-4484
▁ⲕⲁⲧⲁⲧⲉ	-4485
▁ⲙⲙⲉⲣⲓⲧ	-4486
▁ⲙⲡⲉϥϩⲟ	-4487
▁ⲙⲡⲉϥⲏⲓ	-4488
▁ⲙⲡⲕⲁⲧⲁ	-4489
▁ⲛϥⲧⲟⲟⲩ	-4490
▁ⲛⲧⲉⲣⲉⲡ	-4491
▁ⲛⲧⲟⲣⲅⲏ	-4492
▁ⲡⲉⲧⲛⲛⲁ	-4493
▁ⲥⲟⲟⲩⲧⲛ	-4494
ⲓⲙⲟⲑⲉⲟⲥ	-4495
ⲙⲱⲟⲩⲥⲏⲥ	-4496
ⲛⲉⲓϣⲁϫⲉ	-4497
ⲟⲇⲟⲗⲓⲁⲥ	-4498
▁ϩⲁⲧⲉⲕϩⲏ	-4499
▁ϩⲓⲟⲩⲛⲁⲙ	-4500
▁ϩⲙⲡϫⲁⲓⲉ	-4501
▁ⲁϥⲛⲟⲩϭⲥ	-4502
▁ⲉⲡⲉⲛⲧⲁϥ	-4503
▁ⲕⲁⲧⲁⲧⲉϥ	-4504
▁ⲛⲛⲁϣⲁϫⲉ	-4505
▁ⲡⲁⲙⲉⲣⲓⲧ	-4506
ⲙⲡⲉⲧϩⲟⲟⲩ	-4507
▁ϥⲥⲙⲁⲙⲁⲁⲧ	-4508
▁ϩⲛⲟⲩϣⲥⲛⲉ	-4509
▁ϯⲛⲁⲟⲩⲱⲛϩ	-4510
▁ⲁⲓϫⲓϣⲕⲁⲕ	-4511
▁ⲉϫⲙⲡⲧⲟⲟⲩ	-4512
▁ⲉⲧⲙⲛⲧⲣⲣⲟ	-4513
▁ⲙⲛⲓⲏⲥⲟⲩⲥ	-4514
▁ⲛϭⲓⲡϣⲏⲣⲉ	-4515
▁ⲛⲛⲉⲩⲛⲟⲃⲉ	-4516
▁ⲛⲟⲩⲙⲁⲉⲓⲛ	-4517
▁ⲛⲥⲁⲙⲟⲩⲏⲗ	-4518
▁ⲛⲧⲉⲓⲣⲏⲛⲏ	-4519
ⲥⲭⲏⲙⲟⲥⲩⲛⲏ	-4520
▁ϩⲛⲧⲉⲩⲙⲏⲧⲉ	-4521
▁ⲉϥⲁϩⲉⲣⲁⲧϥ	-4522
▁ⲉⲧⲟⲩⲙⲟⲩⲧⲉ	-4523
▁ⲙⲡⲉⲑⲣⲟⲛⲟⲥ	-4524
▁ⲟⲩⲇⲓⲕⲁⲓⲟⲥ	-4525
▁ϩⲛⲟⲩⲥⲟⲟⲩⲧⲛ	-4526
▁ⲉⲛⲧⲁⲡⲛⲟⲩⲧⲉ	-4527
▁ⲙⲛⲛⲉϥϩⲙϩⲁⲗ	-4528
▁ⲙⲡⲣⲉϥⲣⲛⲟⲃⲉ	-4529
▁ⲙⲡⲣⲧⲣⲉⲗⲁⲁⲩ	-4530
ϩⲉⲕⲁⲧⲟⲛⲧⲁⲣⲭⲟⲥ	-4531
▁ⲉⲗ	-4532
▁ⲙⲟ	-4533
▁ⲛⲍ	-4534
▁ⲧⲙ	-4535
ⲁⲧⲕ	-4536
ⲃⲉⲕ	-4537
ⲏⲗⲱ	-4538
ⲓⲭⲁ	-4539
ⲓⲱⲧ	-4540
ⲛⲁⲭ	-4541
ⲥⲱϥ	-4542
ⲫⲉⲥ	-4543
ϣⲓⲕⲉ	-4544
ϩⲁⲧⲉ	-4545
ϩⲟⲙⲧ	-4546
ϭⲟⲡϥ	-4547
▁ϩⲏⲗ	-4548
▁ϩⲓⲁ	-4549
▁ϩⲟⲙ	-4550
▁ⲉϥⲥ	-4551
▁ⲟⲩⲕ	-4552
ⲃⲓⲟⲥ	-4553
ⲇⲉⲩⲉ	-4554
ⲕⲁⲣⲙ	-4555
ⲕⲱⲛⲥ	-4556
ⲙⲯⲱⲛ	-4557
ⲛⲧⲓⲟ	-4558
ⲡⲏⲩⲉ	-4559
ⲣⲭⲉⲓ	-4560
ⲥⲓϣⲉ	-4561
ⲧⲱⲟⲩ	-4562
ⲭⲁⲗⲁ	-4563
ϩⲓⲉⲓⲧ	-4564
ϫⲃⲃⲉⲥ	-4565
ϫⲛⲟⲟⲩ	-4566
▁ϩⲉⲛⲁ	-4567
▁ϩⲧⲏϥ	-4568
▁ϩⲧⲏⲕ	-4569
▁ϫⲉⲁⲡ	-4570
▁ⲁϣⲁⲓ	-4571
▁ⲉϫⲉⲙ	-4572
▁ⲉⲁⲁϥ	-4573
▁ⲉⲁⲁⲩ	-4574
▁ⲉⲧϩⲉ	-4575
▁ⲉⲧⲉⲥ	-4576
▁ⲕⲁⲁⲧ	-4577
▁ⲙⲛⲙⲁ	-4578
▁ⲙⲡⲟⲣ	-4579
▁ⲛⲅⲁⲓ	-4580
▁ⲛⲛⲉϩ	-4581
▁ⲡϩⲱⲃ	-4582
▁ⲡⲉⲧⲁ	-4583
▁ⲧϭⲟⲙ	-4584
▁ⲧⲁⲡⲉ	-4585
ⲉⲥⲟⲟⲩ	-4586
ⲗⲗⲁⲕⲏ	-4587
ⲙⲉⲗⲟⲥ	-4588
ⲡⲉⲕⲣⲟ	-4589
ⲣⲟⲟⲩⲧ	-4590
ⲥⲁϩⲱϥ	-4591
ⲧⲁⲛϩⲟ	-4592
ⲧⲙⲁⲓⲟ	-4593
ⲫⲟⲣⲉⲓ	-4594
ϣⲟⲩⲱⲃⲉ	-4595
ϣⲡϩⲓⲥⲉ	-4596
ϩⲟⲡⲗⲟⲛ	-4597
▁ϥϣⲟⲟⲡ	-4598
▁ϩⲁⲧⲉⲩ	-4599
▁ⲙⲛⲡⲏⲓ	-4600
▁ⲛϩⲱⲧⲡ	-4601
▁ⲛⲁϩⲣⲙ	-4602
▁ⲛⲉϥϫⲱ	-4603
▁ⲛⲥⲉϩⲉ	-4604
▁ⲛⲧⲉⲛⲁ	-4605
▁ⲡⲁⲗⲓⲛ	-4606
▁ⲣⲛⲟⲃⲉ	-4607
▁ⲧⲉⲥⲙⲏ	-4608
ⲁⲥⲡⲁⲍⲉ	-4609
ⲙⲙⲏⲏϣⲉ	-4610
ⲡⲩⲣⲅⲟⲥ	-4611
ⲧⲁⲕⲟⲟⲩ	-4612
ⲧⲁⲙⲱⲧⲛ	-4613
ⲧⲉⲕϭⲓϫ	-4614
ⲧⲧⲏⲩⲧⲛ	-4615
ϩⲉⲇⲣⲓⲟⲛ	-4616
▁ϫⲉⲉⲣⲉⲡ	-4617
▁ⲁϥⲉⲓⲙⲉ	-4618
▁ⲁϥⲧⲁϩⲟ	-4619
▁ⲁⲩⲧⲁⲕⲟ	-4620
▁ⲉϥϣⲓⲛⲉ	-4621
▁ⲉϥϯⲥⲃⲱ	-4622
▁ⲉⲡⲗⲁⲟⲥ	-4623
▁ⲉⲥϫⲟⲟⲣ	-4624
▁ⲉⲧⲛⲁϣⲧ	-4625
▁ⲉⲧⲥⲟⲧⲡ	-4626
▁ⲙⲁⲩⲁⲁⲩ	-4627
▁ⲙⲡⲉⲣⲏⲧ	-4628
▁ⲛϭⲓⲟⲩⲁ	-4629
▁ⲛⲁⲥⲙⲟⲩ	-4630
▁ⲛⲅⲉⲓⲣⲉ	-4631
▁ⲛⲟⲩⲏⲣⲡ	-4632
▁ⲛⲧⲉⲥⲃⲱ	-4633
▁ⲟⲩϣⲁϫⲉ	-4634
ⲃⲓⲙⲉⲗⲉⲭ	-4635
ⲕⲉⲇⲟⲛⲓⲁ	-4636
ⲣⲟⲩⲃⲉⲓⲛ	-4637
▁ϥⲛⲁϫⲟⲟⲥ	-4638
▁ϩⲙⲡϣⲁⲁⲣ	-4639
▁ϩⲙⲡⲉϥⲙⲁ	-4640
▁ϩⲛⲟⲩⲕⲁϩ	-4641
▁ⲁϥϫⲓⲧⲟⲩ	-4642
▁ⲁⲣⲓϩⲟⲧⲉ	-4643
▁ⲁⲩⲕⲧⲟⲟⲩ	-4644
▁ⲉϥϩⲙⲟⲟⲥ	-4645
▁ⲉϥⲥⲟⲟⲩⲛ	-4646
▁ⲉⲛⲁⲛⲟⲩⲥ	-4647
▁ⲉⲥⲟⲩⲁⲁⲃ	-4648
▁ⲉⲧⲙⲧⲣⲉⲩ	-4649
▁ⲕⲁⲧⲁⲡⲉⲕ	-4650
▁ⲙⲛⲟⲩⲛⲟϭ	-4651
▁ⲛⲉϩⲓⲟⲙⲉ	-4652
▁ⲛⲛⲉⲧⲟⲛϩ	-4653
ⲉⲡⲓⲕⲁⲗⲉⲓ	-4654
▁ϩⲛⲟⲩϭⲱⲛⲧ	-4655
▁ⲉϥⲧⲁϫⲣⲏⲩ	-4656
▁ⲉⲛⲁⲛⲟⲩⲟⲩ	-4657
▁ⲉⲧⲉⲧⲏⲩⲧⲛ	-4658
▁ⲛⲉϥⲙⲟⲟϣⲉ	-4659
▁ⲛⲟⲩⲡⲟⲗⲓⲥ	-4660
▁ⲛⲥⲁⲟⲩⲛⲁⲙ	-4661
▁ⲛⲧⲉⲕⲯⲩⲭⲏ	-4662
▁ⲟⲩⲁⲅⲁⲑⲟⲛ	-4663
▁ⲡⲉϥϩⲙϩⲁⲗ	-4664
▁ⲡⲉⲧⲟⲩⲁⲁⲃ	-4665
ⲗⲗⲟⲫⲩⲗⲗⲟⲥ	-4666
ⲡⲁⲣⲁⲇⲓⲥⲟⲥ	-4667
▁ⲛⲧⲉⲣⲉϥⲃⲱⲕ	-4668
▁ⲡⲉⲧⲛⲁⲛⲟⲩϥ	-4669
ⲕⲁⲧⲁⲫⲣⲟⲛⲉⲓ	-4670
ⲙⲛⲧϣⲁⲛϩⲧⲏϥ	-4671
ⲭⲉⲓⲣⲟⲩⲃⲉⲓⲛ	-4672
▁ϩⲙⲡⲙⲉϩⲥⲁϣϥ	-4673
▁ⲛⲧⲉⲣⲉϥϣⲱⲡⲉ	-4674
▁ⲧⲇⲓⲕⲁⲓⲟⲥⲩⲛⲏ	-4675
▁ϩⲛⲧⲡⲁⲣⲉⲙⲃⲟⲗⲏ	-4676
▁ⲙⲛⲛⲉⲫⲁⲣⲓⲥⲥⲁⲓⲟⲥ	-4677
ϣⲃ	-4678
ϭⲗ	-4679
ⲡⲛ	-4680
ⲱⲗ	-4681
ϥⲧⲟ	-4682
ϩⲱϫ	-4683
ϫⲟϥ	-4684
ϫⲟⲕ	-4685
ϭⲛⲁ	-4686
▁ⲇⲁ	-4687
ⲃⲁⲛ	-4688
ⲏϥⲉ	-4689
ⲓⲛⲏ	-4690
ⲕⲁⲣ	-4691
ⲝⲉⲥ	-4692
ⲟⲙⲧ	-4693
ⲧⲏϣ	-4694
ϣⲱⲙⲉ	-4695
ϣⲱⲟⲩ	-4696
ϩⲙⲙⲉ	-4697
▁ϭⲟⲗ	-4698
▁ⲉϥⲁ	-4699
▁ⲉⲛⲟ	-4700
▁ⲉⲛⲧ	-4701
▁ⲟⲩⲃ	-4702
▁ⲟⲩⲥ	-4703
▁ⲧⲁⲣ	-4704
ⲁⲣⲭⲏ	-4705
ⲉⲓⲉⲛ	-4706
ⲙⲁⲏⲗ	-4707
ⲙⲟⲛⲧ	-4708
ⲛⲉϩⲙ	-4709
ⲛⲟϫⲥ	-4710
ⲟⲛⲟⲥ	-4711
ⲣⲏϫϥ	-4712
ⲣⲟⲩⲱ	-4713
ⲣⲭⲏⲥ	-4714
ⲥⲁϣⲉ	-4715
ⲥⲏⲫⲁ	-4716
ⲥⲟϣϥ	-4717
ⲥⲟⲟϥ	-4718
ⲧⲁⲙⲟ	-4719
ⲧⲏⲡⲉ	-4720
ⲱⲣⲧⲣ	-4721
ϣⲟⲩϣⲧ	-4722
ϩⲓⲱⲛⲉ	-4723
ϩⲟⲧϩⲧ	-4724
ϩⲩⲡⲟⲕ	-4725
ϫⲟⲟⲩⲕ	-4726
▁ϫⲁⲓⲉ	-4727
▁ⲁⲓⲕⲱ	-4728
▁ⲁⲡⲉϥ	-4729
▁ⲁⲩⲱϣ	-4730
▁ⲉⲧⲙⲡ	-4731
▁ⲕⲁⲁϥ	-4732
▁ⲙⲡⲣⲱ	-4733
▁ⲛϥⲉⲓ	-4734
▁ⲛϭⲟⲗ	-4735
▁ⲛⲅⲕⲱ	-4736
▁ⲛⲛⲏⲣ	-4737
▁ⲛⲟⲩⲕ	-4738
▁ⲟⲩⲉⲓ	-4739
ⲍⲁⲓⲟⲥ	-4740
ⲕⲉⲟⲟⲩ	-4741
ⲙⲛⲧⲙⲉ	-4742
ⲙⲟⲩϣⲧ	-4743
ⲛⲁⲅⲕⲁ	-4744
ⲛⲉϩⲡⲉ	-4745
ⲛⲓⲧⲏⲥ	-4746
ⲟⲩⲣⲟⲧ	-4747
ⲡⲱⲣⲓⲁ	-4748
ⲣⲩⲥⲥⲉ	-4749
ⲥⲕⲏⲩⲉ	-4750
ⲧⲁⲩⲟϥ	-4751
ⲧⲉⲩⲙⲁ	-4752
ⲧⲟⲉⲓⲧ	-4753
ⲧⲥⲁⲃⲟ	-4754
ⲫⲉⲥⲟⲥ	-4755
ϫⲓϣⲕⲁⲕ	-4756
▁ϣⲁⲣⲟⲛ	-4757
▁ϩⲁⲡϩⲟ	-4758
▁ϩⲓⲧⲛⲛ	-4759
▁ϩⲛⲟⲩⲥ	-4760
▁ϫⲉⲛⲉⲕ	-4761
▁ⲁⲩⲛⲉϫ	-4762
▁ⲉⲡⲉⲧⲛ	-4763
▁ⲉⲡⲟⲩⲁ	-4764
▁ⲉⲡⲱⲛϩ	-4765
▁ⲉⲧϭⲓϫ	-4766
▁ⲙⲛⲛⲉⲛ	-4767
▁ⲙⲛⲟⲩⲁ	-4768
▁ⲙⲛⲡⲉⲩ	-4769
▁ⲙⲛⲧⲉⲩ	-4770
▁ⲙⲡϩⲁⲧ	-4771
▁ⲛⲁⲃⲁⲗ	-4772
▁ⲛⲛⲁⲩⲏ	-4773
▁ⲛⲟⲩⲏⲓ	-4774
▁ⲛⲥⲁⲣⲝ	-4775
▁ⲛⲥⲏϥⲉ	-4776
▁ⲛⲧⲁⲡⲉ	-4777
ⲙⲡⲉⲙⲧⲟ	-4778
ⲛⲁⲙⲛⲧⲉ	-4779
ⲡⲉⲧϩⲏⲡ	-4780
ⲧⲏⲟⲩⲧⲛ	-4781
ϩⲏⲣⲱⲇⲏⲥ	-4782
ϫⲓⲥⲟⲟⲩⲉ	-4783
▁ϫⲉⲙⲡⲟⲩ	-4784
▁ⲁϥϭⲱϣⲧ	-4785
▁ⲁϥⲧⲁⲕⲟ	-4786
▁ⲁϥⲧⲁⲩⲟ	-4787
▁ⲁⲩⲉⲓⲙⲉ	-4788
▁ⲉⲧⲉⲛⲥⲉ	-4789
▁ⲉⲧⲥⲱⲧⲙ	-4790
▁ⲙⲙⲟⲟⲛⲉ	-4791
▁ⲙⲛⲡⲣⲣⲟ	-4792
▁ⲙⲡϭⲱⲛⲧ	-4793
▁ⲙⲡⲉⲧⲟⲩ	-4794
▁ⲛϭⲓⲡⲉϥ	-4795
▁ⲛⲁⲥⲱⲧⲙ	-4796
▁ⲛⲉⲧⲉⲧⲛ	-4797
▁ⲛⲙⲡⲁⲣⲁ	-4798
▁ⲛⲛⲁϭⲓϫ	-4799
▁ⲛⲛⲉⲧⲉⲛ	-4800
▁ⲛⲣⲁⲥⲧⲉ	-4801
▁ⲛⲧⲁϭⲓϫ	-4802
▁ⲛⲧⲉⲣⲉⲥ	-4803
▁ⲡⲉϩⲟⲩⲟ	-4804
▁ⲥⲉⲛⲁϥⲓ	-4805
ⲇⲓⲕⲁⲓⲟⲛ	-4806
ⲡⲁⲧⲁⲥⲥⲉ	-4807
ⲣⲉϥϣⲙϣⲉ	-4808
ⲧⲁⲙⲉⲓⲟⲛ	-4809
ⲧⲟⲩϫⲟⲟⲩ	-4810
▁ϩⲓⲧⲛϩⲉⲛ	-4811
▁ϩⲓⲧⲟⲟⲧⲥ	-4812
▁ϩⲙⲡⲉⲕⲣⲟ	-4813
▁ϩⲙⲡⲣⲱⲙⲉ	-4814
▁ϫⲉⲛⲧⲟⲟⲩ	-4815
▁ϯⲛⲁⲥⲙⲟⲩ	-4816
▁ⲁϥⲛⲟⲩϫⲉ	-4817
▁ⲉⲇⲁⲩⲉⲓⲇ	-4818
▁ⲉⲡⲛⲟⲙⲟⲥ	-4819
▁ⲉⲧⲃⲏⲏⲧⲕ	-4820
▁ⲉⲩⲥϩⲓⲙⲉ	-4821
▁ⲛϣⲁⲉⲛⲉϩ	-4822
▁ⲛⲅⲥⲟⲟⲩⲛ	-4823
▁ⲛⲛⲉϣⲏⲣⲉ	-4824
▁ⲛⲧⲉⲕⲙⲛⲧ	-4825
▁ⲡⲉⲧⲙⲙⲁⲩ	-4826
▁ⲧⲙⲛⲧⲣⲣⲟ	-4827
ⲃⲟⲩⲥⲁⲓⲟⲥ	-4828
ⲕⲁⲣⲙⲏⲗⲟⲥ	-4829
ⲩⲥⲧⲁⲑⲓⲟⲥ	-4830
▁ϣⲁⲛⲓⲉⲛⲉϩ	-4831
▁ϫⲉⲉⲧⲉⲧⲛⲉ	-4832
▁ϫⲉⲡⲁϣⲏⲣⲉ	-4833
▁ⲁⲩⲁⲙⲁϩⲧⲉ	-4834
▁ⲉⲛⲉⲩⲉⲣⲏⲩ	-4835
▁ⲉⲡⲓⲥⲣⲁⲏⲗ	-4836
▁ⲉⲧⲛⲁⲛⲟⲩⲥ	-4837
▁ⲉⲧⲣⲉϥⲃⲱⲕ	-4838
▁ⲛⲛⲉⲥϣⲱⲡⲉ	-4839
▁ⲛⲧⲉⲣⲟⲙⲡⲉ	-4840
▁ⲥⲉⲛⲁϫⲟⲟⲥ	-4841
ⲙⲁⲕⲉⲇⲟⲛⲓⲁ	-4842
▁ϩⲛⲟⲩⲟⲩⲛⲟϥ	-4843
▁ϩⲛⲧⲙⲛⲧⲣⲣⲟ	-4844
▁ϫⲓⲛⲡⲉϩⲟⲟⲩ	-4845
▁ⲛⲛⲁⲅⲅⲉⲗⲟⲥ	-4846
ⲥⲩⲛϩⲉⲇⲣⲓⲟⲛ	-4847
▁ⲙⲛⲧⲉϥⲥϩⲓⲙⲉ	-4848
▁ⲛⲧⲉⲑⲁⲗⲁⲥⲥⲁ	-4849
▁ⲛϩⲉⲛⲕⲉⲛⲟⲩⲧⲉ	-4850
▁ⲛϭⲓⲓⲱϩⲁⲛⲛⲏⲥ	-4851
▁ⲡⲉⲛⲧⲁϥⲧⲁⲙⲓⲉ	-4852
▁ⲛϭⲓⲛⲉϥⲙⲁⲑⲏⲧⲏⲥ	-4853
▁ⲑ	-4854
▁ⲫ	-4855
ⲟϫ	-4856
ⲣϣ	-4857
ϩⲙⲛ	-4858
ϫⲓⲧ	-4859
▁ⲛⲱ	-4860
▁ⲫⲓ	-4861
ⲇⲉⲓ	-4862
ⲇⲱⲙ	-4863
ⲕⲱⲥ	-4864
ⲗⲩⲭ	-4865
ⲙϣⲉ	-4866
ⲙⲫⲓ	-4867
ⲡⲟⲕ	-4868
ⲣⲅⲁ	-4869
ⲧⲏⲡ	-4870
ⲫⲉⲗ	-4871
ⲱⲙⲥ	-4872
ϣⲟⲩⲉ	-4873
ϩⲁⲡⲥ	-4874
ϩⲏⲧϥ	-4875
ϩⲱⲱⲣ	-4876
▁ⲁⲥⲁ	-4877
▁ⲉⲗⲓ	-4878
▁ⲡϩⲟ	-4879
▁ⲫⲓϥ	-4880
ⲇⲟⲙⲁ	-4881
ⲉⲓⲃⲉ	-4882
ⲍⲁⲣⲉ	-4883
ⲑⲉⲙⲁ	-4884
ⲓⲁⲁϥ	-4885
ⲓⲙⲟⲛ	-4886
ⲙⲁⲓⲁ	-4887
ⲙⲛⲧⲏ	-4888
ⲥⲉⲩϩ	-4889
ⲧⲁⲁⲕ	-4890
ⲧⲏⲙⲁ	-4891
ⲧⲱⲙⲥ	-4892
ⲭⲓⲙⲁ	-4893
ϩⲏⲗⲉⲓ	-4894
ϫⲓⲕⲃⲁ	-4895
ϭⲃⲟⲉⲓ	-4896
▁ϣⲟⲣⲡ	-4897
▁ϩⲏⲃⲉ	-4898
▁ϩⲓⲧⲉ	-4899
▁ϩⲱⲱⲥ	-4900
▁ⲁⲛⲉⲩ	-4901
▁ⲃⲟⲉⲥ	-4902
▁ⲉⲙⲉϥ	-4903
▁ⲛϣⲁⲩ	-4904
▁ⲛⲇⲁⲛ	-4905
▁ⲛⲕⲱⲃ	-4906
▁ⲛⲥⲁⲓ	-4907
▁ⲣⲓⲕⲉ	-4908
▁ⲧⲁϩⲉ	-4909
ⲃⲟⲥⲑⲉ	-4910
ⲓⲥⲁⲣⲁ	-4911
ⲕⲁϩⲏⲩ	-4912
ⲥⲁⲭⲁⲣ	-4913
ⲧⲁⲝⲓⲥ	-4914
ⲧⲉⲓⲛⲉ	-4915
ⲧⲉⲛⲟⲩ	-4916
ϣⲛϩⲧⲏϥ	-4917
ϫⲟⲟⲣⲟⲩ	-4918
ϭⲟⲉⲓⲗⲉ	-4919
▁ϣⲁⲣⲉⲧ	-4920
▁ϣⲟϫⲛⲉ	-4921
▁ϥⲛⲁϩⲉ	-4922
▁ϩⲓⲣⲙⲡ	-4923
▁ϫⲓⲛⲧⲁ	-4924
▁ⲁϥⲡⲱϩ	-4925
▁ⲁⲩⲛⲧϥ	-4926
▁ⲉϩⲟⲩⲟ	-4927
▁ⲉⲉⲓⲛⲉ	-4928
▁ⲉⲧϩⲏⲛ	-4929
▁ⲉⲧⲣⲉⲧ	-4930
▁ⲕⲁⲧⲁⲛ	-4931
▁ⲙⲡⲁⲧϥ	-4932
▁ⲛϩⲓⲥⲉ	-4933
▁ⲛⲉⲧϩⲓ	-4934
▁ⲛⲗⲁⲟⲥ	-4935
▁ⲛⲣⲙϩⲉ	-4936
▁ⲟⲩϫⲁⲓ	-4937
▁ⲡϣⲟⲣⲡ	-4938
▁ⲧϩⲟⲧⲉ	-4939
ⲁⲅⲁⲑⲟⲛ	-4940
ⲉⲓⲉⲛⲓⲛ	-4941
ⲙⲉⲣⲓⲧϥ	-4942
ⲛⲁⲣⲭⲱⲛ	-4943
ⲟⲗⲉⲙⲟⲥ	-4944
ⲡⲓⲧⲓⲙⲁ	-4945
ⲣⲁⲥⲙⲟⲥ	-4946
ϣⲣϣⲱⲣⲟⲩ	-4947
▁ϩⲙⲡϩⲏⲧ	-4948
▁ϩⲛⲗⲁⲁⲩ	-4949
▁ϩⲧⲟⲟⲩⲉ	-4950
▁ϫⲉⲟⲩⲟⲛ	-4951
▁ⲁϥⲕⲁⲁⲩ	-4952
▁ⲁϥⲥϩⲁⲓ	-4953
▁ⲁⲛⲥⲱⲧⲙ	-4954
▁ⲁⲩⲛⲟϫϥ	-4955
▁ⲉϥⲥⲟⲧⲡ	-4956
▁ⲉϫⲛⲛⲁⲓ	-4957
▁ⲉⲧⲉⲥⲙⲏ	-4958
▁ⲕⲁⲓⲅⲁⲣ	-4959
▁ⲕⲁⲧⲁⲛⲉ	-4960
▁ⲙⲡϩⲏⲕⲉ	-4961
▁ⲙⲡⲁⲧⲟⲩ	-4962
▁ⲙⲡⲕⲱⲧⲉ	-4963
▁ⲛϫⲓⲟⲩⲉ	-4964
▁ⲛϭⲓⲛⲉⲕ	-4965
▁ⲛⲁϣⲁϫⲉ	-4966
▁ⲛⲁⲙⲛⲧⲉ	-4967
▁ⲛⲁⲙⲟⲩϩ	-4968
▁ⲛⲅⲟⲩⲱⲙ	-4969
▁ⲛⲕⲉⲟⲩⲁ	-4970
▁ⲛⲛⲕⲟⲧⲕ	-4971
▁ⲛⲣⲣⲱⲟⲩ	-4972
▁ⲛⲥⲁⲧⲉϥ	-4973
▁ⲛⲧⲁⲩⲉⲓ	-4974
▁ⲛⲧⲉⲧⲛⲣ	-4975
▁ⲟⲩϩⲟⲟⲩ	-4976
▁ⲟⲩⲉⲓⲛⲉ	-4977
▁ⲡⲉⲕⲥⲟⲛ	-4978
▁ⲡⲉⲛⲧⲁⲓ	-4979
▁ⲧⲉⲯⲩⲭⲏ	-4980
ⲁⲃⲟⲩⲗⲱⲛ	-4981
ⲙⲉϩⲥⲛⲁⲩ	-4982
ⲛⲁⲅⲕⲁⲍⲉ	-4983
ⲛⲧⲓⲟⲭⲓⲁ	-4984
ⲡⲉⲧⲛϩⲏⲧ	-4985
ⲡⲟⲗⲉⲙⲉⲓ	-4986
ⲥⲟⲟⲩϩⲟⲩ	-4987
▁ϩⲓⲧⲟⲟⲧⲕ	-4988
▁ϩⲛⲟⲩϭⲓϫ	-4989
▁ϩⲛⲧⲥⲁⲣⲝ	-4990
▁ϫⲉⲡϣⲏⲣⲉ	-4991
▁ϫⲉⲧⲉⲛⲟⲩ	-4992
▁ⲁⲃⲉⲛⲛⲏⲣ	-4993
▁ⲁⲩⲧⲟⲙⲥϥ	-4994
▁ⲉⲕⲉⲉⲓⲣⲉ	-4995
▁ⲕⲛⲁϣⲱⲡⲉ	-4996
▁ⲙⲡⲉⲧⲣⲟⲥ	-4997
▁ⲛⲁⲟⲩⲱⲛϩ	-4998
▁ⲛⲁⲧⲥⲱⲧⲙ	-4999
▁ⲛⲉⲓⲣⲏⲛⲏ	-5000
▁ⲛⲛⲁⲣⲭⲱⲛ	-5001
▁ⲛⲛⲉϥⲃⲁⲗ	-5002
▁ⲛⲛⲉⲕϭⲓϫ	-5003
▁ⲛⲛⲉⲣⲱⲙⲉ	-5004
▁ⲡⲁϩⲙϩⲁⲗ	-5005
▁ⲡⲉⲓϣⲁϫⲉ	-5006
▁ⲡⲉⲧϩⲟⲟⲩ	-5007
▁ⲧⲉϥⲯⲩⲭⲏ	-5008
▁ⲧⲡⲓⲥⲧⲓⲥ	-5009
ⲕⲁⲑⲁⲣⲓⲍⲉ	-5010
ⲙⲁⲥⲧⲓⲅⲟⲩ	-5011
ⲛⲉⲓⲇⲏⲥⲓⲥ	-5012
ⲭⲙⲁⲗⲱⲧⲟⲥ	-5013
▁ϩⲛⲧⲉϥϭⲟⲙ	-5014
▁ⲁϥⲕⲉⲗⲉⲩⲉ	-5015
▁ⲉⲛⲧⲁϥϩⲱⲛ	-5016
▁ⲉⲧⲁⲛⲟⲙⲓⲁ	-5017
▁ⲉⲧⲣⲉⲩⲃⲱⲕ	-5018
▁ⲙⲡⲉⲕϣⲏⲣⲉ	-5019
▁ⲙⲡⲉⲧⲛⲙⲧⲟ	-5020
▁ⲙⲡⲟⲩⲉⲓⲙⲉ	-5021
▁ⲛϩⲉⲛⲕⲟⲩⲓ	-5022
▁ⲛϭⲓⲡⲉⲧⲛⲁ	-5023
▁ϩⲙⲡⲟⲩⲟⲉⲓⲛ	-5024
▁ϩⲛⲃⲏⲑⲗⲉⲉⲙ	-5025
▁ⲙⲛⲧⲉⲓⲣⲏⲛⲏ	-5026
▁ⲙⲡⲉϥϩⲙϩⲁⲗ	-5027
▁ⲙⲡⲉϥϫⲟⲉⲓⲥ	-5028
▁ⲛϩⲉⲛⲛⲟⲩⲧⲉ	-5029
▁ⲛⲁⲉⲩⲫⲣⲁⲛⲉ	-5030
▁ⲛⲛⲉⲕⲉⲓⲟⲧⲉ	-5031
▁ⲛⲧⲉϥⲥϩⲓⲙⲉ	-5032
▁ⲡⲁⲣⲭⲓⲉⲣⲉⲩⲥ	-5033
▁ϫⲉⲉⲣⲉⲡϫⲟⲉⲓⲥ	-5034
▁ⲛϭⲓⲙⲙⲁⲑⲏⲧⲏⲥ	-5035
▁ⲛⲕⲗⲏⲣⲟⲛⲟⲙⲓⲁ	-5036
▁ⲛⲛⲁϩⲣⲙⲙⲱⲩⲥⲏⲥ	-5037
................	-5038
ⲣϥ	-5039
ⲱⲓ	-5040
ϣⲛⲉ	-5041
ϣⲱϣ	-5042
ϣⲱⲛ	-5043
ϭⲱⲣ	-5044
▁ⲓⲁ	-5045
▁ⲗⲁ	-5046
ⲃⲉⲧ	-5047
ⲅⲁⲓ	-5048
ⲑⲟⲩ	-5049
ⲕⲁϣ	-5050
ⲗⲏⲑ	-5051
ⲙⲉⲗ	-5052
ⲙⲓⲥ	-5053
ⲛⲥⲉ	-5054
ⲟϩⲥ	-5055
ⲡⲣⲏ	-5056
ⲥⲉϩ	-5057
ⲥⲏⲓ	-5058
ⲥⲱⲥ	-5059
ⲧϥⲉ	-5060
ⲧⲏⲙ	-5061
ⲧⲣⲩ	-5062
ϩⲟⲃⲥ	-5063
ϭⲟⲥⲙ	-5064
ϯϩⲏⲩ	-5065
ϯⲟⲩⲱ	-5066
▁ⲃⲁⲣ	-5067
▁ⲉⲥⲓ	-5068
▁ⲉⲩⲣ	-5069
▁ⲛϫⲡ	-5070
ⲓⲙⲟⲥ	-5071
ⲓⲥⲙⲏ	-5072
ⲕⲉⲣⲁ	-5073
ⲕⲟⲧⲉ	-5074
ⲗⲱϫϩ	-5075
ⲙⲁⲛⲉ	-5076
ⲙⲙⲁⲓ	-5077
ⲛⲁⲅⲉ	-5078
ⲛⲓⲏⲗ	-5079
ⲟⲩⲛϥ	-5080
ⲟⲩⲛⲅ	-5081
ⲡⲏⲣⲡ	-5082
ⲣⲓⲙⲁ	-5083
ⲣⲟⲩⲑ	-5084
ⲥⲏⲃⲉ	-5085
ⲥⲙⲟⲥ	-5086
ⲧϭⲁⲓ	-5087
ⲧⲃⲉϥ	-5088
ϩⲁⲗⲏⲧ	-5089
▁ϩⲏⲧⲕ	-5090
▁ϩⲛϩⲉ	-5091
▁ⲁⲓϥⲓ	-5092
▁ⲁⲕⲕⲁ	-5093
▁ⲁⲕⲕⲱ	-5094
▁ⲉⲛⲉⲛ	-5095
▁ⲙⲙⲉⲗ	-5096
▁ⲙⲙⲏⲧ	-5097
▁ⲙⲙⲙⲟ	-5098
▁ⲙⲛⲕⲉ	-5099
▁ⲙⲛⲥⲓ	-5100
▁ⲛϣⲣⲡ	-5101
▁ⲛϥϩⲉ	-5102
▁ⲛϯⲟⲩ	-5103
▁ⲛⲁϥⲓ	-5104
▁ⲛⲉⲟⲩ	-5105
▁ⲛⲉⲧⲟ	-5106
▁ⲛⲟⲩϩ	-5107
▁ⲛⲥⲁⲗ	-5108
▁ⲧⲙⲉϩ	-5109
▁ⲧⲱⲇⲏ	-5110
ⲁϣⲕⲁⲕ	-5111
ⲁⲓⲃⲉⲥ	-5112
ⲁⲣⲏϫϥ	-5113
ⲃⲁⲣⲟⲥ	-5114
ⲃⲣⲏϭⲉ	-5115
ⲇⲓⲕⲓⲁ	-5116
ⲙⲉϣϣⲉ	-5117
ⲛⲟⲉⲓⲛ	-5118
ⲡⲁϩⲏⲧ	-5119
ⲧⲟⲟⲧⲕ	-5120
ϩⲁⲅⲓⲟⲥ	-5121
▁ϩⲛⲧⲙⲉ	-5122
▁ϩⲧⲏⲧⲛ	-5123
▁ϫⲉⲙⲡⲓ	-5124
▁ⲉϥⲉϫⲓ	-5125
▁ⲉⲕⲉϫⲓ	-5126
▁ⲉⲙⲛⲧϥ	-5127
▁ⲉⲛⲧⲟϣ	-5128
▁ⲉⲣⲱⲟⲩ	-5129
▁ⲉⲧⲁⲕⲟ	-5130
▁ⲉⲩⲥⲙⲏ	-5131
▁ⲙⲁⲣⲓⲁ	-5132
▁ⲙⲛϭⲟⲙ	-5133
▁ⲙⲡϩⲱⲃ	-5134
▁ⲙⲡⲣⲏⲥ	-5135
▁ⲙⲡⲣⲕⲱ	-5136
▁ⲛϩⲗⲗⲟ	-5137
▁ⲛϩⲧⲏⲩ	-5138
▁ⲛϭⲓⲧⲉ	-5139
▁ⲛⲃⲟⲧⲉ	-5140
▁ⲛⲉⲧϫⲱ	-5141
▁ⲛⲟⲩⲱϩ	-5142
▁ⲛⲥⲙⲟⲧ	-5143
▁ⲟⲩϩⲱⲃ	-5144
▁ⲟⲩⲱϣϥ	-5145
▁ⲣϩⲟⲧⲉ	-5146
▁ⲥⲓⲙⲱⲛ	-5147
ⲅⲉⲇⲉⲱⲛ	-5148
ⲕⲓⲑⲁⲣⲁ	-5149
ⲗⲩⲭⲛⲓⲁ	-5150
ⲛⲧⲁϥⲧⲉ	-5151
ⲟⲩⲁϣⲟⲩ	-5152
ⲡⲁⲥⲙⲟⲥ	-5153
ⲡⲁⲧϩⲏⲧ	-5154
ϩⲉⲛⲉⲃⲟⲗ	-5155
▁ϩⲉⲛⲛⲟϭ	-5156
▁ϩⲙⲡⲙⲟⲩ	-5157
▁ϫⲉⲛⲛⲉϥ	-5158
▁ⲁϥϫⲓⲧϥ	-5159
▁ⲁϥⲛⲟϫϥ	-5160
▁ⲁⲓⲁⲕⲱⲃ	-5161
▁ⲉϥⲥϩⲁⲓ	-5162
▁ⲉϫⲙⲡⲉⲩ	-5163
▁ⲉϫⲛⲛⲉⲧ	-5164
▁ⲉϫⲛⲧⲉⲕ	-5165
▁ⲉⲡⲉⲕⲏⲓ	-5166
▁ⲉⲧϩⲛⲧⲉ	-5167
▁ⲉⲧⲉⲙⲡⲉ	-5168
▁ⲉⲧⲉⲛⲁⲓ	-5169
▁ⲙⲁⲩⲁⲁⲕ	-5170
▁ⲙⲛϣϭⲟⲙ	-5171
▁ⲛϥϫⲟⲟⲥ	-5172
▁ⲛϭⲓⲡⲉⲕ	-5173
▁ⲛⲁϩⲣⲁϥ	-5174
▁ⲛⲁⲟⲩⲱⲙ	-5175
▁ⲛⲛⲧⲟⲟⲩ	-5176
▁ⲛⲟⲩϭⲟⲙ	-5177
▁ⲛⲥϣⲱⲡⲉ	-5178
▁ⲛⲥⲁⲃⲏⲗ	-5179
▁ⲛⲥⲁⲡⲉϥ	-5180
▁ⲟⲩⲕⲱϩⲧ	-5181
▁ⲥⲉⲛⲁϫⲱ	-5182
ⲃⲁⲥⲁⲛⲟⲥ	-5183
ⲇⲟⲩⲙⲁⲓⲁ	-5184
ⲛⲁⲭⲱⲣⲉⲓ	-5185
ⲛⲟⲙⲓⲙⲟⲛ	-5186
ⲩⲛⲁⲅⲱⲅⲏ	-5187
ⲫⲣⲁⲅⲓⲍⲉ	-5188
ϩⲩⲡⲟⲙⲓⲛⲉ	-5189
▁ϩⲁⲧⲉⲩϩⲏ	-5190
▁ϩⲙⲡⲁⲣⲁⲛ	-5191
▁ϫⲉⲟⲩⲟⲉⲓ	-5192
▁ϯⲛⲁϣⲱⲡⲉ	-5193
▁ⲁⲩϫⲛⲟⲩϥ	-5194
▁ⲉⲙⲱⲩⲥⲏⲥ	-5195
▁ⲉⲛⲉϥϭⲓϫ	-5196
▁ⲉⲡⲉⲕⲣⲁⲛ	-5197
▁ⲉⲡⲉⲥⲣⲁⲛ	-5198
▁ⲉⲧⲃⲉⲡⲉϥ	-5199
▁ⲉⲧⲉⲙⲡⲟⲩ	-5200
▁ⲉⲩⲟⲩϫⲁⲓ	-5201
▁ⲙⲛⲓⲁⲕⲱⲃ	-5202
▁ⲙⲡⲁⲧϩⲏⲧ	-5203
▁ⲛⲁⲧⲱⲟⲩⲛ	-5204
▁ⲛⲅⲙⲟⲟϣⲉ	-5205
▁ⲛⲛⲁⲧϩⲏⲧ	-5206
▁ⲛⲛⲉⲕⲃⲁⲗ	-5207
▁ⲛⲛⲥⲟⲫⲟⲥ	-5208
▁ⲛⲟⲩⲙⲁⲥⲉ	-5209
▁ⲛⲧⲉⲡⲕⲁϩ	-5210
▁ⲛⲧⲉⲧⲛⲛⲁ	-5211
▁ⲡⲉⲧⲉⲓⲣⲉ	-5212
▁ⲡⲉⲧⲉⲟⲩⲛ	-5213
▁ⲡⲉⲧⲉⲧⲛⲁ	-5214
ⲙⲡⲉⲩϣⲓⲛⲉ	-5215
ⲛⲉϩⲓⲟⲟⲩⲉ	-5216
ⲡⲉⲡⲛⲉⲩⲙⲁ	-5217
ϩⲩⲡⲟⲧⲁⲥⲥⲉ	-5218
▁ϣⲁϩⲧⲟⲟⲩⲉ	-5219
▁ϩⲙⲡϫⲱⲱⲙⲉ	-5220
▁ϩⲛⲙⲡⲟⲗⲓⲥ	-5221
▁ⲁϩⲉⲣⲁⲧⲟⲩ	-5222
▁ⲁⲩϫⲓϣⲕⲁⲕ	-5223
▁ⲉϫⲛⲛϣⲏⲣⲉ	-5224
▁ⲉⲡⲟⲩⲟⲉⲓⲛ	-5225
▁ⲉⲩⲛⲟϭⲛⲉϭ	-5226
▁ⲕⲁⲧⲁⲥⲁⲣⲝ	-5227
▁ⲙⲙⲟⲛⲁⲭⲟⲥ	-5228
▁ⲙⲡⲉϩⲓⲉⲓⲃ	-5229
▁ⲙⲡⲟⲩⲥⲱⲧⲙ	-5230
▁ⲛⲉϩⲓⲟⲟⲩⲉ	-5231
▁ⲛⲉⲩⲙⲟⲟϣⲉ	-5232
▁ⲛⲥⲁⲧⲉⲉⲣⲉ	-5233
▁ⲛⲧⲁⲩϣⲱⲡⲉ	-5234
ⲡⲉⲓⲣⲁⲥⲙⲟⲥ	-5235
▁ⲁⲗⲗⲏⲗⲟⲩⲓⲁ	-5236
▁ⲉϫⲛⲧⲉϥⲁⲡⲉ	-5237
▁ⲉⲛⲧⲁϥϣⲱⲡⲉ	-5238
▁ⲉⲧⲉⲧⲛⲉⲓⲣⲉ	-5239
▁ⲙⲡⲣⲟⲫⲏⲧⲏⲥ	-5240
▁ⲛϭⲓⲡⲉⲛⲧⲁϥ	-5241
▁ⲛⲛⲉϥϩⲃⲏⲩⲉ	-5242
ⲡⲉⲧⲛⲁⲛⲟⲩⲟⲩ	-5243
▁ϩⲓⲧⲛⲓⲏⲥⲟⲩⲥ	-5244
▁ϩⲛⲟⲩⲡⲛⲉⲩⲙⲁ	-5245
▁ϩⲛⲧⲓⲟⲩⲇⲁⲓⲁ	-5246
▁ϫⲉⲓⲱϩⲁⲛⲛⲏⲥ	-5247
▁ϫⲉⲙⲡⲣⲣϩⲟⲧⲉ	-5248
▁ϯⲡⲁⲣⲁⲕⲁⲗⲉⲓ	-5249
▁ⲛⲉϥⲙⲁⲑⲏⲧⲏⲥ	-5250
▁ⲛⲥⲁⲡⲉϩⲣⲟⲟⲩ	-5251
▁ⲡⲉⲧⲉⲟⲩⲛⲧⲁϥ	-5252
▁ⲛⲛⲉϥⲟⲩⲉⲣⲏⲧⲉ	-5253
▁ⲙⲛⲛⲉⲅⲣⲁⲙⲙⲁⲧⲉⲩⲥ	-5254
ϥⲧ	-5255
ⲑⲟ	-5256
ⲗⲕ	-5257
ϩⲙⲥ	-5258
ϫϩϫ	-5259
ϭⲱⲙ	-5260
▁ⲁϫ	-5261
▁ⲛⲡ	-5262
▁ⲛⲣ	-5263
▁ⲭⲱ	-5264
ⲇⲁⲣ	-5265
ⲑⲓⲁ	-5266
ⲕⲟⲧ	-5267
ⲗⲟⲕ	-5268
ⲛⲁⲡ	-5269
ⲛⲥⲁ	-5270
ⲟⲣϣ	-5271
ⲟⲩⲙ	-5272
ⲣⲁⲃ	-5273
ⲥⲱⲛ	-5274
ⲭⲁⲃ	-5275
ⲭⲱⲗ	-5276
ⲱϭⲉ	-5277
ⲱⲕⲉ	-5278
ⲱⲧϩ	-5279
ϩⲙⲉⲧ	-5280
ϩⲟⲡϥ	-5281
ϩⲟⲣϣ	-5282
ϫⲃⲓⲛ	-5283
ϫⲏϭⲉ	-5284
ϭⲟⲣϭ	-5285
▁ϩⲏⲛ	-5286
▁ⲁⲟⲩ	-5287
▁ⲁⲧⲁ	-5288
▁ⲛϥⲣ	-5289
▁ⲥⲟⲩ	-5290
ⲁⲕⲓⲙ	-5291
ⲃⲁⲓⲑ	-5292
ⲓⲛⲟⲛ	-5293
ⲕⲁⲡⲉ	-5294
ⲙⲉⲓⲛ	-5295
ⲙⲓⲭⲁ	-5296
ⲙⲙⲁⲕ	-5297
ⲛⲓϥⲉ	-5298
ⲟⲗⲟⲩ	-5299
ⲧⲁⲁⲧ	-5300
ⲧⲃⲛⲏ	-5301
ⲧⲟⲩⲣ	-5302
ⲱⲥⲏⲫ	-5303
ϣⲟⲉⲓϣ	-5304
ϩⲏⲧⲟⲩ	-5305
ϩⲟⲡⲟⲩ	-5306
▁ϣⲱϫⲡ	-5307
▁ϩⲁⲧⲁ	-5308
▁ϫⲉⲁϩ	-5309
▁ϫⲉⲁⲧ	-5310
▁ϫⲉⲉⲥ	-5311
▁ϫⲓⲧⲥ	-5312
▁ϭⲱⲛⲧ	-5313
▁ⲁⲓϩⲉ	-5314
▁ⲉⲩϥⲓ	-5315
▁ⲛϩⲣⲉ	-5316
▁ⲛⲁⲣⲭ	-5317
▁ⲛⲉϥⲟ	-5318
▁ⲛⲉϩⲉ	-5319
▁ⲛⲉⲩⲉ	-5320
▁ⲛⲏⲣⲡ	-5321
▁ⲛⲓⲁⲃ	-5322
▁ⲛⲙⲙⲉ	-5323
▁ⲡⲁⲙⲁ	-5324
▁ⲧⲁⲣⲉ	-5325
ⲅⲉⲓⲗⲉ	-5326
ⲉⲓⲁⲧϥ	-5327
ⲕⲏⲧⲁⲥ	-5328
ⲗⲁⲃⲁⲛ	-5329
ⲗⲁⲇⲟⲥ	-5330
ⲛϩⲏⲧϥ	-5331
ⲛⲁⲃⲱⲕ	-5332
ⲛⲟⲩⲟⲓ	-5333
ⲟⲩⲱⲛϥ	-5334
ⲡⲉⲕϩⲟ	-5335
ⲡⲉⲧⲁⲥ	-5336
ⲡⲟⲣⲛⲏ	-5337
ⲣⲙⲉⲓⲏ	-5338
ⲣⲩⲑⲣⲁ	-5339
ⲥⲟⲟⲛⲉ	-5340
ⲥⲟⲟⲩⲉ	-5341
ⲧⲁⲙⲟⲛ	-5342
ⲧⲁⲥⲓⲁ	-5343
ⲧⲟⲡⲟⲥ	-5344
ⲫⲓⲁⲗⲏ	-5345
ⲱⲧⲓⲍⲉ	-5346
ϩⲕⲁⲉⲓⲧ	-5347
▁ϥⲛⲁⲉⲓ	-5348
▁ϩⲁⲡⲉϥ	-5349
▁ϩⲓⲃⲟⲗ	-5350
▁ϩⲓⲡⲉϥ	-5351
▁ϩⲙⲡⲟⲩ	-5352
▁ϩⲛⲛⲉⲓ	-5353
▁ϫⲉⲁⲣⲓ	-5354
▁ϫⲉⲉⲧⲓ	-5355
▁ϫⲉⲛⲁϣ	-5356
▁ϫⲉⲛⲉⲓ	-5357
▁ϫⲓⲛⲟⲩ	-5358
▁ϯⲟⲩⲱϣ	-5359
▁ϯⲥⲟⲡⲥ	-5360
▁ⲁⲥϫⲡⲟ	-5361
▁ⲉⲩⲙⲛⲧ	-5362
▁ⲙⲁⲣⲉⲛ	-5363
▁ⲙⲙⲓⲛⲉ	-5364
▁ⲙⲡⲉⲩⲥ	-5365
▁ⲙⲡⲱϩⲥ	-5366
▁ⲛϥⲃⲱⲕ	-5367
▁ⲛϭⲓⲥⲁ	-5368
▁ⲛⲁⲇⲁⲙ	-5369
▁ⲛⲁⲛⲁⲓ	-5370
▁ⲛⲥⲁⲡⲁ	-5371
▁ⲛⲥⲟⲩⲟ	-5372
▁ⲛⲥⲱⲣⲙ	-5373
▁ⲛⲧⲁⲓⲱ	-5374
▁ⲡϩⲟⲟⲩ	-5375
▁ⲡⲉⲧⲙⲉ	-5376
▁ⲡⲟⲉⲓⲕ	-5377
▁ⲡⲟⲩⲱϣ	-5378
▁ⲧⲉⲥⲃⲱ	-5379
ⲕⲟⲩϫⲁⲓ	-5380
ⲛⲁϩⲙⲉϥ	-5381
ⲛⲧⲏⲩⲧⲛ	-5382
ⲟⲩⲕⲟⲩⲓ	-5383
ⲧⲉⲧⲛⲉⲓ	-5384
ⲧⲟⲟⲧⲟⲩ	-5385
ⲧⲣϩⲟⲧⲉ	-5386
▁ϫⲉϩⲁⲡⲥ	-5387
▁ϫⲉⲁϫⲓⲥ	-5388
▁ϫⲉⲛⲅⲛⲁ	-5389
▁ⲁϥϫⲓⲥⲉ	-5390
▁ⲁⲩⲟⲩⲱⲛ	-5391
▁ⲉϥⲕⲱⲧⲉ	-5392
▁ⲉϥⲟⲩⲏϩ	-5393
▁ⲉϥⲟⲩⲱϣ	-5394
▁ⲉⲕⲣⲓⲛⲉ	-5395
▁ⲉⲙⲡⲁⲧϥ	-5396
▁ⲉⲥϩⲟⲟⲩ	-5397
▁ⲉⲧⲟⲟⲧⲉ	-5398
▁ⲉⲧⲥⲱϣⲉ	-5399
▁ⲕⲁⲧⲁⲡⲁ	-5400
▁ⲙⲁⲗⲗⲟⲛ	-5401
▁ⲙⲛⲛⲥⲱϥ	-5402
▁ⲙⲡϫⲁϫⲉ	-5403
▁ⲙⲡⲛⲟⲩⲃ	-5404
▁ⲙⲡⲛⲟⲩⲛ	-5405
▁ⲛϩⲟⲓⲛⲉ	-5406
▁ⲛϭⲓⲁⲡⲁ	-5407
▁ⲛⲣⲉϥϫⲓ	-5408
▁ⲛⲧⲉⲟⲩⲁ	-5409
▁ⲛⲧⲟⲟⲩⲛ	-5410
▁ⲡⲉϥϩⲏⲧ	-5411
▁ⲧⲁⲙⲁⲁⲩ	-5412
ⲕⲁⲧⲏⲅⲟⲣ	-5413
ⲡⲉⲕⲉⲓⲱⲧ	-5414
ⲡⲉⲧⲁⲥⲙⲁ	-5415
ⲣⲁⲧⲥⲱⲧⲙ	-5416
▁ϩⲙⲡϩⲟⲟⲩ	-5417
▁ϩⲙⲡⲁϣⲁⲓ	-5418
▁ϫⲉⲧⲉⲧⲛⲁ	-5419
▁ϯⲛⲁϫⲟⲟⲩ	-5420
▁ϯⲛⲁⲉⲓⲣⲉ	-5421
▁ⲁϥⲛⲕⲟⲧⲕ	-5422
▁ⲉⲙⲛⲗⲁⲁⲩ	-5423
▁ⲉⲙⲛⲙⲟⲟⲩ	-5424
▁ⲉⲩⲙⲉⲉⲩⲉ	-5425
▁ⲉⲩⲙⲟⲩⲧⲉ	-5426
▁ⲕⲁⲧⲁⲛⲉϥ	-5427
▁ⲙⲛⲓⲥⲁⲁⲕ	-5428
▁ⲙⲛⲡⲉϥⲏⲓ	-5429
▁ⲙⲛⲡⲉⲟⲟⲩ	-5430
▁ⲛϭⲓⲛⲧⲟϣ	-5431
▁ⲛⲃⲁⲁⲙⲡⲉ	-5432
▁ⲛⲙⲙⲏⲏϣⲉ	-5433
▁ⲛⲥⲩⲙⲉⲱⲛ	-5434
ⲙⲁⲓⲛⲟⲩⲧⲉ	-5435
ⲙⲫⲓⲃⲟⲥⲑⲉ	-5436
▁ϩⲛⲛⲉϥϭⲓϫ	-5437
▁ϩⲛⲟⲩⲉⲟⲟⲩ	-5438
▁ϩⲛⲟⲩⲥⲏϥⲉ	-5439
▁ϫⲉⲟⲩⲉⲃⲟⲗ	-5440
▁ϫⲉⲟⲩⲣⲱⲙⲉ	-5441
▁ⲛⲉϥϩⲙⲟⲟⲥ	-5442
▁ⲛⲉϥⲥⲟⲟⲩⲛ	-5443
▁ⲛⲉⲧⲣϩⲟⲧⲉ	-5444
▁ⲛⲥⲉⲟⲩⲱϣⲧ	-5445
▁ⲛⲧⲉⲣⲉϥϫⲉ	-5446
▁ⲛⲧⲉⲧⲏⲩⲧⲛ	-5447
▁ⲛⲧⲉⲧⲛϩⲉⲛ	-5448
ⲭⲙⲁⲗⲱⲧⲓⲍⲉ	-5449
▁ⲉϣⲁⲩⲙⲟⲩⲧⲉ	-5450
▁ⲉⲧⲣⲉⲩϣⲱⲡⲉ	-5451
▁ⲙⲡⲉⲧⲛⲥⲱⲧⲙ	-5452
▁ⲙⲡⲓⲟⲩⲟⲉⲓϣ	-5453
▁ⲙⲡⲡⲟⲛⲏⲣⲟⲛ	-5454
▁ⲛⲥⲁⲡⲛⲟⲩⲧⲉ	-5455
▁ϣⲁⲣⲉⲟⲩⲣⲱⲙⲉ	-5456
▁ϩⲛⲛⲉϩⲓⲟⲟⲩⲉ	-5457
▁ϩⲛⲟⲩⲕⲗⲏⲣⲟⲥ	-5458
▁ⲉⲧⲉⲧⲛⲥⲟⲟⲩⲛ	-5459
▁ⲙⲡⲁⲣⲁⲛⲟⲙⲟⲥ	-5460
ϫⲕ	-5461
ⲁϣ	-5462
ϣⲙⲧ	-5463
ϣⲛⲏ	-5464
ϩⲉϫ	-5465
ϩⲏⲙ	-5466
ϫⲱⲥ	-5467
ϯϩⲉ	-5468
▁ⲁⲅ	-5469
▁ⲡⲟ	-5470
ⲃⲁϣ	-5471
ⲅⲉⲛ	-5472
ⲇⲉⲕ	-5473
ⲗⲉϫ	-5474
ⲗⲉⲗ	-5475
ⲗⲟϫ	-5476
ⲗⲩⲡ	-5477
ⲟϭⲉ	-5478
ⲣⲓⲡ	-5479
ⲧⲙⲡ	-5480
ⲭⲉⲇ	-5481
ⲭⲏⲗ	-5482
ϩⲛⲁϥ	-5483
ϩⲟⲥⲉ	-5484
ϫⲡⲟⲕ	-5485
ϭⲃⲃⲉ	-5486
▁ϣⲁⲕ	-5487
▁ⲁⲕⲣ	-5488
▁ⲁⲥⲣ	-5489
▁ⲙⲡⲥ	-5490
▁ⲙⲫⲁ	-5491
▁ⲛⲁⲗ	-5492
▁ⲛⲕⲏ	-5493
▁ⲛⲧⲓ	-5494
▁ⲡⲱϣ	-5495
▁ⲧⲁϫ	-5496
ⲁⲓⲟⲛ	-5497
ⲅⲓⲗⲉ	-5498
ⲉⲓⲧⲛ	-5499
ⲉⲣⲏⲧ	-5500
ⲓⲙⲓⲁ	-5501
ⲙⲙⲁⲛ	-5502
ⲙⲟⲧⲛ	-5503
ⲛⲁϣⲧ	-5504
ⲛⲓⲍⲉ	-5505
ⲟⲙⲟⲩ	-5506
ⲟⲩⲟϫ	-5507
ⲟⲩⲟⲡ	-5508
ⲡⲉⲩⲥ	-5509
ⲡⲟⲩⲱ	-5510
ⲣⲁⲙⲉ	-5511
ⲣⲙⲁⲛ	-5512
ⲣⲙⲱⲛ	-5513
ⲥⲟⲩⲣ	-5514
ⲧϥⲛⲁ	-5515
ⲫⲉⲣⲉ	-5516
ⲭⲓⲱⲛ	-5517
ⲯⲓⲧⲉ	-5518
ϩⲉⲛⲛⲁ	-5519
ϩⲟⲉⲓⲙ	-5520
ϩⲣⲏⲣⲉ	-5521
ϩⲱⲱⲕⲉ	-5522
ϭⲟⲗⲧⲉ	-5523
▁ϣⲗⲏⲗ	-5524
▁ϩⲁⲛⲉ	-5525
▁ϩⲱⲃⲥ	-5526
▁ϫⲓⲛⲡ	-5527
▁ⲁϥϫⲉ	-5528
▁ⲁⲕϫⲓ	-5529
▁ⲁⲡⲉⲩ	-5530
▁ⲉⲙⲟⲩ	-5531
▁ⲉⲟⲩⲛ	-5532
▁ⲉⲧⲟϣ	-5533
▁ⲕⲛⲁⲣ	-5534
▁ⲙⲛⲥⲉ	-5535
▁ⲙⲡϣⲓ	-5536
▁ⲛϫⲱⲙ	-5537
▁ⲛⲛⲕⲉ	-5538
▁ⲛⲣⲙⲛ	-5539
▁ⲛⲧⲁⲣ	-5540
▁ⲛⲧⲕⲉ	-5541
▁ⲡϣⲣⲡ	-5542
▁ⲡⲱϩⲧ	-5543
▁ⲣⲓⲙⲉ	-5544
▁ⲥⲁϩⲱ	-5545
ⲍⲁⲣⲟⲥ	-5546
ⲓⲛⲑⲟⲥ	-5547
ⲓⲧⲉⲓⲁ	-5548
ⲕⲣⲙⲉⲥ	-5549
ⲗⲏⲑⲱⲥ	-5550
ⲙⲙⲓⲥⲉ	-5551
ⲛⲁⲁⲕⲉ	-5552
ⲡⲓⲉⲣⲟ	-5553
ⲣϭⲣⲱϩ	-5554
ⲣⲁϩⲧϥ	-5555
ⲣⲏⲏⲧⲉ	-5556
ⲣⲟⲕϩϥ	-5557
ⲣⲟⲕϩⲥ	-5558
ⲥⲁϩⲱⲕ	-5559
ⲥⲁⲃⲉⲉ	-5560
ⲥⲁⲣⲓⲁ	-5561
ⲧⲁϭⲥⲉ	-5562
ⲧⲁⲗⲏⲩ	-5563
ⲧⲓⲕⲟⲛ	-5564
ⲧⲙⲟⲕϩ	-5565
ⲩⲥⲙⲟⲥ	-5566
ⲭⲁⲓⲣⲉ	-5567
ϩⲉⲣⲁⲧⲕ	-5568
ϩⲟⲣⲟⲙⲁ	-5569
▁ϩⲓⲱⲱⲕ	-5570
▁ϩⲛⲟⲩϯ	-5571
▁ⲁϥϫⲱϩ	-5572
▁ⲁϥⲕⲱⲧ	-5573
▁ⲉϥⲥⲱⲕ	-5574
▁ⲉⲟⲩⲱϩ	-5575
▁ⲉⲩⲕⲁϩ	-5576
▁ⲙⲙⲁϩⲉ	-5577
▁ⲙⲙⲁⲁⲃ	-5578
▁ⲙⲙⲟⲩⲓ	-5579
▁ⲙⲛⲟⲩⲉ	-5580
▁ⲙⲛⲡⲉⲓ	-5581
▁ⲙⲡⲛⲟϭ	-5582
▁ⲙⲡⲛⲟⲩ	-5583
▁ⲛϥⲙⲟⲩ	-5584
▁ⲛϭⲓⲁⲃ	-5585
▁ⲛⲛⲃⲁⲗ	-5586
▁ⲛⲟⲩⲧⲉ	-5587
▁ⲛⲥⲙⲟⲩ	-5588
▁ⲛⲧⲁⲛⲁ	-5589
▁ⲡⲉⲧϩⲓ	-5590
▁ⲡⲕⲁⲕⲉ	-5591
▁ⲥⲁϩⲛⲉ	-5592
▁ⲧⲁϫⲣⲟ	-5593
▁ⲧⲟⲣⲅⲏ	-5594
▁ⲧⲱⲙⲛⲧ	-5595
▁ⲭⲱⲣⲓⲥ	-5596
ⲛⲁϩⲙⲟⲩ	-5597
ⲛⲁⲓⲧⲉⲓ	-5598
ⲛⲉⲣⲅⲉⲓ	-5599
ⲧⲁⲩⲟⲟⲩ	-5600
ⲧⲙⲁⲉⲓⲟ	-5601
ⲧⲥⲁⲃⲟⲕ	-5602
▁ϥⲛⲁⲙⲟⲩ	-5603
▁ϩⲛⲧϭⲟⲙ	-5604
▁ⲁⲓϫⲟⲟⲩ	-5605
▁ⲁⲛϣⲏⲣⲉ	-5606
▁ⲁⲩϫⲓⲧϥ	-5607
▁ⲁⲩⲕⲁⲁϥ	-5608
▁ⲉⲕⲉⲓⲣⲉ	-5609
▁ⲉⲧϩⲙⲡⲉ	-5610
▁ⲉⲧⲣϩⲱⲃ	-5611
▁ⲉⲩⲛⲁϣⲧ	-5612
▁ⲉⲩⲧⲁⲕⲟ	-5613
▁ⲕⲁⲧⲁⲟⲩ	-5614
▁ⲙⲛⲛⲥⲁⲡ	-5615
▁ⲙⲛⲡⲉⲧⲛ	-5616
▁ⲙⲡⲉϥⲙⲁ	-5617
▁ⲙⲡⲥⲁϣϥ	-5618
▁ⲛⲉⲩⲧⲟϣ	-5619
▁ⲛⲛⲉⲕϫⲓ	-5620
▁ⲛⲛⲛⲟⲃⲉ	-5621
▁ⲛⲟⲩⲱⲛϩ	-5622
▁ⲛⲣⲟⲉⲓⲥ	-5623
▁ⲛⲧϩⲓⲏⲙ	-5624
▁ⲛⲧⲉⲕϩⲉ	-5625
▁ⲟⲩϩⲏⲕⲉ	-5626
▁ⲟⲩϩⲟⲧⲉ	-5627
▁ⲟⲩⲛϭⲟⲙ	-5628
▁ⲟⲩⲛⲧⲁⲓ	-5629
▁ⲟⲩⲟⲉⲓⲛ	-5630
▁ⲡⲉⲕⲣⲁⲛ	-5631
▁ⲡⲉⲥⲙⲟⲩ	-5632
▁ⲥⲉⲛⲁⲉⲓ	-5633
▁ⲧⲉϥϭⲟⲙ	-5634
▁ⲯⲁⲗⲗⲉⲓ	-5635
ⲉⲍⲉⲕⲓⲁⲥ	-5636
ⲛⲟⲩⲣⲱⲙⲉ	-5637
ⲡⲁⲓⲇⲉⲩⲉ	-5638
ⲡⲟⲩⲟⲉⲓⲛ	-5639
ⲥϩⲟⲩⲟⲣⲧ	-5640
▁ϣⲁϥϫⲟⲟⲥ	-5641
▁ϩⲏⲅⲉⲙⲱⲛ	-5642
▁ϩⲙⲡϫⲓⲥⲉ	-5643
▁ϩⲛⲁⲙⲛⲧⲉ	-5644
▁ϩⲛⲙⲡⲩⲗⲏ	-5645
▁ϩⲛⲛⲁϭⲓϫ	-5646
▁ϩⲛⲛⲉⲩⲙⲁ	-5647
▁ϫⲉⲉⲣϣⲁⲛ	-5648
▁ϫⲉⲛⲁⲛⲟⲩ	-5649
▁ϫⲉⲡⲣⲱⲙⲉ	-5650
▁ⲁϥϫⲓⲟⲟⲣ	-5651
▁ⲁⲥⲧⲱⲟⲩⲛ	-5652
▁ⲁⲩϩⲓⲟⲩⲉ	-5653
▁ⲉϫⲛⲟⲩⲟⲛ	-5654
▁ⲉⲙⲙⲁⲁϫⲉ	-5655
▁ⲉⲙⲟⲩⲟⲩⲧ	-5656
▁ⲉⲧⲃⲉⲧⲉϥ	-5657
▁ⲉⲧⲃⲏⲏⲧⲥ	-5658
▁ⲉⲩϫⲱⲱⲙⲉ	-5659
▁ⲙⲁⲧⲁⲙⲟⲓ	-5660
▁ⲙⲛⲟⲩⲙⲛⲧ	-5661
▁ⲙⲡⲉⲛⲧⲁⲩ	-5662
▁ⲙⲡⲟⲩⲏⲏⲃ	-5663
▁ⲛⲁⲛⲟⲩⲟⲩ	-5664
▁ⲛⲁⲧⲛⲟⲃⲉ	-5665
▁ⲛⲉϥϣⲏⲣⲉ	-5666
▁ⲛⲉⲧⲉⲧⲛⲁ	-5667
▁ⲛⲧⲃⲁⲥⲁⲛ	-5668
▁ⲧⲉϥⲙⲁⲁⲩ	-5669
ⲃⲁⲥⲁⲛⲓⲍⲉ	-5670
ⲕⲁⲑⲁⲣⲧⲟⲥ	-5671
ⲛⲁⲅⲅⲉⲗⲟⲥ	-5672
ⲛⲉⲩⲉⲓⲟⲧⲉ	-5673
ⲛⲟⲩⲧⲉⲗⲏⲗ	-5674
ϭⲙⲡⲉⲩϣⲓⲛⲉ	-5675
▁ϩⲛⲭⲉⲃⲣⲱⲛ	-5676
▁ϫⲉⲡⲉⲛⲧⲁϥ	-5677
▁ⲁⲧⲉⲧⲛⲛⲁⲩ	-5678
▁ⲁⲩⲡⲁϩⲧⲟⲩ	-5679
▁ⲉⲛϩⲉⲑⲛⲟⲥ	-5680
▁ⲉⲧⲕⲛⲁⲃⲱⲕ	-5681
▁ⲉⲩϣⲟⲩⲉⲓⲧ	-5682
▁ⲙⲛⲡⲛⲟⲩⲧⲉ	-5683
▁ⲙⲡⲉϣⲧⲉⲕⲟ	-5684
▁ⲛⲗⲉⲩⲓⲧⲏⲥ	-5685
▁ⲛⲛⲉⲕϣⲏⲣⲉ	-5686
▁ⲛⲛⲉⲛⲉⲣⲏⲩ	-5687
▁ⲛⲟⲩⲉⲣⲏⲧⲉ	-5688
▁ⲛⲧⲉⲭⲁⲣⲓⲥ	-5689
▁ⲡⲉⲛⲥⲱⲧⲏⲣ	-5690
▁ⲥⲉⲛⲁⲧⲁⲕⲟ	-5691
▁ϩⲙⲡⲉⲧⲛϩⲏⲧ	-5692
▁ϩⲛϩⲉⲛϣⲁϫⲉ	-5693
▁ϩⲛⲛⲉⲧⲛϩⲏⲧ	-5694
▁ϩⲛⲟⲩⲡⲉⲧⲣⲁ	-5695
▁ϫⲉⲛϯⲥⲟⲟⲩⲛ	-5696
▁ⲁⲧⲉⲧⲛⲥⲱⲧⲙ	-5697
▁ⲉⲓⲛⲁⲧⲛⲧⲱⲛ	-5698
▁ⲉⲧⲃⲁⲃⲩⲗⲱⲛ	-5699
▁ⲙⲛⲛⲉⲕϣⲏⲣⲉ	-5700
▁ⲛϭⲓⲛⲁⲣⲭⲱⲛ	-5701
▁ⲛⲓⲉⲣⲉⲙⲓⲁⲥ	-5702
▁ⲛⲛⲉϩⲓⲟⲟⲩⲉ	-5703
▁ⲛⲛⲉⲕϩⲃⲏⲩⲉ	-5704
▁ⲛⲧⲉⲧⲛⲉⲓⲙⲉ	-5705
▁ⲥⲉⲛⲁⲕⲧⲟⲟⲩ	-5706
ⲉⲩⲁⲅⲅⲉⲗⲓⲍⲉ	-5707
ⲧⲁⲗⲁⲓⲡⲱⲣⲓⲁ	-5708
▁ϩⲛⲧⲉϥⲧⲁⲡⲣⲟ	-5709
▁ⲙⲛⲡⲉⲡⲛⲉⲩⲙⲁ	-5710
▁ⲛϭⲓⲛⲉⲧⲟⲩⲏϩ	-5711
▁ⲛⲁⲕⲁⲑⲁⲣⲧⲟⲛ	-5712
▁ⲛⲉⲡⲣⲟⲫⲏⲧⲏⲥ	-5713
▁ⲡⲉϫⲉⲧⲉⲥϩⲓⲙⲉ	-5714
▁ⲙⲛⲛⲉⲡⲣⲟⲫⲏⲧⲏⲥ	-5715
▁ⲛϭⲓⲛⲁⲣⲭⲓⲉⲣⲉⲩⲥ	-5716
ⲉϥ	-5717
ⲙϣ	-5718
ⲛϥ	-5719
ⲡⲩ	-5720
ⲧⲃ	-5721
ϣⲏⲧ	-5722
ϫⲁϫ	-5723
▁ⲥⲩ	-5724
ⲃⲏⲇ	-5725
ⲅⲁⲇ	-5726
ⲍⲉⲣ	-5727
ⲕⲟⲡ	-5728
ⲗⲉⲕ	-5729
ⲗⲱⲧ	-5730
ⲙⲓⲧ	-5731
ⲟⲛⲓ	-5732
ⲣⲉⲁ	-5733
ⲣⲱⲙ	-5734
ⲥⲏⲣ	-5735
ⲫⲟⲓ	-5736
ⲭⲉⲙ	-5737
ⲭⲉⲧ	-5738
ϣⲟⲗⲥ	-5739
ϥⲱϭⲉ	-5740
ϩⲣⲁⲩ	-5741
ϭⲁⲗⲉ	-5742
ϭⲱⲡⲉ	-5743
▁ϣⲣⲡ	-5744
▁ϩⲙⲉ	-5745
▁ⲁⲁϥ	-5746
▁ⲁⲥⲱ	-5747
▁ⲃⲟⲗ	-5748
▁ⲉⲁⲕ	-5749
▁ⲗⲟⲓ	-5750
▁ⲙⲟⲥ	-5751
▁ⲛⲁⲅ	-5752
▁ⲛⲓⲥ	-5753
▁ⲡⲟⲣ	-5754
▁ⲡⲟⲥ	-5755
▁ⲡⲱϩ	-5756
▁ⲧⲕⲉ	-5757
▁ⲱⲛϩ	-5758
ⲁⲛⲟⲕ	-5759
ⲁⲥⲓⲥ	-5760
ⲇⲟⲛⲏ	-5761
ⲇⲣⲟⲥ	-5762
ⲉⲓⲁⲧ	-5763
ⲉⲓⲗⲁ	-5764
ⲑⲁⲛⲉ	-5765
ⲕⲟⲟϩ	-5766
ⲗⲉⲓⲙ	-5767
ⲗⲟⲩⲥ	-5768
ⲙⲟⲣⲧ	-5769
ⲛⲟⲩⲧ	-5770
ⲛⲧⲏⲩ	-5771
ⲟⲃⲧⲉ	-5772
ⲡⲛⲟⲛ	-5773
ⲡⲟⲗⲟ	-5774
ⲭⲗⲟⲥ	-5775
ϣⲟⲣⲡϥ	-5776
ϩⲟⲥⲟⲛ	-5777
ϫⲁⲧϥⲉ	-5778
ϫⲓϩⲁⲡ	-5779
ϫⲟⲩⲱⲧ	-5780
▁ϣⲁⲡⲉ	-5781
▁ϫⲉⲉⲛ	-5782
▁ϭⲉⲡⲏ	-5783
▁ϯⲟⲩⲱ	-5784
▁ⲁϥⲥⲱ	-5785
▁ⲁⲣⲓⲥ	-5786
▁ⲉⲙⲉⲩ	-5787
▁ⲉⲟⲩⲉ	-5788
▁ⲉⲧⲉⲓ	-5789
▁ⲉⲧⲉⲙ	-5790
▁ⲙⲁⲁⲃ	-5791
▁ⲛϩⲁⲡ	-5792
▁ⲛⲅϥⲓ	-5793
▁ⲛⲙⲛⲉ	-5794
▁ⲛⲥⲁⲛ	-5795
▁ⲛⲥⲟϭ	-5796
▁ⲟⲩⲉϣ	-5797
▁ⲡⲁⲣⲭ	-5798
▁ⲡⲟⲩⲱ	-5799
▁ⲧⲁⲕⲉ	-5800
ⲃⲁⲣⲛⲁ	-5801
ⲃⲁⲥⲁⲛ	-5802
ⲃⲟⲟⲛⲉ	-5803
ⲑⲩⲙⲉⲓ	-5804
ⲓⲁⲑⲁⲣ	-5805
ⲕⲁⲓⲟⲥ	-5806
ⲕⲁⲩⲙⲁ	-5807
ⲕⲓⲛⲇⲩ	-5808
ⲙⲟⲛⲁⲥ	-5809
ⲛⲉϩⲥⲉ	-5810
ⲟⲓⲛⲱⲛ	-5811
ⲟⲩϩⲟⲣ	-5812
ⲟⲩⲁϣⲥ	-5813
ⲟⲩⲁϩⲕ	-5814
ⲡϣⲁϫⲉ	-5815
ⲡⲟⲩⲇⲏ	-5816
ⲣⲓⲛⲟⲛ	-5817
ⲧⲁⲓⲟⲥ	-5818
ϩⲩⲡⲁⲣⲭ	-5819
▁ϣⲟⲟⲩⲉ	-5820
▁ϩⲓⲛⲉϩ	-5821
▁ϩⲛⲥⲟⲩ	-5822
▁ϩⲛⲧϩⲏ	-5823
▁ϩⲟⲥⲟⲛ	-5824
▁ϩⲣⲟⲩⲑ	-5825
▁ϫⲉⲡⲙⲁ	-5826
▁ϫⲟⲉⲓⲥ	-5827
▁ϯⲉⲟⲟⲩ	-5828
▁ϯⲛⲁϥⲓ	-5829
▁ⲁϥϫⲡⲉ	-5830
▁ⲁϥⲁⲗⲉ	-5831
▁ⲁϥⲧⲁϫ	-5832
▁ⲉϥⲙⲏⲣ	-5833
▁ⲉϥⲛⲁⲩ	-5834
▁ⲉϥⲛⲏϫ	-5835
▁ⲉⲡϩⲁⲡ	-5836
▁ⲉⲡⲁⲙⲁ	-5837
▁ⲉⲩⲛⲁⲩ	-5838
▁ⲉⲩⲱⲛϩ	-5839
▁ⲙⲉϣⲁⲕ	-5840
▁ⲙⲛⲛⲉⲓ	-5841
▁ⲙⲛⲧⲉⲥ	-5842
▁ⲙⲡⲁϩⲟ	-5843
▁ⲙⲡⲃⲟⲗ	-5844
▁ⲛϩⲟⲉⲓ	-5845
▁ⲛϩⲧⲏϥ	-5846
▁ⲛⲉϥϩⲛ	-5847
▁ⲛⲉϥⲛⲁ	-5848
▁ⲛⲉⲃⲟⲗ	-5849
▁ⲛⲉⲧⲉϥ	-5850
▁ⲛⲛϩⲏⲧ	-5851
▁ⲛⲛⲉⲩⲥ	-5852
▁ⲛⲟⲩⲉⲓ	-5853
▁ⲛⲧⲉⲛⲉ	-5854
▁ⲟⲩⲃⲏⲕ	-5855
▁ⲡϣⲓⲛⲉ	-5856
▁ⲡⲉⲧϩⲛ	-5857
▁ⲥⲁϣϥⲉ	-5858
▁ⲧⲱⲱⲃⲉ	-5859
ⲃⲟⲩⲥⲑⲉ	-5860
ⲅⲱⲛⲓⲍⲉ	-5861
ⲇⲁⲓⲙⲟⲛ	-5862
ⲑⲉⲱⲣⲉⲓ	-5863
ⲓⲙⲟⲩⲧⲉ	-5864
ⲓⲥⲧⲉⲩⲉ	-5865
ⲕⲟⲥⲙⲉⲓ	-5866
ⲙⲁⲙⲁⲁⲧ	-5867
ⲙⲡⲉⲓⲙⲁ	-5868
ⲛⲁϩⲃⲉϥ	-5869
ⲛⲧⲱⲟⲩⲛ	-5870
ⲟⲛⲏⲣⲟⲥ	-5871
ⲟⲛⲟⲥⲟⲣ	-5872
ⲟⲩⲛⲟⲥϥ	-5873
ⲟⲩⲟⲛϩϥ	-5874
ⲡⲗⲁⲧⲓⲁ	-5875
ⲡⲣⲟⲟⲩϣ	-5876
ⲣⲟⲩⲛⲟϭ	-5877
ⲣⲥⲟⲟⲩⲉ	-5878
ⲥⲩⲛⲁⲅⲉ	-5879
ⲧⲁⲉⲓⲏⲩ	-5880
ⲧⲁⲛϩⲟⲓ	-5881
ⲧⲁⲟⲩⲟⲓ	-5882
ⲧⲉϥϭⲓϫ	-5883
ⲧⲙⲯⲩⲭⲏ	-5884
ⲧⲟⲩⲉⲓⲟ	-5885
ⲧⲡⲟⲗⲓⲥ	-5886
ϩⲉⲛϩⲟⲟⲩ	-5887
▁ϩⲓⲉⲃⲓⲱ	-5888
▁ϫⲉⲉⲛⲛⲁ	-5889
▁ϫⲉⲕⲁⲧⲁ	-5890
▁ⲁϥⲛⲧⲟⲩ	-5891
▁ⲁϥⲧⲁⲗⲉ	-5892
▁ⲁⲓϣⲁϫⲉ	-5893
▁ⲁⲧⲉⲧⲛⲁ	-5894
▁ⲁⲩⲕⲁⲁⲩ	-5895
▁ⲁⲩⲙⲟⲩϩ	-5896
▁ⲁⲩⲣⲓⲙⲉ	-5897
▁ⲁⲩⲧⲁⲗⲉ	-5898
▁ⲃⲟⲏⲑⲉⲓ	-5899
▁ⲉϥⲉϫⲱⲕ	-5900
▁ⲉϫⲙⲡⲉⲓ	-5901
▁ⲉϫⲙⲡⲙⲁ	-5902
▁ⲉⲃⲟⲗϩⲓ	-5903
▁ⲉⲓϣⲟⲟⲡ	-5904
▁ⲉⲛⲉⲛⲧⲁ	-5905
▁ⲉⲡϫⲁⲓⲉ	-5906
▁ⲉⲡⲉⲣⲡⲉ	-5907
▁ⲉⲡⲕⲁⲕⲉ	-5908
▁ⲉⲧⲃⲉⲧⲉ	-5909
▁ⲉⲧⲉⲥⲃⲱ	-5910
▁ⲉⲧⲟⲟⲧⲥ	-5911
▁ⲉⲧⲣⲉⲩⲥ	-5912
▁ⲉⲩⲟⲩⲏϩ	-5913
▁ⲉⲩⲟⲩⲱⲙ	-5914
▁ⲕⲁⲣⲡⲟⲥ	-5915
▁ⲕⲉⲕⲟⲩⲓ	-5916
▁ⲗⲟⲓⲡⲟⲛ	-5917
▁ⲙⲡⲟⲩⲉϣ	-5918
▁ⲛϥⲉⲓⲣⲉ	-5919
▁ⲛϯⲙⲓⲛⲉ	-5920
▁ⲛⲁϫⲓⲥⲉ	-5921
▁ⲛⲁⲉⲓⲙⲉ	-5922
▁ⲛⲁⲉⲓⲣⲉ	-5923
▁ⲛⲅϣⲱⲡⲉ	-5924
▁ⲛⲉϥⲃⲁⲗ	-5925
▁ⲛⲕⲟⲟⲩⲉ	-5926
▁ⲛⲛⲉⲧⲙⲉ	-5927
▁ⲛⲟⲩⲙⲟⲩ	-5928
▁ⲛⲥⲁⲣⲟⲩ	-5929
▁ⲛⲥⲓⲙⲱⲛ	-5930
▁ⲟⲩⲃⲟⲧⲉ	-5931
▁ⲡⲟⲩϫⲁⲓ	-5932
ⲁϩⲉⲣⲁⲧⲕ	-5933
ⲙⲟⲛⲁⲭⲟⲥ	-5934
ⲙⲡⲉϩⲟⲟⲩ	-5935
ⲙⲡⲛⲟⲩⲧⲉ	-5936
ⲛⲟⲩⲟⲉⲓϣ	-5937
ⲡⲏⲣⲉⲧⲏⲥ	-5938
ⲱⲁⲃⲓⲧⲏⲥ	-5939
▁ϥⲛⲁⲥⲱⲧⲙ	-5940
▁ϩⲉⲛⲣⲱⲙⲉ	-5941
▁ϩⲓⲡⲧⲟⲟⲩ	-5942
▁ϩⲓⲣⲙⲡⲣⲟ	-5943
▁ϩⲓⲧⲙⲡⲉϥ	-5944
▁ϩⲓⲧⲟⲟⲧⲛ	-5945
▁ϩⲛⲟⲩϩⲱⲡ	-5946
▁ϫⲉⲉϥⲧⲱⲛ	-5947
▁ⲁⲓⲟⲩⲱϣⲃ	-5948
▁ⲁⲩⲛⲟϫⲟⲩ	-5949
▁ⲉϥϣⲁⲛⲟⲩ	-5950
▁ⲉⲓⲛⲁⲃⲱⲕ	-5951
▁ⲉⲕϣⲁⲛⲟⲩ	-5952
▁ⲉⲛϥϣⲟⲟⲡ	-5953
▁ⲉⲛⲉⲛⲧⲁⲩ	-5954
▁ⲉⲧⲃⲉⲛⲁⲓ	-5955
▁ⲉⲧⲉⲧⲛϣⲁ	-5956
▁ⲉⲩϩⲙⲟⲟⲥ	-5957
▁ⲙⲙⲛⲗⲁⲁⲩ	-5958
▁ⲙⲛϥⲧⲟⲟⲩ	-5959
▁ⲙⲛⲛⲉⲧϩⲛ	-5960
▁ⲙⲛⲡϣⲏⲣⲉ	-5961
▁ⲙⲡϩⲙϩⲁⲗ	-5962
▁ⲙⲡⲁϣⲏⲣⲉ	-5963
▁ⲛϣⲉⲗⲉⲉⲧ	-5964
▁ⲛⲛⲁϩⲣⲁⲕ	-5965
▁ⲛⲛⲁϫⲁϫⲉ	-5966
▁ⲛⲛⲉⲗⲁⲁⲩ	-5967
▁ⲛⲛⲉⲯⲩⲭⲏ	-5968
▁ⲛⲛⲟⲩⲏⲏⲃ	-5969
▁ⲛⲛⲧⲱⲣⲧⲣ	-5970
▁ⲛⲥⲓⲕⲓⲙⲁ	-5971
▁ⲛⲧⲉⲧⲛϩⲉ	-5972
▁ⲡⲉⲧϣⲁϫⲉ	-5973
▁ⲧⲁϣⲉⲉⲣⲉ	-5974
▁ⲧⲉⲓⲣⲏⲛⲏ	-5975
ⲃⲁⲣⲛⲁⲃⲁⲥ	-5976
▁ϩⲙⲡⲉⲕⲣⲁⲛ	-5977
▁ϩⲛⲟⲩϩⲟⲧⲉ	-5978
▁ϩⲛⲧⲉⲭⲱⲣⲁ	-5979
▁ϫⲉⲟⲩⲛϭⲟⲙ	-5980
▁ⲁϥⲙⲟⲩⲟⲩⲧ	-5981
▁ⲁⲃⲓⲙⲉⲗⲉⲭ	-5982
▁ⲉϥϣⲟⲩⲉⲓⲧ	-5983
▁ⲉⲛⲉⲛⲧⲟⲗⲏ	-5984
▁ⲉⲩⲛⲁϣⲱⲡⲉ	-5985
▁ⲙⲁⲧⲥⲁⲃⲟⲓ	-5986
▁ⲙⲡⲉϥϭⲱⲛⲧ	-5987
▁ⲛⲉϥϩⲃⲏⲩⲉ	-5988
▁ⲛⲛⲉⲩⲯⲩⲭⲏ	-5989
▁ⲛⲟⲩⲟⲩⲛⲟϥ	-5990
▁ⲛⲧⲛⲥⲟⲟⲩⲛ	-5991
▁ⲟⲩⲡⲓⲥⲧⲟⲥ	-5992
ⲇⲁⲓⲙⲟⲛⲓⲟⲛ	-5993
ⲟⲓⲕⲟⲛⲟⲙⲟⲥ	-5994
ⲡⲁⲣⲁⲅⲅⲓⲗⲉ	-5995
ⲡⲓⲟⲣⲇⲁⲛⲏⲥ	-5996
ⲡⲣⲟⲥⲧⲁⲅⲙⲁ	-5997
ⲧⲁϩⲉⲣⲁⲧⲟⲩ	-5998
ⲯⲁⲗⲧⲏⲣⲓⲟⲛ	-5999
▁ϩⲛⲟⲩⲧⲁⲡⲣⲟ	-6000
▁ϫⲉⲧⲉⲓⲣⲏⲛⲏ	-6001
▁ⲉⲧⲡⲓⲥⲧⲉⲩⲉ	-6002
▁ⲉⲧⲣⲉⲥϣⲱⲡⲉ	-6003
▁ⲙⲛⲛⲥⲁⲧⲣⲉϥ	-6004
▁ⲙⲛⲟⲩⲥϩⲓⲙⲉ	-6005
▁ⲙⲡⲡⲟⲗⲉⲙⲟⲥ	-6006
▁ⲛϩⲉⲛⲕⲟⲟⲩⲉ	-6007
▁ⲛϭⲓⲛⲉϩⲟⲟⲩ	-6008
▁ⲛϭⲓⲡⲁⲉⲓⲱⲧ	-6009
▁ⲛⲟⲩⲭⲟⲣⲧⲟⲥ	-6010
▁ⲛⲥⲁⲧⲁⲯⲩⲭⲏ	-6011
▁ⲛⲧⲉⲧⲛⲥⲱⲧⲙ	-6012
▁ⲟⲩⲉϩⲥⲁϩⲛⲉ	-6013
ⲕⲗⲏⲣⲟⲛⲟⲙⲟⲥ	-6014
▁ⲉⲧⲉⲧⲛⲛⲁⲃⲱⲕ	-6015
▁ⲉⲩⲙⲛⲧⲙⲛⲧⲣⲉ	-6016
▁ⲕⲁⲧⲁⲡⲛⲟⲙⲟⲥ	-6017
▁ⲙⲙⲛⲧⲥⲛⲟⲟⲩⲥ	-6018
▁ⲙⲛϩⲉⲛϣⲡⲏⲣⲉ	-6019
▁ⲙⲛⲓⲱϩⲁⲛⲛⲏⲥ	-6020
▁ⲛⲁⲣⲭⲓⲉⲣⲉⲩⲥ	-6021
▁ⲛⲛⲉⲧⲑⲃⲃⲓⲏⲩ	-6022
▁ϩⲓⲧⲛⲧⲡⲓⲥⲧⲓⲥ	-6023
▁ϩⲛⲧⲉⲕⲕⲗⲏⲥⲓⲁ	-6024
▁ⲙⲡⲉⲧϩⲓⲧⲟⲩⲱⲕ	-6025
▁ⲛⲇⲓⲕⲁⲓⲟⲥⲩⲛⲏ	-6026
▁ⲛⲛⲁⲙⲟⲣⲣⲁⲓⲟⲥ	-6027
▁ⲙⲛⲛⲉϥⲙⲁⲑⲏⲧⲏⲥ	-6028
▁ϩⲙⲡⲉⲩⲁⲅⲅⲉⲗⲓⲟⲛ	-6029
▁ⲙⲛⲧϩⲓⲉⲣⲟⲩⲥⲁⲗⲏⲙ	-6030
ϩⲗ	-6031
ϭⲡ	-6032
▁ⲍ	-6033
ⲁϩ	-6034
ⲁⲅ	-6035
ⲉⲕ	-6036
ⲏϫ	-6037
ⲗϥ	-6038
ϣⲣⲱ	-6039
ϥⲉⲧ	-6040
ϩⲓⲡ	-6041
ϭⲟⲩ	-6042
▁ⲃⲉ	-6043
ⲇⲣⲉ	-6044
ⲗϭⲟ	-6045
ⲟⲏⲑ	-6046
ⲟⲕⲙ	-6047
ⲟⲙⲥ	-6048
ⲟⲟⲧ	-6049
ⲡⲉϩ	-6050
ⲡⲛⲁ	-6051
ⲣⲉⲛ	-6052
ⲥⲏϣ	-6053
ⲫⲁⲛ	-6054
ⲭⲟⲇ	-6055
ⲱⲛϣ	-6056
ⲱⲱϥ	-6057
ϣⲏⲩⲉ	-6058
ϣⲟⲙⲧ	-6059
ϩⲙⲟⲙ	-6060
ϩⲣⲱⲧ	-6061
ϭⲟⲟϣ	-6062
ϭⲱⲃⲉ	-6063
▁···	-6064
▁ϩⲛⲥ	-6065
▁ϫⲱϩ	-6066
▁ⲁϥⲕ	-6067
▁ⲉⲣⲙ	-6068
▁ⲕⲧⲉ	-6069
▁ⲙⲉⲥ	-6070
▁ⲛⲁⲡ	-6071
▁ⲛⲇⲁ	-6072
▁ⲛⲉⲙ	-6073
▁ⲡϣⲁ	-6074
▁ⲡⲁⲃ	-6075
▁ⲡⲱⲓ	-6076
▁ⲣⲉⲕ	-6077
▁ⲱⲛⲉ	-6078
ⲁⲛⲁⲛ	-6079
ⲃⲃⲁⲓ	-6080
ⲇⲇⲟⲩ	-6081
ⲉⲧⲟⲥ	-6082
ⲙⲁⲕⲁ	-6083
ⲛⲟϫⲕ	-6084
ⲟⲃϣϥ	-6085
ⲟⲓⲱⲥ	-6086
ⲟⲛⲧⲁ	-6087
ⲡⲉϩⲧ	-6088
ⲣⲉⲩⲉ	-6089
ⲥⲉⲡⲥ	-6090
ⲥⲱⲃϩ	-6091
ⲥⲱⲱϥ	-6092
ⲧⲁϩⲙ	-6093
ⲩⲣⲓⲁ	-6094
ϣⲟⲩⲣⲏ	-6095
ϫⲓⲟⲩⲁ	-6096
ϭⲣⲁϩⲧ	-6097
ϯⲁⲛⲟⲥ	-6098
▁ϩⲱⲱⲧ	-6099
▁ϫⲉⲕⲱ	-6100
▁ϫⲓⲛⲧ	-6101
▁ϫⲟⲥⲉ	-6102
▁ⲁⲛⲧⲁ	-6103
▁ⲁⲡⲟⲗ	-6104
▁ⲃⲁⲓⲑ	-6105
▁ⲉⲕⲉⲣ	-6106
▁ⲉⲡϩⲟ	-6107
▁ⲉⲧϩⲏ	-6108
▁ⲉⲧⲕⲱ	-6109
▁ⲉⲩⲙⲉ	-6110
▁ⲉⲩⲟⲩ	-6111
▁ⲙⲛⲙⲡ	-6112
▁ⲙⲡⲓⲁ	-6113
▁ⲙⲡⲓⲉ	-6114
▁ⲛϩⲣⲱ	-6115
▁ⲛⲃⲟⲗ	-6116
▁ⲛⲃⲱⲕ	-6117
▁ⲛⲉⲩⲟ	-6118
▁ⲛⲛⲓⲁ	-6119
▁ⲟⲩⲁⲧ	-6120
▁ⲟⲩⲏϩ	-6121
▁ⲡϩⲁⲡ	-6122
▁ⲡⲁϩⲟ	-6123
▁ⲡⲱⲛⲉ	-6124
▁ⲣϩⲱⲃ	-6125
▁ⲧⲁⲭⲏ	-6126
ⲁⲩⲥⲓⲥ	-6127
ⲇⲓⲱⲕⲉ	-6128
ⲓⲛⲉⲉⲥ	-6129
ⲙϩⲁⲟⲩ	-6130
ⲙⲁⲉⲓⲟ	-6131
ⲙⲁⲧⲟⲓ	-6132
ⲙⲟⲕϩⲥ	-6133
ⲙⲡⲉⲧⲛ	-6134
ⲛⲟⲩⲉϣ	-6135
ⲟⲕⲕⲟⲥ	-6136
ⲟⲩⲟϣϥ	-6137
ⲟⲩⲱϩⲙ	-6138
ⲡⲧⲱⲙⲁ	-6139
ⲣⲁⲕⲧϥ	-6140
ⲥⲉⲓⲁⲧ	-6141
ⲧⲁϩⲟⲕ	-6142
ⲧⲁⲙⲟϥ	-6143
ⲧⲉⲕⲛⲁ	-6144
ⲧⲟϭⲟⲩ	-6145
ⲧⲟⲗⲙⲁ	-6146
ⲭⲟⲣⲟⲥ	-6147
ⲭⲱⲣⲏⲃ	-6148
ϫⲓⲥⲙⲟⲩ	-6149
▁ϣⲁⲣⲉⲛ	-6150
▁ϩⲁⲣⲱϥ	-6151
▁ϩⲉⲛⲟⲩ	-6152
▁ϩⲓϫⲛⲛ	-6153
▁ϩⲓⲱⲱⲥ	-6154
▁ϩⲙⲡⲉⲛ	-6155
▁ϩⲟⲟⲩⲧ	-6156
▁ϫⲉϩⲣⲁ	-6157
▁ϫⲉϩⲱⲃ	-6158
▁ϫⲉⲧⲱⲕ	-6159
▁ⲁϥⲛⲉϫ	-6160
▁ⲁϥⲱⲣⲕ	-6161
▁ⲁⲛⲛⲁⲩ	-6162
▁ⲁⲥⲛⲁⲩ	-6163
▁ⲉϥⲛⲁⲣ	-6164
▁ⲉϥⲡⲏⲧ	-6165
▁ⲉϫⲟⲟⲥ	-6166
▁ⲉⲙⲏⲥⲉ	-6167
▁ⲉⲙⲡⲁⲧ	-6168
▁ⲉⲛⲁϣⲉ	-6169
▁ⲉⲥⲛⲏⲩ	-6170
▁ⲉⲧϩⲏⲡ	-6171
▁ⲉⲩⲙⲉϩ	-6172
▁ⲓⲥⲁⲁⲕ	-6173
▁ⲕⲁⲕⲱⲥ	-6174
▁ⲕⲟⲩⲱϣ	-6175
▁ⲙⲙⲟⲉⲓ	-6176
▁ⲙⲡⲁⲧⲉ	-6177
▁ⲛϣⲃⲏⲣ	-6178
▁ⲛϫⲁϫⲉ	-6179
▁ⲛⲁⲑⲁⲃ	-6180
▁ⲛⲁⲣⲭⲏ	-6181
▁ⲛⲉϣⲁⲩ	-6182
▁ⲛⲕⲟⲧⲕ	-6183
▁ⲛⲛⲱϩⲉ	-6184
▁ⲛⲟⲣⲅⲏ	-6185
▁ⲛⲟⲩⲱϣ	-6186
▁ⲛⲧⲁϩⲉ	-6187
▁ⲛⲧⲉⲡⲁ	-6188
▁ⲛⲧⲉⲥⲁ	-6189
▁ⲟⲩⲣⲉϥ	-6190
▁ⲟⲩⲣⲣⲟ	-6191
▁ⲡⲉⲓⲕⲉ	-6192
▁ⲥⲁϩⲱⲕ	-6193
▁ⲧⲁⲣⲉϥ	-6194
▁ⲧⲉⲗⲏⲗ	-6195
ⲃⲁⲣⲟⲩⲭ	-6196
ⲃⲟⲩⲭⲟⲇ	-6197
ⲓⲙⲏⲏϣⲉ	-6198
ⲕⲉϣⲏⲣⲉ	-6199
ⲕⲉⲇⲣⲟⲥ	-6200
ⲗⲩⲡⲧⲟⲛ	-6201
ⲛⲁⲥⲛⲏⲩ	-6202
ⲛⲟⲩⲱϣⲧ	-6203
ⲛⲧⲉⲛⲟⲩ	-6204
ⲣⲛⲟϥⲣⲉ	-6205
ⲣⲛⲟⲉⲓⲕ	-6206
ⲥⲁⲙⲯⲱⲛ	-6207
ⲧⲟⲩϫⲟⲛ	-6208
ⲧⲣⲁⲡⲏⲥ	-6209
ⲭⲟⲩⲥⲉⲓ	-6210
ϥⲁⲓⲛⲁϩⲃ	-6211
ϭⲓⲛϣⲁϫⲉ	-6212
▁ϩⲓϫⲛⲧⲁ	-6213
▁ϩⲓⲧⲛⲧⲉ	-6214
▁ϩⲓⲧⲟⲟⲧ	-6215
▁ϩⲛⲟⲩⲏⲓ	-6216
▁ϩⲛⲧϩⲁⲏ	-6217
▁ϫⲉϣⲁⲣⲉ	-6218
▁ϫⲉⲙⲁⲣⲛ	-6219
▁ϫⲉⲙⲡⲉⲣ	-6220
▁ⲁϥⲧⲁⲁⲥ	-6221
▁ⲁⲓⲥϩⲁⲓ	-6222
▁ⲁⲕⲉⲓⲣⲉ	-6223
▁ⲁⲡⲣⲱⲙⲉ	-6224
▁ⲁⲩϣⲱⲱⲧ	-6225
▁ⲁⲩⲁϣⲁⲓ	-6226
▁ⲁⲩⲙⲓϣⲉ	-6227
▁ⲁⲩⲣⲁϣⲉ	-6228
▁ⲁⲩⲣⲱⲙⲉ	-6229
▁ⲉϥⲙⲟⲩϩ	-6230
▁ⲉϥⲟⲩⲱⲙ	-6231
▁ⲉⲣⲉⲡⲉⲧ	-6232
▁ⲉⲧϣⲁϫⲉ	-6233
▁ⲉⲧϫⲟⲟⲣ	-6234
▁ⲉⲧⲉⲕⲛⲁ	-6235
▁ⲉⲧⲉⲛⲟⲩ	-6236
▁ⲉⲧⲉⲣⲉⲛ	-6237
▁ⲉⲧⲣⲉϥϯ	-6238
▁ⲉⲩϣⲏⲣⲉ	-6239
▁ⲉⲩϭⲱϣⲧ	-6240
▁ⲉⲩⲛⲁⲉⲣ	-6241
▁ⲓⲉⲫⲑⲁⲉ	-6242
▁ⲕⲛⲁⲙⲟⲩ	-6243
▁ⲙⲡⲉⲕⲏⲓ	-6244
▁ⲛϫⲓⲛϫⲏ	-6245
▁ⲛⲅⲉⲛⲉⲁ	-6246
▁ⲛⲉⲧⲛⲏⲩ	-6247
▁ⲛⲙⲙⲟⲟⲩ	-6248
▁ⲛⲛⲉⲧⲛⲣ	-6249
▁ⲛⲛⲗⲁⲟⲥ	-6250
▁ⲛⲟⲩⲕⲁϩ	-6251
▁ⲛⲧϩⲟⲧⲉ	-6252
▁ⲛⲧⲥⲁⲧⲉ	-6253
▁ⲟⲩⲗⲁⲟⲥ	-6254
▁ⲟⲩⲛⲧⲁϥ	-6255
▁ⲟⲩⲛⲧⲁⲛ	-6256
▁ⲡⲉⲥϩⲁⲓ	-6257
▁ⲡⲉⲧⲉⲟⲩ	-6258
▁ⲡⲙⲉⲣⲓⲧ	-6259
▁ⲥⲟⲩⲧⲱⲛ	-6260
▁ⲧⲁϩⲟⲟⲩ	-6261
▁ⲧⲏⲟⲩⲧⲛ	-6262
ⲁⲣⲑⲉⲛⲟⲥ	-6263
ⲇⲉⲓⲡⲛⲟⲛ	-6264
ⲍⲱⲣⲁⲓⲟⲥ	-6265
ⲙⲉϩⲥⲁϣϥ	-6266
ⲙⲛⲧϩⲏⲕⲉ	-6267
ⲛⲉⲛⲛⲟⲃⲉ	-6268
ⲛⲧⲁⲧϩⲏⲧ	-6269
ⲣⲉϥϯϩⲁⲡ	-6270
ⲧⲁⲙⲁϩⲧⲉ	-6271
ⲧⲁⲟⲩⲟⲉⲓ	-6272
▁ϣⲟⲩϩⲏⲛⲉ	-6273
▁ϩⲉⲛϩⲟⲟⲩ	-6274
▁ϩⲓϫⲙⲡⲉϥ	-6275
▁ϩⲓⲡⲉⲕⲣⲟ	-6276
▁ϩⲙⲡⲟⲩⲱϣ	-6277
▁ϩⲛⲟⲩϩⲓⲏ	-6278
▁ϩⲛⲧϩⲟⲧⲉ	-6279
▁ϩⲟⲙⲟⲓⲱⲥ	-6280
▁ϯⲛⲁϣⲁϫⲉ	-6281
▁ⲁϥⲧⲁϩⲟϥ	-6282
▁ⲁⲓⲙⲟⲟϣⲉ	-6283
▁ⲁⲩϯⲉⲟⲟⲩ	-6284
▁ⲁⲩⲧⲁⲙⲓⲟ	-6285
▁ⲉϥⲟⲩⲟⲃϣ	-6286
▁ⲉⲕⲥⲟⲟⲩⲛ	-6287
▁ⲉⲙⲟⲟⲩⲧϥ	-6288
▁ⲉⲛⲧⲁⲩⲉⲓ	-6289
▁ⲉⲟⲩⲉⲃⲟⲗ	-6290
▁ⲉⲧϩⲓⲃⲟⲗ	-6291
▁ⲉⲧⲥⲟⲫⲓⲁ	-6292
▁ⲕⲛⲁϫⲟⲟⲥ	-6293
▁ⲙⲡϥⲥⲱⲧⲙ	-6294
▁ⲙⲡϭⲉⲣⲱⲃ	-6295
▁ⲙⲡⲉⲕⲗⲟⲙ	-6296
▁ⲙⲡⲉⲙϩⲓⲧ	-6297
▁ⲙⲡⲉⲩⲕⲁϩ	-6298
▁ⲙⲡⲓⲥⲧⲓⲥ	-6299
▁ⲙⲡⲟⲩϫⲁⲓ	-6300
▁ⲙⲡⲣϣⲱⲡⲉ	-6301
▁ⲛϥⲧⲱⲟⲩⲛ	-6302
▁ⲛϭⲓⲛⲉⲧⲛ	-6303
▁ⲛⲉⲣⲣⲱⲟⲩ	-6304
▁ⲛⲓⲟⲩⲇⲁⲥ	-6305
▁ⲛⲣⲙⲛϩⲏⲧ	-6306
▁ⲛⲥⲁⲥⲡⲓⲣ	-6307
▁ⲛⲥⲟⲇⲟⲙⲁ	-6308
▁ⲛⲧⲁϥⲁⲁⲩ	-6309
▁ⲛⲧⲥⲩⲣⲓⲁ	-6310
▁ⲡⲉⲛⲧⲁϥϯ	-6311
ⲛⲉⲕⲗⲟⲟⲗⲉ	-6312
ⲟⲩⲛϣⲟⲙⲛⲧ	-6313
ⲣⲉϥⲙⲟⲟⲩⲧ	-6314
ⲥⲩⲛϩⲓⲥⲧⲁ	-6315
ⲭⲉⲧⲧⲁⲓⲟⲥ	-6316
▁ϩⲛⲧⲙⲏⲏⲧⲉ	-6317
▁ϫⲓⲛⲁⲣⲏϫϥ	-6318
▁ⲁⲁⲃⲣⲁϩⲁⲙ	-6319
▁ⲉϫⲙⲡⲗⲁⲟⲥ	-6320
▁ⲉⲡⲉⲓϣⲁϫⲉ	-6321
▁ⲉⲧϣⲟⲩⲉⲓⲧ	-6322
▁ⲉⲧⲉⲙⲛⲧⲟⲩ	-6323
▁ⲕⲁⲧⲁⲡⲧⲱϣ	-6324
▁ⲙⲙⲱⲟⲩⲥⲏⲥ	-6325
▁ⲙⲡⲁⲟⲩϫⲁⲓ	-6326
▁ⲙⲡⲉϥϣⲁϫⲉ	-6327
▁ⲙⲡⲉϥⲟⲩⲟⲓ	-6328
▁ⲙⲡⲉϥⲧⲟⲟⲩ	-6329
▁ⲙⲡⲉⲓⲣⲱⲙⲉ	-6330
▁ⲛϥⲧⲙϣⲱⲡⲉ	-6331
▁ⲛϩⲉⲛϣⲏⲣⲉ	-6332
▁ⲛⲉⲧⲙⲟⲟϣⲉ	-6333
▁ⲛⲉⲩϩⲓⲟⲙⲉ	-6334
▁ⲛⲛⲉϩⲓⲟⲙⲉ	-6335
▁ⲛⲛⲉⲕϣⲁϫⲉ	-6336
▁ⲛⲛⲉⲛⲧⲟⲗⲏ	-6337
▁ⲛⲟⲩϣⲟϫⲛⲉ	-6338
▁ⲛⲟⲩϩⲙϩⲁⲗ	-6339
▁ⲛⲣⲙⲛⲕⲏⲙⲉ	-6340
▁ⲛⲥⲁⲗⲡⲓⲅⲝ	-6341
▁ⲛⲥⲟⲗⲟⲙⲱⲛ	-6342
▁ⲛⲧϩⲉⲗⲡⲓⲥ	-6343
▁ⲛⲧⲁⲛⲟⲙⲓⲁ	-6344
▁ⲡⲉⲟⲩⲟⲉⲓϣ	-6345
▁ⲡⲉⲧϩⲁⲣⲉϩ	-6346
▁ⲧⲇⲓⲁⲑⲏⲕⲏ	-6347
▁ⲧⲉⲝⲟⲩⲥⲓⲁ	-6348
ⲥⲧⲣⲁⲧⲉⲩⲙⲁ	-6349
ⲧⲕⲟⲓⲃⲱⲧⲟⲥ	-6350
ϩⲩⲡⲁⲣⲭⲟⲛⲧⲁ	-6351
▁ϩⲛⲛⲉⲧϫⲟⲥⲉ	-6352
▁ⲁⲩⲡⲓⲥⲧⲉⲩⲉ	-6353
▁ⲉⲛⲉϩⲓⲟⲟⲩⲉ	-6354
▁ⲙⲁⲣⲉϥⲥⲱⲧⲙ	-6355
▁ⲙⲛⲓⲱⲛⲁⲑⲁⲛ	-6356
▁ⲙⲛⲛϩⲉⲑⲛⲟⲥ	-6357
▁ⲙⲛⲛⲉⲛⲉⲣⲏⲩ	-6358
▁ⲙⲡⲉⲧⲟⲩⲁⲁⲃ	-6359
▁ⲙⲡⲥⲁⲧⲁⲛⲁⲥ	-6360
▁ⲛⲉⲧⲛⲁϣⲱⲡⲉ	-6361
▁ⲛⲙⲙⲁⲑⲏⲧⲏⲥ	-6362
▁ⲛⲛⲉⲧⲛϣⲏⲣⲉ	-6363
▁ⲛⲟⲩϩⲉⲑⲛⲟⲥ	-6364
▁ⲛⲧⲉⲝⲟⲩⲥⲓⲁ	-6365
▁ⲛⲧⲉⲧⲛϣⲙϣⲉ	-6366
▁ⲛⲧⲉⲧⲛⲟⲩⲱⲙ	-6367
▁ⲥⲉⲛⲁⲙⲟⲟϣⲉ	-6368
ⲁⲓⲭⲙⲁⲗⲱⲥⲓⲁ	-6369
ⲡⲁⲣⲁⲅⲅⲉⲓⲗⲉ	-6370
▁ϣⲁⲓⲉⲣⲉⲙⲓⲁⲥ	-6371
▁ϩⲛⲛⲉϥϩⲃⲏⲩⲉ	-6372
▁ⲉϫⲛⲛϩⲉⲑⲛⲟⲥ	-6373
▁ⲉⲓⲛⲁⲧⲛⲧⲱⲛⲅ	-6374
▁ⲙⲛⲛⲧⲃⲛⲟⲟⲩⲉ	-6375
▁ⲙⲡⲉⲓⲕⲟⲥⲙⲟⲥ	-6376
▁ⲛϭⲓⲡⲓⲥⲣⲁⲏⲗ	-6377
▁ⲛⲛⲉⲕⲉⲛⲧⲟⲗⲏ	-6378
▁ⲛⲛⲉⲕⲕⲗⲏⲥⲓⲁ	-6379
▁ⲛⲥⲁⲣⲟⲩⲉⲓⲁⲥ	-6380
▁ⲛⲧⲅⲁⲗⲓⲗⲁⲓⲁ	-6381
▁ⲛⲧⲙⲛⲧⲣⲙⲙⲁⲟ	-6382
▁ⲡⲁⲡⲟⲥⲧⲟⲗⲟⲥ	-6383
▁ϩⲙⲡⲥⲁⲃⲃⲁⲧⲟⲛ	-6384
▁ϩⲛⲧⲅⲁⲗⲓⲗⲁⲓⲁ	-6385
▁ⲉⲧⲉⲧⲛⲉϩⲁⲣⲉϩ	-6386
▁ⲙⲛⲡⲉⲭⲣⲓⲥⲧⲟⲥ	-6387
▁ⲛϩⲉⲛⲃⲁⲓϣⲓⲛⲉ	-6388
▁ⲛⲧⲉⲣⲉϩⲧⲟⲟⲩⲉ	-6389
▁ⲧⲁⲥⲭⲏⲙⲟⲥⲩⲛⲏ	-6390
ⲃⲟⲩⲭⲟⲇⲟⲛⲟⲥⲟⲣ	-6391
▁ⲉⲧⲉⲧⲛϣⲁⲛⲥⲱⲧⲙ	-6392
▁ⲙⲡⲛⲉⲩⲙⲁⲧⲓⲕⲟⲛ	-6393
▁ⲡⲉϫⲉⲡⲁⲅⲅⲉⲗⲟⲥ	-6394
▁ⲛⲟⲩⲑⲩⲥⲓⲁⲥⲧⲏⲣⲓⲟⲛ	-6395
ϫⲥ	-6396
ⲏⲙ	-6397
ⲓⲣ	-6398
ϣⲃⲣ	-6399
ϣⲛⲥ	-6400
ϩⲙϫ	-6401
ϩⲟⲟ	-6402
ϫⲟⲗ	-6403
ϭⲏⲡ	-6404
ϯⲃⲥ	-6405
▁ⲉϭ	-6406
▁ⲏⲡ	-6407
▁ⲡⲏ	-6408
ⲃϩⲉ	-6409
ⲃⲃⲟ	-6410
ⲃⲏϥ	-6411
ⲑⲁⲙ	-6412
ⲗⲁⲝ	-6413
ⲗⲁⲩ	-6414
ⲗⲏⲥ	-6415
ⲟⲣⲟ	-6416
ⲡⲉⲣ	-6417
ⲥⲉⲕ	-6418
ⲥⲏⲥ	-6419
ϩⲟⲩⲉ	-6420
ϩⲩⲡⲟ	-6421
ϭⲉⲉⲧ	-6422
▁ϣⲉⲡ	-6423
▁ϩⲛⲕ	-6424
▁ⲁⲗⲉ	-6425
▁ⲙⲏⲧ	-6426
▁ⲛⲕⲱ	-6427
▁ⲛⲙⲓ	-6428
▁ⲛⲙⲧ	-6429
▁ⲡⲁⲩ	-6430
▁ⲣⲣⲟ	-6431
▁ⲧⲁϯ	-6432
ⲁⲥⲡⲉ	-6433
ⲃⲛⲛⲉ	-6434
ⲅⲉⲗⲏ	-6435
ⲏⲥⲟⲥ	-6436
ⲑⲙⲕⲉ	-6437
ⲓⲕⲣⲟ	-6438
ⲕⲱⲗⲩ	-6439
ⲙⲛⲟⲥ	-6440
ⲛⲏⲫⲉ	-6441
ⲛⲟⲩϭ	-6442
ⲛⲧⲱⲥ	-6443
ⲟⲟⲩϣ	-6444
ⲟⲩⲉⲛ	-6445
ⲡⲁⲧⲁ	-6446
ⲡⲉⲧⲉ	-6447
ⲣⲟⲕϩ	-6448
ⲣⲟⲟⲃ	-6449
ⲣⲟⲩⲣ	-6450
ⲣⲡⲕⲉ	-6451
ⲥⲃⲟⲕ	-6452
ⲥⲉϣϥ	-6453
ⲧⲉϩⲙ	-6454
ⲧⲑⲁⲃ	-6455
ⲧⲟϭϥ	-6456
ⲧⲟⲛϩ	-6457
▁ϣⲓⲃⲉ	-6458
▁ϣⲟⲩⲟ	-6459
▁ϩⲛⲁϣ	-6460
▁ϩⲛⲙⲁ	-6461
▁ϩⲛⲛⲓ	-6462
▁ϩⲛⲡⲉ	-6463
▁ϩⲣⲟϣ	-6464
▁ϫⲉϥⲓ	-6465
▁ϯⲥⲃⲱ	-6466
▁ⲁϥⲉⲣ	-6467
▁ⲁϩⲟⲙ	-6468
▁ⲁⲕⲉⲓ	-6469
▁ⲁⲟⲩⲁ	-6470
▁ⲁⲩⲧⲱ	-6471
▁ⲉϥϣⲁ	-6472
▁ⲉϥϩⲁ	-6473
▁ⲉϫⲛⲁ	-6474
▁ⲉⲁϥⲣ	-6475
▁ⲉⲉⲓⲉ	-6476
▁ⲉⲝⲉⲥ	-6477
▁ⲉⲡⲁⲥ	-6478
▁ⲉⲡⲣⲏ	-6479
▁ⲉⲧⲁⲓ	-6480
▁ⲉⲩⲥⲁ	-6481
▁ⲙⲉⲣⲓ	-6482
▁ⲙⲡϣⲱ	-6483
▁ⲙⲡϥⲣ	-6484
▁ⲙⲡⲣⲉ	-6485
▁ⲛϥϥⲓ	-6486
▁ⲛϥϫⲱ	-6487
▁ⲛⲁⲡⲉ	-6488
▁ⲛⲟⲩϭ	-6489
▁ⲛⲧⲁⲁ	-6490
▁ⲛⲧⲃⲱ	-6491
▁ⲧⲁϩⲟ	-6492
▁ⲧⲁⲩⲉ	-6493
▁ⲧⲃⲃⲟ	-6494
▁ⲧⲛⲟϭ	-6495
▁ⲧⲱⲟⲩ	-6496
ⲅⲓⲅⲁⲥ	-6497
ⲇⲱⲣⲉⲁ	-6498
ⲑⲁⲉⲓⲙ	-6499
ⲕⲏⲡⲟⲥ	-6500
ⲕⲟⲙⲉⲥ	-6501
ⲙⲉⲣⲉϩ	-6502
ⲛⲟⲙⲧⲉ	-6503
ⲟⲏⲑⲟⲥ	-6504
ⲟⲟⲧⲟⲩ	-6505
ⲟⲣⲓⲛⲏ	-6506
ⲟⲩⲱⲥϥ	-6507
ⲡⲉⲣⲓⲥ	-6508
ⲡⲗⲁⲛⲏ	-6509
ⲣⲉⲥⲕⲉ	-6510
ⲣⲡⲃⲟⲗ	-6511
ⲥⲟⲗⲥⲗ	-6512
ⲥⲟⲩⲟⲓ	-6513
ⲥⲧⲣⲟⲛ	-6514
ⲧⲁϩⲟⲥ	-6515
ⲧⲁⲕⲟϥ	-6516
ⲧⲣⲟⲫⲏ	-6517
ⲫⲁⲣⲛⲁ	-6518
ϩⲁⲓⲥⲟⲩ	-6519
ϩⲉϫϩⲱϫ	-6520
ϩⲟⲙⲟⲗⲟ	-6521
ϫⲓⲉⲟⲟⲩ	-6522
▁ϥⲛⲁⲕⲱ	-6523
▁ϩⲓϫⲱⲛ	-6524
▁ϩⲛϩⲁϩ	-6525
▁ϫⲉⲙⲙⲛ	-6526
▁ⲁϥϫⲱⲕ	-6527
▁ⲁϥⲕⲧⲟ	-6528
▁ⲁϥⲛⲧϥ	-6529
▁ⲁⲥⲡⲱⲧ	-6530
▁ⲁⲩⲕⲓⲙ	-6531
▁ⲁⲩⲱϫⲛ	-6532
▁ⲉϣⲓⲛⲉ	-6533
▁ⲉϥϩⲏⲡ	-6534
▁ⲉϥⲙⲉϩ	-6535
▁ⲉϥⲛⲁϯ	-6536
▁ⲉϫⲟⲟⲩ	-6537
▁ⲉⲣⲉⲛⲉ	-6538
▁ⲉⲩⲡⲏⲧ	-6539
▁ⲑⲩⲥⲓⲁ	-6540
▁ⲕϣⲟⲟⲡ	-6541
▁ⲙⲁⲣⲉⲥ	-6542
▁ⲙⲙⲓⲭⲁ	-6543
▁ⲙⲟⲥⲧⲉ	-6544
▁ⲙⲡⲣⲕⲁ	-6545
▁ⲙⲡⲥⲟⲛ	-6546
▁ⲛϭⲓⲙⲡ	-6547
▁ⲛⲁϣⲱϥ	-6548
▁ⲛⲁⲡⲱⲧ	-6549
▁ⲛⲁⲱϫⲛ	-6550
▁ⲛⲉⲃⲓⲱ	-6551
▁ⲛⲉⲙⲁϥ	-6552
▁ⲛⲕⲟⲟϩ	-6553
▁ⲛⲟⲩϩⲉ	-6554
▁ⲛⲥⲁⲛⲁ	-6555
▁ⲛⲧⲁⲛⲉ	-6556
▁ⲛⲧⲁⲧⲙ	-6557
▁ⲟⲩⲙⲛⲧ	-6558
▁ⲡⲁⲣⲉϥ	-6559
▁ⲡⲉϥⲏⲓ	-6560
▁ⲡⲕⲟⲩⲓ	-6561
▁ⲡⲗⲁⲛⲁ	-6562
▁ⲡⲥⲁϣϥ	-6563
▁ⲧϣⲟⲣⲡ	-6564
▁ⲧⲁⲙⲓⲟ	-6565
▁ⲧⲁⲣⲉⲕ	-6566
▁ⲧⲉⲛⲧⲁ	-6567
ⲁϩⲉⲣⲁⲧ	-6568
ⲁⲩⲝⲁⲛⲉ	-6569
ⲅⲁⲗⲁⲁⲇ	-6570
ⲏⲥⲧⲉⲓⲁ	-6571
ⲙⲛⲧⲟⲩⲉ	-6572
ⲟⲩϣⲁϫⲉ	-6573
ⲡⲉϥϩⲏⲧ	-6574
ⲡⲟⲟⲛⲟⲩ	-6575
ⲣⲁⲓⲧⲉⲓ	-6576
ⲣⲅⲁⲧⲏⲥ	-6577
ⲧⲃⲃⲟⲟⲩ	-6578
ⲧⲉⲕϭⲟⲙ	-6579
▁ϣⲁⲡⲣⲣⲟ	-6580
▁ϩⲛⲟⲩϣⲓ	-6581
▁ϫⲉⲛϥⲛⲁ	-6582
▁ϫⲉⲡⲣⲣⲟ	-6583
▁ⲁϥⲡⲱⲣϣ	-6584
▁ⲁϥⲧⲁⲙⲉ	-6585
▁ⲁϩⲣⲱⲧⲛ	-6586
▁ⲁⲡⲙⲟⲟⲩ	-6587
▁ⲁⲩⲕⲁⲁⲧ	-6588
▁ⲉϥϭⲱϣⲧ	-6589
▁ⲉϩⲃⲟⲩⲣ	-6590
▁ⲉϫⲛⲧⲉⲩ	-6591
▁ⲉⲓϣⲁϫⲉ	-6592
▁ⲉⲛⲧⲁⲩⲥ	-6593
▁ⲉⲟⲩⲛⲁⲛ	-6594
▁ⲉⲟⲩⲱϣⲧ	-6595
▁ⲉⲡϫⲓⲥⲉ	-6596
▁ⲉⲡⲉⲕⲙⲁ	-6597
▁ⲉⲧϩⲓϫⲛ	-6598
▁ⲉⲧⲃⲉⲛⲁ	-6599
▁ⲉⲩⲣⲓⲙⲉ	-6600
▁ⲓⲟⲩⲇⲁⲥ	-6601
▁ⲕⲗⲏⲣⲟⲥ	-6602
▁ⲙⲛⲡⲙⲟⲩ	-6603
▁ⲙⲡϣⲓⲡⲉ	-6604
▁ⲙⲡⲁⲱⲛϩ	-6605
▁ⲙⲡⲉⲥⲏⲧ	-6606
▁ⲙⲡⲉⲧⲣⲁ	-6607
▁ⲛϥⲧⲁⲕⲟ	-6608
▁ⲛⲁⲧⲥⲃⲱ	-6609
▁ⲛⲛϫⲁϫⲉ	-6610
▁ⲛⲛⲉⲧϩⲛ	-6611
▁ⲛⲧⲟⲟⲧⲉ	-6612
▁ⲟⲩⲙⲁⲥⲉ	-6613
▁ⲡⲁⲧϩⲏⲧ	-6614
▁ⲡⲉⲥⲛⲟϥ	-6615
▁ⲡⲙⲁⲉⲓⲛ	-6616
▁ⲣⲣⲙⲙⲁⲟ	-6617
▁ⲥⲁⲙⲯⲱⲛ	-6618
▁ⲧⲉⲧⲛϫⲱ	-6619
ⲁⲣⲛⲁⲃⲁⲥ	-6620
ⲅⲉϩⲉⲛⲛⲁ	-6621
ⲕⲏⲣⲩⲥⲥⲉ	-6622
ⲕⲗⲩⲥⲙⲟⲥ	-6623
ⲙⲁⲛϣⲱⲡⲉ	-6624
ⲙⲓⲛⲁⲇⲁⲃ	-6625
ⲡⲁⲗⲗⲁⲕⲏ	-6626
ⲡⲉⲕϣⲏⲣⲉ	-6627
ⲡⲓⲥⲣⲁⲏⲗ	-6628
ⲣⲙⲡⲟⲟⲩⲉ	-6629
ⲧϩⲉⲗⲡⲓⲥ	-6630
ⲧⲛⲁϣⲱⲡⲉ	-6631
ϩⲣⲱⲙⲁⲓⲟⲥ	-6632
▁ϣⲁⲟⲩϫⲱⲙ	-6633
▁ϩⲁⲡⲉⲥⲏⲧ	-6634
▁ϩⲉⲛⲉⲃⲟⲗ	-6635
▁ϩⲛⲓⲁⲕⲱⲃ	-6636
▁ϫⲉϩⲙⲟⲟⲥ	-6637
▁ϫⲉⲉⲕϣⲁⲛ	-6638
▁ϫⲉⲙⲉϣⲁⲕ	-6639
▁ϫⲉⲙⲟⲟϣⲉ	-6640
▁ⲁϥϫⲛⲟⲩϥ	-6641
▁ⲁϥϭⲙϭⲟⲙ	-6642
▁ⲁϥⲕⲣⲓⲛⲉ	-6643
▁ⲁϥⲥⲱⲟⲩϩ	-6644
▁ⲁⲓϩⲁⲣⲉϩ	-6645
▁ⲁⲓⲧⲱⲟⲩⲛ	-6646
▁ⲁⲩⲁⲣⲭⲉⲓ	-6647
▁ⲉⲡⲁϣⲁϫⲉ	-6648
▁ⲉⲧϩⲙⲟⲟⲥ	-6649
▁ⲉⲧⲥⲟⲟⲩⲛ	-6650
▁ⲉⲩϣⲁⲛⲉⲓ	-6651
▁ⲕⲁⲧⲁϩⲱⲃ	-6652
▁ⲙⲡⲥⲟⲟⲩⲛ	-6653
▁ⲛϥⲥⲟⲟⲩⲛ	-6654
▁ⲛⲑⲗⲓⲯⲓⲥ	-6655
▁ⲛⲛⲁϩⲣⲁϥ	-6656
▁ⲛⲛⲟϭⲛⲉϭ	-6657
▁ⲛⲟⲩϩⲏⲕⲉ	-6658
▁ⲛⲥⲉⲥⲱⲧⲙ	-6659
▁ⲛⲧⲁⲙⲁⲁⲩ	-6660
▁ⲛⲧⲉϥⲙⲛⲧ	-6661
▁ⲟⲩϣⲡⲏⲣⲉ	-6662
▁ⲡⲃⲁⲡⲧⲓⲥ	-6663
▁ⲡⲉϥⲗⲁⲟⲥ	-6664
▁ⲡⲉⲧⲟⲩⲛⲁ	-6665
▁ⲡⲉⲧⲥⲱⲧⲙ	-6666
▁ⲡⲓⲗⲁⲧⲟⲥ	-6667
▁ⲥⲙⲁⲙⲁⲁⲧ	-6668
ⲓⲉⲣⲉⲙⲓⲁⲥ	-6669
ⲣⲉϥϫⲛⲁⲁⲩ	-6670
ⲥⲁϩⲉⲣⲁⲧⲥ	-6671
ⲧⲉϥⲥϩⲓⲙⲉ	-6672
ⲫⲁⲣⲛⲁⲟⲩⲙ	-6673
ϩⲉⲛⲁⲅⲁⲑⲟⲛ	-6674
▁ϩⲛⲇⲁⲩⲉⲓⲇ	-6675
▁ϩⲛⲛⲉⲩϭⲓϫ	-6676
▁ϩⲛⲧⲉⲕϭⲟⲙ	-6677
▁ϫⲉϯⲛⲁⲃⲱⲕ	-6678
▁ϫⲉⲁⲓϫⲟⲟⲥ	-6679
▁ⲁϥⲥⲟⲟⲩⲧⲛ	-6680
▁ⲁϥⲧⲛⲛⲟⲟⲩ	-6681
▁ⲉⲛϥⲥⲟⲟⲩⲛ	-6682
▁ⲉⲧⲉϥⲯⲩⲭⲏ	-6683
▁ⲉⲧⲉⲥⲕⲏⲛⲏ	-6684
▁ⲉⲧⲛⲁϣⲱⲟⲩ	-6685
▁ⲙⲛⲛⲥⲁⲧⲣⲉ	-6686
▁ⲙⲛⲡϫⲟⲉⲓⲥ	-6687
▁ⲙⲡⲁⲛⲟⲩⲧⲉ	-6688
▁ⲙⲡⲉⲛⲉⲓⲱⲧ	-6689
▁ⲙⲡⲉⲧⲟⲩⲛⲁ	-6690
▁ⲛϭⲓⲁⲁⲣⲱⲛ	-6691
▁ⲛϭⲓⲓⲁⲕⲱⲃ	-6692
▁ⲛϭⲓⲓⲱⲥⲏⲫ	-6693
▁ⲛϭⲓⲥⲓⲙⲱⲛ	-6694
▁ⲛⲉⲝⲟⲩⲥⲓⲁ	-6695
▁ⲛⲛⲉϥϣⲁϫⲉ	-6696
▁ⲛⲥⲉⲥⲟⲟⲩⲛ	-6697
▁ⲡⲁⲃⲟⲏⲑⲟⲥ	-6698
ⲇⲇⲟⲩⲕⲁⲓⲟⲥ	-6699
ⲙⲛⲧⲁⲧⲥⲃⲃⲉ	-6700
ⲩⲁⲅⲅⲉⲗⲓⲍⲉ	-6701
▁ϩⲛⲟⲩⲡⲟⲗⲓⲥ	-6702
▁ϯⲛⲁⲯⲁⲗⲗⲉⲓ	-6703
▁ⲉⲧϩⲛⲧⲙⲏⲧⲉ	-6704
▁ⲙⲁⲣⲉϥϣⲱⲡⲉ	-6705
▁ⲙⲛⲛⲉϥⲥⲛⲏⲩ	-6706
▁ⲙⲡϫⲓⲛϭⲟⲛⲥ	-6707
▁ⲙⲡⲉⲓⲛⲟⲙⲟⲥ	-6708
▁ⲛϭⲓⲇⲁⲩⲉⲓⲇ	-6709
▁ⲛϭⲓⲛⲉⲛⲧⲁⲩ	-6710
▁ⲛⲛⲉⲑⲏⲣⲓⲟⲛ	-6711
▁ⲛⲛⲧⲃⲛⲟⲟⲩⲉ	-6712
▁ⲛⲟⲩϭⲟⲟⲩⲛⲉ	-6713
▁ⲛⲟⲩⲡⲛⲉⲩⲙⲁ	-6714
▁ⲛⲧⲉⲓⲡⲟⲗⲓⲥ	-6715
▁ⲛⲧⲉⲕⲣⲓⲥⲓⲥ	-6716
▁ⲛⲧⲉⲧⲛϫⲟⲟⲥ	-6717
▁ⲡⲉϫⲉⲡⲇⲟⲩⲝ	-6718
ⲓⲉⲃⲟⲩⲥⲁⲓⲟⲥ	-6719
ⲥⲕⲁⲛⲇⲁⲗⲓⲍⲉ	-6720
ⲥⲩⲛⲉⲓⲇⲏⲥⲓⲥ	-6721
▁ϩⲛⲛⲧⲃⲛⲟⲟⲩⲉ	-6722
▁ϫⲉϥⲥⲙⲁⲙⲁⲁⲧ	-6723
▁ⲉⲛⲉⲕⲉⲛⲧⲟⲗⲏ	-6724
▁ⲉⲧⲁϩⲉⲣⲁⲧⲟⲩ	-6725
▁ⲉⲧⲅⲁⲗⲓⲗⲁⲓⲁ	-6726
▁ⲉⲧⲉⲑⲁⲗⲁⲥⲥⲁ	-6727
▁ⲙⲛⲛⲉⲩⲕⲉⲧⲙⲉ	-6728
▁ⲛϭⲓⲧⲉⲥϩⲓⲙⲉ	-6729
▁ⲛϭⲓⲧⲙⲛⲧⲣⲣⲟ	-6730
▁ⲛⲛⲉⲧⲥⲟⲩⲧⲱⲛ	-6731
▁ⲛⲧⲁⲇⲓⲁⲑⲏⲕⲏ	-6732
▁ⲛⲧⲉⲡⲓⲥⲣⲁⲏⲗ	-6733
▁ⲛⲧⲉⲣⲉϥⲉⲓⲙⲉ	-6734
▁ⲡⲁⲗⲗⲟⲫⲩⲗⲟⲥ	-6735
▁ⲡⲃⲁⲡⲧⲓⲥⲧⲏⲥ	-6736
▁ⲡⲡⲉⲧⲛⲁⲛⲟⲩϥ	-6737
ⲙⲟⲛⲁⲥⲧⲏⲣⲓⲟⲛ	-6738
▁ϩⲙⲡⲙⲉϩϣⲟⲙⲛⲧ	-6739
▁ϩⲛⲧⲥⲩⲛⲁⲅⲱⲅⲏ	-6740
▁ϫⲉⲡⲉⲭⲣⲓⲥⲧⲟⲥ	-6741
▁ⲉϫⲛⲧϩⲁⲗⲁⲥⲥⲁ	-6742
▁ⲛϭⲓⲡⲁⲅⲅⲉⲗⲟⲥ	-6743
▁ⲛⲛⲁⲣⲭⲓⲉⲣⲉⲩⲥ	-6744
▁ⲧⲉⲕⲗⲏⲣⲟⲛⲟⲙⲓⲁ	-6745
▁ⲛⲉⲡⲣⲉⲥⲃⲩⲧⲉⲣⲟⲥ	-6746
▁ⲙⲛⲟⲩⲇⲓⲕⲁⲓⲟⲥⲩⲛⲏ	-6747
ⲅⲱ	-6748
ⲉⲡ	-6749
ⲑⲱ	-6750
ⲕⲙ	-6751
ⲙⲃ	-6752
ⲛⲥ	-6753
ϣⲁⲁ	-6754
ϩⲁⲕ	-6755
ϩⲓⲣ	-6756
ϩⲱⲣ	-6757
ϫⲏⲣ	-6758
ϭⲁⲗ	-6759
ϭⲉⲛ	-6760
ϭⲗⲱ	-6761
ϯⲙⲏ	-6762
▁ϯϯ	-6763
ⲁⲛϣ	-6764
ⲁⲛⲁ	-6765
ⲃⲃⲱ	-6766
ⲃⲱⲑ	-6767
ⲅⲉⲣ	-6768
ⲇⲱⲃ	-6769
ⲇⲱⲑ	-6770
ⲍⲉⲃ	-6771
ⲓⲙⲉ	-6772
ⲓⲛⲁ	-6773
ⲕⲉⲓ	-6774
ⲛⲱⲉ	-6775
ⲟϣⲥ	-6776
ⲟⲩⲇ	-6777
ⲧⲟⲡ	-6778
ⲧⲥⲓ	-6779
ⲭⲱⲣ	-6780
ⲱⲣⲙ	-6781
ⲱⲧⲃ	-6782
ϣⲁⲣⲉ	-6783
ϩⲛⲟⲩ	-6784
ϩⲧⲏⲥ	-6785
ϫⲟⲩϥ	-6786
ϭⲣⲏⲛ	-6787
▁ϣⲁⲁ	-6788
▁ϣⲱⲡ	-6789
▁ϩⲱⲡ	-6790
▁ϫⲣⲟ	-6791
▁ⲁⲛⲓ	-6792
▁ⲁⲥⲉ	-6793
▁ⲁⲧⲉ	-6794
▁ⲙⲛⲅ	-6795
▁ⲙⲛⲥ	-6796
▁ⲛϭⲁ	-6797
▁ⲛⲃⲟ	-6798
▁ⲛⲣⲟ	-6799
▁ⲛⲭⲁ	-6800
▁ⲡⲏϩ	-6801
▁ⲣⲟⲩ	-6802
ⲃⲃⲉⲓ	-6803
ⲃⲟⲗϥ	-6804
ⲅⲙⲟⲥ	-6805
ⲇⲁⲍⲉ	-6806
ⲇⲓⲁⲥ	-6807
ⲓⲁⲁⲩ	-6808
ⲓⲟⲩⲇ	-6809
ⲓⲱⲟⲩ	-6810
ⲕⲓⲟⲛ	-6811
ⲗⲉⲧⲁ	-6812
ⲙⲓⲟⲛ	-6813
ⲛⲓⲕⲏ	-6814
ⲛⲟⲩⲕ	-6815
ⲟⲗⲉⲥ	-6816
ⲟⲟϩⲉ	-6817
ⲟⲟⲧⲕ	-6818
ⲟⲟⲩⲧ	-6819
ⲟⲣⲣⲁ	-6820
ⲟⲧⲟⲩ	-6821
ⲡⲉⲣⲉ	-6822
ⲡⲓⲥⲁ	-6823
ⲣϩⲁⲗ	-6824
ⲣⲙⲛⲧ	-6825
ⲣⲡⲁⲓ	-6826
ⲥⲁⲛϣ	-6827
ⲥⲏϣⲉ	-6828
ⲥⲓⲁⲥ	-6829
ⲥⲟϭⲛ	-6830
ⲭⲓⲟⲛ	-6831
ϣⲧⲣⲧⲣ	-6832
ϩⲁⲓⲣⲉ	-6833
ϩⲟⲛⲟⲩ	-6834
ϯϣⲓⲡⲉ	-6835
▁ϣⲁⲧⲛ	-6836
▁ϩⲟⲣϣ	-6837
▁ϫⲓⲧϥ	-6838
▁ϭⲱⲗⲡ	-6839
▁ϯϩⲱⲛ	-6840
▁ⲁϥⲡⲟ	-6841
▁ⲁⲛⲉϥ	-6842
▁ⲁⲛⲟⲩ	-6843
▁ⲉⲓⲧⲁ	-6844
▁ⲉⲛⲕⲁ	-6845
▁ⲉⲡϣⲁ	-6846
▁ⲉⲧⲕⲏ	-6847
▁ⲉⲧⲥⲁ	-6848
▁ⲉⲩⲱϣ	-6849
▁ⲕⲟⲧϥ	-6850
▁ⲕⲟⲧⲕ	-6851
▁ⲙⲡⲕⲱ	-6852
▁ⲛϣⲁϥ	-6853
▁ⲛϩⲣⲏ	-6854
▁ⲛⲁϫⲉ	-6855
▁ⲛⲁϭⲱ	-6856
▁ⲛⲓⲱⲃ	-6857
▁ⲛⲙⲛⲁ	-6858
▁ⲛⲧⲁϯ	-6859
▁ⲟⲩⲏⲩ	-6860
▁ⲟⲩⲛⲁ	-6861
▁ⲡⲉⲓⲉ	-6862
▁ⲡⲗⲁⲥ	-6863
▁ⲡⲟⲟϩ	-6864
▁ⲥⲓⲱⲛ	-6865
▁ⲥⲟⲧⲉ	-6866
▁ⲧⲁⲣⲛ	-6867
ⲁⲅⲁⲡⲏ	-6868
ⲁⲡⲏⲩⲉ	-6869
ⲃⲁϩⲁⲗ	-6870
ⲃⲁⲃⲉⲗ	-6871
ⲃⲃⲱⲣⲁ	-6872
ⲇⲓⲕⲟⲥ	-6873
ⲇⲟⲫⲉⲗ	-6874
ⲍⲁⲣⲉⲑ	-6875
ⲏⲥⲧⲟⲥ	-6876
ⲓⲕⲟⲩⲓ	-6877
ⲓⲟⲩϣⲏ	-6878
ⲓⲥⲙⲟⲧ	-6879
ⲕⲁⲛⲱⲛ	-6880
ⲕⲁⲣⲱⲓ	-6881
ⲕⲉⲩⲟⲥ	-6882
ⲗⲗⲁⲥⲁ	-6883
ⲗⲟⲅⲓⲁ	-6884
ⲛⲏⲥⲟⲥ	-6885
ⲟⲩⲁϩⲥ	-6886
ⲟⲩⲟⲃϣ	-6887
ⲟⲩⲱⲧⲉ	-6888
ⲡⲣⲟⲥⲉ	-6889
ⲡⲱⲣⲟⲥ	-6890
ⲣⲙⲛⲏⲓ	-6891
ⲥⲁⲉⲓⲛ	-6892
ⲥⲟⲡⲥⲡ	-6893
ⲧⲁⲗϭⲉ	-6894
ⲧⲛⲛⲁⲩ	-6895
ⲧⲣⲁⲧⲏ	-6896
ⲧⲣⲩⲫⲏ	-6897
ⲩⲉⲟⲟⲩ	-6898
▁ϣⲁⲡⲉⲩ	-6899
▁ϣⲟⲙⲧⲉ	-6900
▁ϥⲛⲁϥⲓ	-6901
▁ϩⲁϫⲱϥ	-6902
▁ϩⲁⲣⲁⲧ	-6903
▁ϩⲁⲧⲉⲛ	-6904
▁ϩⲁⲧⲛⲧ	-6905
▁ϩⲛⲟⲩⲉ	-6906
▁ϩⲛⲧⲉⲛ	-6907
▁ϩⲛⲧⲟⲩ	-6908
▁ⲁϥⲥⲙⲛ	-6909
▁ⲁϥⲧⲟⲩ	-6910
▁ⲁⲓⲧⲉⲓ	-6911
▁ⲁⲙⲛⲱⲛ	-6912
▁ⲁⲡⲟⲩⲁ	-6913
▁ⲇⲱⲣⲟⲛ	-6914
▁ⲉϣⲙϣⲉ	-6915
▁ⲉϥϫⲏⲕ	-6916
▁ⲉϥⲧⲱⲛ	-6917
▁ⲉⲡⲟⲩⲉ	-6918
▁ⲉⲡⲣⲡⲉ	-6919
▁ⲉⲣⲉⲧⲁ	-6920
▁ⲉⲣⲱⲧⲉ	-6921
▁ⲉⲧⲙⲉϩ	-6922
▁ⲓⲱⲥⲏⲫ	-6923
▁ⲙⲙⲓϣⲉ	-6924
▁ⲙⲛⲛⲟⲩ	-6925
▁ⲙⲛⲧϩⲉ	-6926
▁ⲙⲟⲅⲓⲥ	-6927
▁ⲙⲡϫⲱⲕ	-6928
▁ⲙⲡⲁⲏⲓ	-6929
▁ⲙⲡⲁⲙⲁ	-6930
▁ⲙⲡⲉⲓⲉ	-6931
▁ⲙⲡⲣⲉϥ	-6932
▁ⲙⲡⲣⲡⲉ	-6933
▁ⲛϩⲉⲛⲉ	-6934
▁ⲛϭⲱⲛⲧ	-6935
▁ⲛⲁϩⲣⲛ	-6936
▁ⲛⲁⲱⲛϩ	-6937
▁ⲛⲉⲧⲙⲉ	-6938
▁ⲛⲛⲧⲉⲧ	-6939
▁ⲛⲟⲩⲃⲱ	-6940
▁ⲛⲟⲩⲉϣ	-6941
▁ⲛⲥⲉϥⲓ	-6942
▁ⲛⲥⲏⲱⲛ	-6943
▁ⲛⲥⲱⲃⲉ	-6944
▁ⲛⲧⲁⲩⲉ	-6945
▁ⲛⲧⲛⲛⲁ	-6946
▁ⲛⲭⲏⲣⲁ	-6947
▁ⲡⲉϫⲉⲓ	-6948
▁ⲡⲉⲓⲛⲉ	-6949
▁ⲡⲉⲧϫⲓ	-6950
▁ⲡⲧⲁⲕⲟ	-6951
▁ⲥϩⲓⲙⲉ	-6952
▁ⲧⲥⲏϥⲉ	-6953
▁ⲧⲥⲱϣⲉ	-6954
ⲉⲓⲁⲕⲱⲃ	-6955
ⲍⲉⲃⲟⲩⲗ	-6956
ⲑⲃⲃⲓⲟϥ	-6957
ⲙⲉⲕⲙⲟⲩ	-6958
ⲙⲉⲥⲧⲱϥ	-6959
ⲛⲁⲛⲓⲁⲥ	-6960
ⲛⲁⲥⲧⲏⲥ	-6961
ⲟⲩⲉⲓⲛⲉ	-6962
ⲡⲟⲗⲗⲱⲛ	-6963
ⲣⲓⲡⲡⲁⲥ	-6964
ⲣⲙⲛϯⲙⲉ	-6965
ⲥⲁϩⲱⲟⲩ	-6966
ⲧⲁⲙⲓⲏⲩ	-6967
ⲧⲁⲙⲟⲟⲩ	-6968
ⲧⲟⲩϫⲟϥ	-6969
ⲧⲟⲩϫⲟⲕ	-6970
▁ϥⲛⲁⲱⲛϩ	-6971
▁ϥⲥⲟⲟⲩⲛ	-6972
▁ϩⲁϩⲧⲏⲓ	-6973
▁ϩⲓϫⲙⲡⲉ	-6974
▁ϩⲙⲡⲣⲡⲉ	-6975
▁ϫⲉϥⲟⲛϩ	-6976
▁ϫⲉⲁⲛⲁⲩ	-6977
▁ϫⲉⲉⲕⲛⲁ	-6978
▁ϫⲉⲛⲁⲓⲁ	-6979
▁ϯⲛⲁⲧⲣⲉ	-6980
▁ⲁϥⲡⲱϩⲧ	-6981
▁ⲁⲓϭⲱϣⲧ	-6982
▁ⲁⲕϫⲟⲟⲥ	-6983
▁ⲁⲕⲥⲱⲧⲙ	-6984
▁ⲁⲗⲏⲑⲱⲥ	-6985
▁ⲁⲛϣⲱⲡⲉ	-6986
▁ⲁⲡⲟⲗⲗⲱ	-6987
▁ⲅⲉⲇⲉⲱⲛ	-6988
▁ⲉⲕϣⲁⲛϯ	-6989
▁ⲉⲙⲛϭⲟⲙ	-6990
▁ⲉⲙⲡⲏⲩⲉ	-6991
▁ⲉⲛⲁϣⲱⲥ	-6992
▁ⲉⲡⲉⲩⲙⲁ	-6993
▁ⲉⲣⲉⲛⲉⲕ	-6994
▁ⲉⲧϩⲓϫⲙ	-6995
▁ⲉⲩⲕⲱⲧⲉ	-6996
▁ⲉⲩⲥⲱⲧⲙ	-6997
▁ⲙⲛⲣⲱⲙⲉ	-6998
▁ⲙⲛⲧϭⲟⲙ	-6999
▁ⲙⲡϣⲟⲣⲡ	-7000
▁ⲙⲡⲁⲓⲱⲛ	-7001
▁ⲙⲡⲉϥϩⲉ	-7002
▁ⲙⲡⲙⲟⲩⲓ	-7003
▁ⲙⲡⲟⲣⲛⲏ	-7004
▁ⲙⲡⲧⲏⲣϥ	-7005
▁ⲛϣⲟⲙⲧⲉ	-7006
▁ⲛⲁϩⲣⲁⲓ	-7007
▁ⲛⲁϫⲟⲟⲩ	-7008
▁ⲛⲁⲉⲓⲛⲉ	-7009
▁ⲛⲃⲗⲗⲁⲓ	-7010
▁ⲛⲓⲥⲁⲁⲕ	-7011
▁ⲛⲟⲩⲃⲁⲗ	-7012
▁ⲛⲟⲩⲛⲟⲩ	-7013
▁ⲛⲥⲉⲛⲁⲩ	-7014
▁ⲛⲧⲁⲁⲡⲉ	-7015
▁ⲛⲧⲁⲃⲱⲕ	-7016
▁ⲛⲧⲉⲗⲏⲗ	-7017
▁ⲛⲧⲉⲣⲉⲛ	-7018
▁ⲛⲧⲟⲟⲧⲛ	-7019
▁ⲟⲩⲙⲟⲟⲩ	-7020
▁ⲟⲩⲣⲓⲁⲥ	-7021
▁ⲡⲉⲧⲓⲛⲁ	-7022
▁ⲣⲙⲛⲧⲣⲉ	-7023
▁ⲥⲉϣⲓⲛⲉ	-7024
▁ⲧⲁⲉⲓⲟⲩ	-7025
▁ⲧⲟⲟⲧⲟⲩ	-7026
ⲅⲗⲩⲡⲧⲟⲛ	-7027
ⲕⲁⲥⲧⲣⲟⲛ	-7028
ⲕⲟⲗⲁⲥⲓⲥ	-7029
ⲙⲁⲥⲧⲓⲅⲝ	-7030
ⲛⲉϥϣⲏⲣⲉ	-7031
ⲟⲩⲣⲏⲏⲧⲉ	-7032
ⲣⲓⲭⲱⲣⲟⲥ	-7033
ⲥⲁⲧⲉⲉⲣⲉ	-7034
ⲭⲁⲗⲕⲓⲟⲛ	-7035
ϩⲁⲓⲣⲉⲥⲓⲥ	-7036
▁ϩⲓϫⲙⲡϩⲟ	-7037
▁ϩⲓϫⲛⲧⲉϥ	-7038
▁ϩⲙⲡⲉⲕⲏⲓ	-7039
▁ϩⲙⲡⲙⲟⲟⲩ	-7040
▁ϩⲛⲣⲣⲱⲟⲩ	-7041
▁ϩⲛⲧⲁϭⲓϫ	-7042
▁ϫⲉⲁϩⲣⲟⲕ	-7043
▁ϫⲉⲛⲧⲕⲟⲩ	-7044
▁ϫⲉⲭⲁⲓⲣⲉ	-7045
▁ϯⲛⲁⲧⲁⲁϥ	-7046
▁ⲁϥⲥⲟⲩⲧⲛ	-7047
▁ⲁϥⲧⲁⲙⲓⲟ	-7048
▁ⲉϥⲙⲉⲉⲩⲉ	-7049
▁ⲉϥⲧⲁⲓⲏⲩ	-7050
▁ⲉⲕⲉⲉⲓⲙⲉ	-7051
▁ⲉⲛⲉⲕϭⲓϫ	-7052
▁ⲉⲝⲟⲩⲥⲓⲁ	-7053
▁ⲉⲟⲩⲛⲧⲁⲛ	-7054
▁ⲉⲧⲃⲉⲡⲉⲓ	-7055
▁ⲉⲧⲣϩⲟⲧⲉ	-7056
▁ⲉⲩϣⲁⲛⲧⲁ	-7057
▁ⲉⲩⲟⲩⲁⲁⲃ	-7058
▁ⲙⲛⲛⲥⲱⲟⲩ	-7059
▁ⲙⲡϣⲟϫⲛⲉ	-7060
▁ⲙⲡⲉⲓⲕⲁϩ	-7061
▁ⲙⲡⲉⲥⲟⲩⲟ	-7062
▁ⲙⲡⲙⲉⲉⲩⲉ	-7063
▁ⲙⲡⲟⲩⲛⲁⲩ	-7064
▁ⲛϩⲉⲣⲙⲁⲛ	-7065
▁ⲛⲁⲕⲣⲓⲛⲉ	-7066
▁ⲛⲉⲓϣⲁϫⲉ	-7067
▁ⲛⲉⲕϣⲏⲣⲉ	-7068
▁ⲛⲉⲥⲉⲃⲱⲛ	-7069
▁ⲛⲉⲧⲟⲩⲱⲙ	-7070
▁ⲛⲉⲩϣⲏⲣⲉ	-7071
▁ⲛⲏⲥⲁⲓⲁⲥ	-7072
▁ⲛⲕⲗⲟⲟⲗⲉ	-7073
▁ⲛⲛⲉⲩⲃⲁⲗ	-7074
▁ⲛⲟⲩⲙⲟⲩⲓ	-7075
▁ⲛⲟⲩⲥⲏϥⲉ	-7076
▁ⲟⲩϩⲟⲟⲩⲧ	-7077
▁ⲡⲉⲧϫⲟⲥⲉ	-7078
ⲕⲓⲛⲇⲩⲛⲟⲥ	-7079
ⲗⲁⲭⲓⲥⲧⲟⲥ	-7080
ⲛⲁⲡⲁⲩⲥⲓⲥ	-7081
ⲛⲁⲥⲡⲟⲧⲟⲩ	-7082
ⲛⲧⲁⲩϫⲟⲟϥ	-7083
ⲟⲣⲟⲃⲁⲃⲉⲗ	-7084
ⲥⲩⲅⲅⲉⲛⲏⲥ	-7085
ⲧⲛⲛⲟⲟⲩⲥⲉ	-7086
ϩⲟⲙⲟⲗⲟⲅⲓⲁ	-7087
▁ϥⲛⲁⲟⲩϫⲁⲓ	-7088
▁ϩⲛϩⲉⲛⲱⲛⲉ	-7089
▁ϫⲉϯⲥⲟⲟⲩⲛ	-7090
▁ϫⲉⲁϩⲣⲱⲧⲛ	-7091
▁ϫⲉⲁⲙⲏⲓⲧⲛ	-7092
▁ϫⲉⲙⲛⲗⲁⲁⲩ	-7093
▁ϫⲉⲙⲡϩⲟⲟⲩ	-7094
▁ϫⲉⲛⲧⲁⲓⲉⲓ	-7095
▁ⲁϥϣⲛϩⲧⲏϥ	-7096
▁ⲁϥⲁⲥⲡⲁⲍⲉ	-7097
▁ⲁϥⲣϣⲡⲏⲣⲉ	-7098
▁ⲉϩⲉⲛϣⲁϫⲉ	-7099
▁ⲉϫⲙⲡⲉϥⲏⲓ	-7100
▁ⲉϫⲛⲥⲁⲟⲩⲗ	-7101
▁ⲉⲡⲉⲧϩⲟⲟⲩ	-7102
▁ⲉⲧⲙⲡⲉⲙⲧⲟ	-7103
▁ⲙⲁⲣⲉϥⲙⲟⲩ	-7104
▁ⲙⲛⲛⲉϩⲟⲟⲩ	-7105
▁ⲙⲡⲁⲙⲁⲗⲏⲕ	-7106
▁ⲙⲡⲉⲧⲙⲙⲁⲩ	-7107
▁ⲙⲡⲙⲉϩⲥⲉⲡ	-7108
▁ⲛⲉϥϩⲙϩⲁⲗ	-7109
▁ⲛⲉⲓⲕⲟⲟⲩⲉ	-7110
▁ⲛⲉⲧⲟⲩⲁⲁⲃ	-7111
▁ⲛⲉⲧⲥⲟⲟⲩⲛ	-7112
▁ⲛⲛⲁⲅⲁⲑⲟⲛ	-7113
▁ⲛⲛⲉⲕⲛⲟⲃⲉ	-7114
▁ⲛⲛⲉⲧⲛϩⲏⲧ	-7115
▁ⲛⲛⲉⲩϫⲁϫⲉ	-7116
▁ⲛⲥⲁϩⲃⲟⲩⲣ	-7117
▁ⲛⲧⲁⲥϣⲱⲡⲉ	-7118
▁ⲛⲧⲃⲛⲟⲟⲩⲉ	-7119
▁ⲛⲧⲉⲓⲟⲩⲇⲁ	-7120
▁ⲛⲧⲉⲣⲓⲛⲁⲩ	-7121
▁ⲡⲉϥⲟⲩⲟⲉⲓ	-7122
▁ⲡⲉⲧⲛⲁⲃⲱⲕ	-7123
▁ⲡⲉⲧⲛⲉⲓⲱⲧ	-7124
▁ⲡⲉⲩⲛⲟⲩⲧⲉ	-7125
▁ⲥⲉⲛⲁⲉⲓⲙⲉ	-7126
ⲃⲉⲛⲓⲁⲙⲉⲓⲛ	-7127
ⲫⲉⲣⲉⲍⲁⲓⲟⲥ	-7128
▁ϩⲙⲡⲉϣⲧⲉⲕⲟ	-7129
▁ϩⲙⲡⲉϥⲉⲟⲟⲩ	-7130
▁ϩⲛⲅⲁⲗⲅⲁⲗⲁ	-7131
▁ⲁϥⲥⲁⲗⲡⲓⲍⲉ	-7132
▁ⲁⲡⲁⲅⲅⲉⲗⲟⲥ	-7133
▁ⲉⲕϣⲁⲛⲥⲱⲧⲙ	-7134
▁ⲉⲛⲉⲧⲟⲩⲁⲁⲃ	-7135
▁ⲉⲡⲡⲉⲧϩⲟⲟⲩ	-7136
▁ⲙⲛϥⲧⲟⲟⲩϣⲉ	-7137
▁ⲙⲛⲛⲉⲩϣⲏⲣⲉ	-7138
▁ⲙⲡⲁⲣⲑⲉⲛⲟⲥ	-7139
▁ⲙⲡⲉⲕϫⲟⲉⲓⲥ	-7140
▁ⲙⲡⲡⲉⲧϩⲟⲟⲩ	-7141
▁ⲛⲁⲃⲓⲙⲉⲗⲉⲭ	-7142
▁ⲛⲅⲁϩⲉⲣⲁⲧⲕ	-7143
▁ⲛⲇⲓⲁⲕⲟⲛⲟⲥ	-7144
▁ⲛⲉⲕⲕⲗⲏⲥⲓⲁ	-7145
▁ⲛⲍⲁⲃⲟⲩⲗⲱⲛ	-7146
▁ⲛⲛϫⲁⲥⲓϩⲏⲧ	-7147
▁ⲛⲛⲉⲧⲛⲛⲟⲃⲉ	-7148
▁ⲛⲟⲩⲛⲟϭⲛⲉϭ	-7149
▁ⲛⲥⲉⲇⲉⲕⲓⲁⲥ	-7150
▁ⲛⲧⲁⲓⲏⲥⲟⲩⲥ	-7151
▁ⲛⲧⲉⲕϩⲙϩⲁⲗ	-7152
▁ⲛⲧⲉⲧⲛⲉⲓⲣⲉ	-7153
▁ⲡⲙⲉϩϣⲟⲙⲛⲧ	-7154
▁ⲧⲉⲑⲁⲗⲁⲥⲥⲁ	-7155
ⲉⲝⲟⲙⲟⲗⲟⲅⲉⲓ	-7156
ⲙⲛⲧⲁⲧⲛⲁϩⲧⲉ	-7157
▁ϩⲓⲡⲉⲑⲣⲟⲛⲟⲥ	-7158
▁ϩⲛⲛⲉⲕⲡⲟⲗⲓⲥ	-7159
▁ϫⲉⲉⲧⲉⲧⲛϣⲁⲛ	-7160
▁ⲁⲩⲡⲁⲧⲁⲥⲥⲉⲓ	-7161
▁ⲙⲛⲛⲉⲛⲉⲓⲟⲧⲉ	-7162
▁ⲙⲛⲛⲉⲧⲛⲙⲙⲁϥ	-7163
▁ⲙⲡⲙⲁⲕⲁⲣⲓⲟⲥ	-7164
▁ⲛⲇⲁⲓⲙⲱⲛⲓⲟⲛ	-7165
▁ⲛⲛⲉϥϩⲓⲟⲟⲩⲉ	-7166
▁ⲛⲛⲉϥⲉⲛⲧⲟⲗⲏ	-7167
▁ⲛⲛⲥⲁⲃⲃⲁⲧⲟⲛ	-7168
▁ⲡⲉϫⲉⲡⲁⲉⲓⲱⲧ	-7169
▁ⲡⲉⲛⲧⲁϥϫⲟⲟⲥ	-7170
▁ⲡⲉⲛⲧⲁϥⲧⲁⲙⲓ	-7171
▁ⲡⲛⲁⲍⲱⲣⲁⲓⲟⲥ	-7172
ⲁⲓⲭⲙⲁⲗⲱⲧⲓⲍⲉ	-7173
▁ϩⲙⲡⲉⲓⲕⲟⲥⲙⲟⲥ	-7174
▁ϩⲙⲡⲓⲟⲣⲇⲁⲛⲏⲥ	-7175
▁ϫⲉⲟⲩⲭⲣⲏⲥⲧⲟⲥ	-7176
▁ⲕⲁⲧⲁⲡⲉⲕϣⲁϫⲉ	-7177
▁ⲙⲡⲁⲙⲟⲣⲣⲁⲓⲟⲥ	-7178
▁ⲙⲡⲁⲣⲭⲓⲉⲣⲉⲩⲥ	-7179
▁ⲛϭⲓⲛⲣⲙⲛⲕⲏⲙⲉ	-7180
▁ⲛⲙⲡⲁⲣⲁⲛⲟⲙⲟⲥ	-7181
▁ⲛⲛⲁϩⲣⲙⲡⲗⲁⲟⲥ	-7182
▁ⲛⲧⲉϥⲇⲓⲁⲑⲏⲕⲏ	-7183
▁ϩⲛⲟⲩⲡⲁⲣⲣⲏⲥⲓⲁ	-7184
▁ⲙⲡⲉⲭⲁⲛⲁⲛⲁⲓⲟⲥ	-7185
▁ⲛⲁⲕⲗⲏⲣⲟⲛⲟⲙⲉⲓ	-7186
▁ⲛⲛⲁϩⲣⲛⲡϫⲟⲉⲓⲥ	-7187
▁ⲡⲉⲧⲉϣⲁⲩⲙⲟⲩⲧⲉ	-7188
▁ⲛⲟⲩⲇⲓⲕⲁⲓⲟⲥⲩⲛⲏ	-7189
▁ⲛⲧⲉⲕⲗⲏⲣⲟⲛⲟⲙⲓⲁ	-7190
▁ⲛϩⲉⲛⲡⲉⲧⲛⲁⲛⲟⲩⲟⲩ	-7191
▁ⲛⲧⲉⲕⲇⲓⲕⲁⲓⲟⲥⲩⲛⲏ	-7192
ϣⲕ	-7193
ϫⲧ	-7194
ⲛⲛ	-7195
ⲩⲛ	-7196
ⲭⲟ	-7197
ϣⲛⲁ	-7198
ϥⲛⲧ	-7199
ϩⲃⲥ	-7200
ϩⲏⲕ	-7201
ϫϩⲉ	-7202
ϫⲙⲡ	-7203
ϭⲉⲡ	-7204
ϭⲓⲉ	-7205
ϭⲟϫ	-7206
▁ϯⲛ	-7207
▁ⲑⲁ	-7208
▁ⲓⲥ	-7209
ⲁⲁⲧ	-7210
ⲁⲃⲉ	-7211
ⲃⲏⲃ	-7212
ⲃⲟⲕ	-7213
ⲃⲟⲟ	-7214
ⲅⲁⲗ	-7215
ⲇⲉⲥ	-7216
ⲇⲱⲕ	-7217
ⲏⲅⲏ	-7218
ⲏⲗⲓ	-7219
ⲑⲏⲛ	-7220
ⲗⲁⲗ	-7221
ⲙⲃⲱ	-7222
ⲟϭϥ	-7223
ⲟⲕϥ	-7224
ⲟⲡⲧ	-7225
ⲡϩⲟ	-7226
ⲡⲟⲙ	-7227
ⲣⲓⲙ	-7228
ⲧⲟⲕ	-7229
ⲧⲟⲙ	-7230
ⲫⲁⲣ	-7231
ⲫⲏⲧ	-7232
ⲭⲣⲱ	-7233
ⲱⲇⲏ	-7234
ϣⲙⲟⲩ	-7235
ϣⲟϫⲡ	-7236
ϩⲱϥⲧ	-7237
ϫⲟⲩⲧ	-7238
▁ϣⲏⲡ	-7239
▁ϭⲓϫ	-7240
▁ϭⲱⲃ	-7241
▁ⲉϩⲓ	-7242
▁ⲉⲓⲙ	-7243
▁ⲉⲛⲅ	-7244
▁ⲉⲥⲱ	-7245
▁ⲉⲩⲕ	-7246
▁ⲕϫⲱ	-7247
▁ⲙⲉⲣ	-7248
▁ⲙⲏⲣ	-7249
▁ⲛⲇⲓ	-7250
▁ⲛⲍⲉ	-7251
▁ⲛⲭⲉ	-7252
▁ⲥⲁⲣ	-7253
▁ⲥⲉⲟ	-7254
▁ⲥⲏϩ	-7255
▁ⲥⲙⲏ	-7256
▁ⲧⲙⲁ	-7257
▁ⲧⲱϩ	-7258
ⲁⲩⲗⲏ	-7259
ⲃⲉⲉⲗ	-7260
ⲃⲓⲗⲉ	-7261
ⲓⲙⲛⲧ	-7262
ⲓⲱⲛⲉ	-7263
ⲕⲉⲩⲁ	-7264
ⲕⲉⲫⲁ	-7265
ⲕⲟⲣⲉ	-7266
ⲕⲱⲱⲥ	-7267
ⲙⲁⲁⲃ	-7268
ⲛⲧⲁⲧ	-7269
ⲟⲉⲓⲥ	-7270
ⲟⲕⲗⲏ	-7271
ⲟⲗⲙⲁ	-7272
ⲟⲛⲥϥ	-7273
ⲟⲡⲡⲏ	-7274
ⲡⲁϩⲧ	-7275
ⲣⲁϩⲉ	-7276
ⲣⲅⲉⲓ	-7277
ⲣⲓⲏⲗ	-7278
ⲥⲁⲣⲁ	-7279
ⲥⲓⲃⲧ	-7280
ⲧϥϫⲱ	-7281
ⲧⲁⲗϭ	-7282
ⲧⲁⲥⲉ	-7283
ⲧⲛⲁⲩ	-7284
ⲧⲟϣϥ	-7285
ⲧⲟⲟⲧ	-7286
ⲧⲣⲉⲕ	-7287
ⲧⲣⲉⲛ	-7288
ϩⲁⲙϣⲉ	-7289
ϫⲟⲟⲩⲧ	-7290
▁ϣⲟⲡϥ	-7291
▁ϥⲛⲁⲥ	-7292
▁ϫⲉϩⲛ	-7293
▁ⲁⲓⲥⲉ	-7294
▁ⲁⲩⲗⲟ	-7295
▁ⲉϥϩⲓ	-7296
▁ⲉⲕϣⲁ	-7297
▁ⲉⲗⲓⲁ	-7298
▁ⲉⲙⲁⲥ	-7299
▁ⲉⲧⲛⲉ	-7300
▁ⲉⲩⲥⲱ	-7301
▁ⲏⲛⲓⲙ	-7302
▁ⲙⲓϣⲉ	-7303
▁ⲙⲙⲁϩ	-7304
▁ⲙⲙⲁⲥ	-7305
▁ⲛϩⲁⲣ	-7306
▁ⲛϩⲟϥ	-7307
▁ⲛϯϩⲉ	-7308
▁ⲛⲁⲱϣ	-7309
▁ⲛⲉⲁϥ	-7310
▁ⲛⲉⲥⲉ	-7311
▁ⲛⲕⲁⲡ	-7312
▁ⲛⲙⲧⲉ	-7313
▁ⲛⲛⲏⲓ	-7314
▁ⲛⲛⲟⲣ	-7315
▁ⲛⲟⲩⲃ	-7316
▁ⲡⲉⲧⲥ	-7317
▁ⲡⲉⲩⲥ	-7318
▁ⲡⲟⲧⲥ	-7319
▁ⲣⲁⲧϥ	-7320
▁ⲣⲣⲣⲟ	-7321
▁ⲥⲉⲧⲡ	-7322
▁ⲥⲟⲡⲥ	-7323
ⲁⲁⲣⲱⲛ	-7324
ⲃⲁⲥⲓⲥ	-7325
ⲃⲉⲕⲕⲁ	-7326
ⲅⲉⲣⲅⲉ	-7327
ⲇⲟⲕⲉⲓ	-7328
ⲇⲣⲉⲁⲥ	-7329
ⲍⲱⲧⲟⲥ	-7330
ⲑⲁⲓⲟⲥ	-7331
ⲑⲓⲧⲟⲩ	-7332
ⲕⲟⲩⲉⲓ	-7333
ⲗⲉⲃⲓⲛ	-7334
ⲗⲓⲕⲓⲁ	-7335
ⲗⲓⲥⲧⲓ	-7336
ⲙⲃⲟⲗⲏ	-7337
ⲙⲉⲗⲉⲓ	-7338
ⲙⲏⲣⲟⲥ	-7339
ⲙⲙⲏⲧⲛ	-7340
ⲛⲁⲃⲁⲗ	-7341
ⲛⲟⲩϩⲉ	-7342
ⲟⲩⲁϩⲧ	-7343
ⲟⲩⲥⲟⲛ	-7344
ⲡϩⲓⲥⲉ	-7345
ⲡⲉϥⲏⲓ	-7346
ⲡⲗⲁϯⲁ	-7347
ⲡⲥⲛⲁⲩ	-7348
ⲡⲥⲱⲡϥ	-7349
ⲥⲏⲉⲓⲣ	-7350
ⲧⲁⲩⲗⲏ	-7351
ⲧⲥⲧⲟϥ	-7352
ⲧⲱⲣⲟⲩ	-7353
ⲫⲩⲥⲓⲥ	-7354
ϣⲃⲉⲉⲣⲉ	-7355
ϣⲡⲧⲱⲣⲉ	-7356
ϩⲏⲇⲟⲛⲏ	-7357
ϩⲟⲩⲙⲡⲉ	-7358
ϫⲛⲟⲩⲟⲩ	-7359
ϭⲉⲣⲟⲟⲃ	-7360
▁ϣⲁⲣⲟⲥ	-7361
▁ϣⲡⲏⲣⲉ	-7362
▁ϩⲉⲛⲕⲉ	-7363
▁ϩⲉⲛⲙⲉ	-7364
▁ϩⲓϫⲱⲓ	-7365
▁ϩⲓϫⲱⲥ	-7366
▁ϩⲛⲛⲏⲓ	-7367
▁ϩⲛⲛⲟⲩ	-7368
▁ϫⲉⲁⲡⲁ	-7369
▁ϫⲉⲁⲡⲉ	-7370
▁ϫⲉⲛⲉⲧ	-7371
▁ϫⲉⲛⲥⲉ	-7372
▁ϫⲉⲛⲧⲛ	-7373
▁ϫⲓⲥⲙⲏ	-7374
▁ϯϩⲧⲏϥ	-7375
▁ⲁϥⲧⲁⲗ	-7376
▁ⲁϩⲣⲟⲕ	-7377
▁ⲁⲓϩⲱⲛ	-7378
▁ⲁⲕⲛⲁⲩ	-7379
▁ⲁⲩϩⲱⲛ	-7380
▁ⲁⲩⲕⲱⲧ	-7381
▁ⲉϣⲗⲏⲗ	-7382
▁ⲉⲙⲡⲉϥ	-7383
▁ⲉⲛⲧⲁⲥ	-7384
▁ⲉⲡϫⲱⲕ	-7385
▁ⲉⲡⲁϩⲟ	-7386
▁ⲉⲣⲁⲧⲉ	-7387
▁ⲉⲧϫⲏⲕ	-7388
▁ⲉⲧⲣⲉⲥ	-7389
▁ⲉⲩϩⲁⲡ	-7390
▁ⲉⲩⲉϫⲓ	-7391
▁ⲉⲩⲛⲧϥ	-7392
▁ⲑⲃⲃⲓⲟ	-7393
▁ⲙⲛⲁⲡⲁ	-7394
▁ⲙⲛⲙⲙⲁ	-7395
▁ⲙⲛⲡⲁⲓ	-7396
▁ⲙⲡⲏⲣⲡ	-7397
▁ⲙⲡⲟⲟϩ	-7398
▁ⲛϩⲙⲟⲧ	-7399
▁ⲛϭⲓⲧⲁ	-7400
▁ⲛⲁⲑⲁⲛ	-7401
▁ⲛⲃⲗⲗⲁ	-7402
▁ⲛⲉⲙⲁⲕ	-7403
▁ⲛⲕⲁⲧⲁ	-7404
▁ⲛⲙⲕⲁϩ	-7405
▁ⲛⲛϣⲏⲛ	-7406
▁ⲛⲟⲩϫⲉ	-7407
▁ⲛⲟⲩϫⲱ	-7408
▁ⲛⲥϩⲁⲓ	-7409
▁ⲛⲥⲁⲙⲁ	-7410
▁ⲛⲧϭⲓϫ	-7411
▁ⲛⲧⲁϥϯ	-7412
▁ⲛⲧⲁϥⲉ	-7413
▁ⲛⲧⲁⲡⲁ	-7414
▁ⲛⲧⲙⲉϩ	-7415
▁ⲟⲩⲛⲧⲉ	-7416
▁ⲡϭⲱⲛⲧ	-7417
▁ⲡⲁⲙⲃⲱ	-7418
▁ⲡⲉⲕⲛⲁ	-7419
▁ⲡⲧⲏⲣϥ	-7420
▁ⲣϩⲟⲩⲟ	-7421
▁ⲣⲁⲥⲧⲉ	-7422
▁ⲣⲟⲉⲓⲥ	-7423
▁ⲧϩⲓⲏⲙ	-7424
▁ⲧⲁϩⲟϥ	-7425
▁ⲧⲁϩⲟⲓ	-7426
▁ⲧⲁϭⲓϫ	-7427
▁ⲧⲁⲃⲱⲕ	-7428
▁ⲧⲡⲩⲗⲏ	-7429
ⲁϣⲁϩⲟⲙ	-7430
ⲁⲑⲉⲧⲉⲓ	-7431
ⲅⲉⲛⲏⲙⲁ	-7432
ⲑⲁⲓⲙⲁⲛ	-7433
ⲕⲁⲧⲁⲗⲁ	-7434
ⲕⲉⲥⲟⲟⲩ	-7435
ⲗⲟⲓⲙⲟⲥ	-7436
ⲛⲟⲩⲁⲁⲃ	-7437
ⲛⲟⲩⲟⲙϥ	-7438
ⲟⲙⲟⲣⲣⲁ	-7439
ⲟⲛⲏⲣⲓⲁ	-7440
ⲟⲩⲱⲛⲟⲩ	-7441
ⲡⲟⲟⲛⲉϥ	-7442
ⲣⲙⲡϣⲁⲛ	-7443
ⲥⲟⲩⲱⲛⲧ	-7444
ⲩⲗⲏⲧⲟⲥ	-7445
ⲫⲣⲁⲧⲏⲥ	-7446
ϩⲁⲡⲗⲟⲩⲥ	-7447
ϩⲉⲛⲣⲱⲙⲉ	-7448
ϩⲓⲡⲡⲉⲩⲥ	-7449
ϭⲛⲁⲣⲓⲕⲉ	-7450
▁ϣⲟⲩⲉⲓⲧ	-7451
▁ϩⲁⲧⲉⲧⲛ	-7452
▁ϩⲓⲛⲟⲩⲃ	-7453
▁ϩⲙⲡⲏⲣⲡ	-7454
▁ϩⲛⲟⲩⲉⲓ	-7455
▁ϫⲉϥⲥⲏϩ	-7456
▁ϫⲉⲁⲓϩⲉ	-7457
▁ϫⲉⲉⲣⲉⲧ	-7458
▁ϫⲉⲙⲡⲉⲓ	-7459
▁ϫⲉⲙⲡⲉⲕ	-7460
▁ϫⲉⲛⲁϣⲉ	-7461
▁ϫⲉⲧⲛⲛⲁ	-7462
▁ⲁϥϣⲱⲱⲧ	-7463
▁ⲁϥⲙⲧⲟⲛ	-7464
▁ⲁϥⲥⲱⲧⲡ	-7465
▁ⲁϥⲧⲁⲗⲟ	-7466
▁ⲁϩⲟⲓⲛⲉ	-7467
▁ⲁϫⲛⲱϫⲛ	-7468
▁ⲁⲡⲗⲁⲟⲥ	-7469
▁ⲁⲧⲉⲧⲛϯ	-7470
▁ⲉϥϣⲁⲛⲧ	-7471
▁ⲉϥϣⲗⲏⲗ	-7472
▁ⲉϥϣⲟⲩⲉ	-7473
▁ⲉϥϩⲛⲟⲩ	-7474
▁ⲉϥⲉϣⲱⲙ	-7475
▁ⲉϥⲣⲓⲙⲉ	-7476
▁ⲉϫⲙⲡⲏⲓ	-7477
▁ⲉⲓⲟⲩⲱϣ	-7478
▁ⲉⲙⲛⲧⲟⲩ	-7479
▁ⲉⲙⲟⲩⲧⲉ	-7480
▁ⲉⲙⲡⲁⲧⲉ	-7481
▁ⲉⲛⲉⲓⲣⲉ	-7482
▁ⲉⲛⲥⲉⲛⲁ	-7483
▁ⲉⲛⲧⲁⲓⲥ	-7484
▁ⲉⲣⲉⲛⲁⲓ	-7485
▁ⲉⲣⲉⲧⲉⲕ	-7486
▁ⲉⲣⲉⲧⲉⲩ	-7487
▁ⲉⲧϣⲓⲛⲉ	-7488
▁ⲉⲧⲉϥⲛⲁ	-7489
▁ⲉⲧⲉⲣⲉⲧ	-7490
▁ⲉⲧⲟⲩⲟϫ	-7491
▁ⲉⲩϣⲟⲃⲉ	-7492
▁ⲉⲩϫⲁϩⲙ	-7493
▁ⲉⲩⲉⲓⲛⲉ	-7494
▁ⲉⲩⲣⲁϣⲉ	-7495
▁ⲙⲛⲛⲛⲟϭ	-7496
▁ⲙⲛⲡϩⲁⲧ	-7497
▁ⲙⲡϫⲟⲉⲓ	-7498
▁ⲙⲡⲉϥⲛⲁ	-7499
▁ⲙⲡⲉⲓⲛⲉ	-7500
▁ⲙⲡⲉⲕⲛⲁ	-7501
▁ⲙⲡⲕⲁⲕⲉ	-7502
▁ⲙⲡⲗⲩⲅⲏ	-7503
▁ⲙⲡⲣⲃⲱⲕ	-7504
▁ⲛϩⲁⲣⲙⲁ	-7505
▁ⲛϩⲩⲡⲟⲕ	-7506
▁ⲛⲁϫⲟⲟⲥ	-7507
▁ⲛⲁⲣⲛⲱⲛ	-7508
▁ⲛⲉϥⲛⲏⲩ	-7509
▁ⲛⲓⲁⲃⲓⲥ	-7510
▁ⲛⲛⲥⲓⲟⲩ	-7511
▁ⲛⲟⲩϣⲏⲛ	-7512
▁ⲛⲟⲩϩⲏⲧ	-7513
▁ⲛⲟⲩϩⲣⲉ	-7514
▁ⲛⲟⲩϩⲱⲃ	-7515
▁ⲛⲥⲁϣϥⲉ	-7516
▁ⲛⲥⲁⲛⲉⲕ	-7517
▁ⲛⲥⲉⲃⲱⲕ	-7518
▁ⲛⲧⲁⲕⲉⲓ	-7519
▁ⲛⲧⲛⲃⲱⲕ	-7520
▁ⲡϣⲟϫⲛⲉ	-7521
▁ⲡⲉⲓϩⲱⲃ	-7522
▁ⲡⲉⲧⲉⲙⲡ	-7523
▁ⲡⲕⲉⲟⲩⲁ	-7524
▁ⲥⲉϣⲟⲟⲡ	-7525
▁ⲭⲉⲃⲣⲱⲛ	-7526
ⲃⲟⲏⲑⲉⲓⲁ	-7527
ⲇⲓⲱⲅⲙⲟⲥ	-7528
ⲓⲉⲛⲧⲟⲗⲏ	-7529
ⲕⲏⲕⲁϩⲏⲩ	-7530
ⲙⲁⲓⲣⲱⲙⲉ	-7531
ⲙⲛⲧϩⲗⲗⲟ	-7532
ⲛⲁⲙⲁϩⲧⲉ	-7533
ⲛⲧⲁϥⲁⲁⲩ	-7534
ⲟⲩⲉϩⲛⲁⲩ	-7535
ⲡⲁⲙⲉⲉⲩⲉ	-7536
ⲡⲉⲧϫⲟⲥⲉ	-7537
ⲣⲙⲛⲧϩⲏⲧ	-7538
ⲥⲙⲛⲥⲛⲧⲉ	-7539
ⲧⲉⲧⲛⲛⲁⲩ	-7540
▁ϣⲁⲁⲣⲏϫϥ	-7541
▁ϩⲉⲗⲡⲓⲍⲉ	-7542
▁ϩⲙⲡⲕⲱϩⲧ	-7543
▁ϩⲙⲡⲥⲱⲙⲁ	-7544
▁ϩⲛϩⲉⲛⲙⲁ	-7545
▁ϩⲛⲧϩⲓⲏⲙ	-7546
▁ϩⲛⲧⲁⲣⲭⲏ	-7547
▁ϩⲛⲧⲁⲩⲗⲏ	-7548
▁ϩⲛⲧⲡⲁϣⲉ	-7549
▁ϫⲉⲉⲓⲥⲟⲩ	-7550
▁ϫⲉⲛⲛⲉⲧⲛ	-7551
▁ϫⲉⲥⲁⲟⲩⲗ	-7552
▁ⲁϥϣⲟⲣⲡϥ	-7553
▁ⲁϥⲛⲟϫⲟⲩ	-7554
▁ⲁϥⲡⲱⲱⲛⲉ	-7555
▁ⲁⲓⲙⲉⲥⲧⲉ	-7556
▁ⲁⲡⲁⲉⲓⲱⲧ	-7557
▁ⲁⲥϩⲙⲟⲟⲥ	-7558
▁ⲁⲥⲙⲟⲩⲧⲉ	-7559
▁ⲁⲩϫⲓⲟⲟⲣ	-7560
▁ⲉϥⲙⲟⲟⲩⲧ	-7561
▁ⲉϥⲧⲃⲃⲏⲩ	-7562
▁ⲉⲙⲡⲁⲧⲟⲩ	-7563
▁ⲉⲛⲉⲥⲱⲟⲩ	-7564
▁ⲉⲡⲁϣⲗⲏⲗ	-7565
▁ⲉⲡⲁⲩⲗⲟⲥ	-7566
▁ⲉⲡⲙⲏⲏϣⲉ	-7567
▁ⲉⲡⲧⲁⲫⲟⲥ	-7568
▁ⲉⲣϣⲁⲛⲡⲉ	-7569
▁ⲉⲣⲉⲡⲟⲩⲁ	-7570
▁ⲉⲧϩⲁⲣⲉϩ	-7571
▁ⲉⲧⲃⲉⲛⲉⲩ	-7572
▁ⲉⲧⲉⲁⲛⲟⲕ	-7573
▁ⲉⲧⲉⲛϥⲛⲁ	-7574
▁ⲉⲧⲉⲧⲛⲟⲩ	-7575
▁ⲉⲧⲛⲁϣⲱϥ	-7576
▁ⲉⲧⲣⲉϥⲉⲓ	-7577
▁ⲉⲩⲙⲏⲏϣⲉ	-7578
▁ⲉⲩⲥⲟⲟⲩϩ	-7579
▁ⲕⲁⲧⲁⲡⲉⲥ	-7580
▁ⲙⲁⲣⲉⲡⲉⲕ	-7581
▁ⲙⲡϥⲟⲩⲱϣ	-7582
▁ⲙⲡⲁϭⲱⲛⲧ	-7583
▁ⲙⲡⲁⲥⲟⲡⲥ	-7584
▁ⲙⲡⲉϥⲙⲟⲩ	-7585
▁ⲙⲡⲉϥⲱⲛϩ	-7586
▁ⲙⲡⲉⲕⲕⲁϩ	-7587
▁ⲙⲡⲣⲕⲁⲁⲧ	-7588
▁ⲛϩⲁⲓⲃⲉⲥ	-7589
▁ⲛⲉϥϣⲁϫⲉ	-7590
▁ⲛⲉϥⲟⲩⲏϩ	-7591
▁ⲛⲛϫⲱⲱⲣⲉ	-7592
▁ⲛⲛⲛⲟⲩⲧⲉ	-7593
▁ⲛⲛⲣⲣⲱⲟⲩ	-7594
▁ⲛⲟⲩϩⲙⲟⲧ	-7595
▁ⲛⲟⲩⲥⲙⲟⲩ	-7596
▁ⲛⲟⲩⲯⲩⲭⲏ	-7597
▁ⲛⲥⲉⲟⲩⲱⲙ	-7598
▁ⲛⲧⲁⲓⲛⲁⲩ	-7599
▁ⲛⲧⲉϥϩⲓⲏ	-7600
▁ⲛⲧⲉⲕϭⲟⲙ	-7601
▁ⲛⲧⲕⲁⲕⲓⲁ	-7602
▁ⲟⲩⲛⲟⲩⲧⲉ	-7603
▁ⲟⲩⲛⲧⲏⲧⲛ	-7604
▁ⲡⲉⲓⲣⲱⲙⲉ	-7605
▁ⲡⲉⲧⲉϣϣⲉ	-7606
▁ⲡⲉⲩϣⲓⲛⲉ	-7607
ⲁⲓⲥⲑⲏⲥⲓⲥ	-7608
ⲃⲁⲣⲃⲁⲣⲟⲥ	-7609
ⲇⲓⲁⲕⲣⲓⲛⲉ	-7610
ⲇⲩⲛⲁⲥⲧⲏⲥ	-7611
ⲕⲟⲓⲃⲱⲧⲟⲥ	-7612
ϩⲩⲡⲏⲣⲉⲧⲏⲥ	-7613
▁ϥⲛⲁⲧⲱⲱⲃⲉ	-7614
▁ϩⲙⲡⲙⲏⲏϣⲉ	-7615
▁ϩⲛⲛⲉϣⲏⲣⲉ	-7616
▁ϩⲛⲟⲩϣⲁϫⲉ	-7617
▁ⲁϥⲧⲁⲗⲟⲟⲩ	-7618
▁ⲁⲟⲩⲙⲏⲏϣⲉ	-7619
▁ⲉϫⲙⲡⲉϥϩⲟ	-7620
▁ⲉⲛⲉⲕϣⲁϫⲉ	-7621
▁ⲉⲛⲉⲛⲉⲣⲏⲩ	-7622
▁ⲉⲛⲧⲁϥⲁⲁⲥ	-7623
▁ⲉⲡⲁϩⲣⲟⲟⲩ	-7624
▁ⲉⲩⲉⲓⲣⲏⲛⲏ	-7625
▁ⲉⲩⲉⲙⲟⲩⲧⲉ	-7626
▁ⲉⲩⲧⲁϫⲣⲏⲩ	-7627
▁ⲙⲛⲇⲁⲩⲉⲓⲇ	-7628
▁ⲙⲛⲟⲩⲉⲟⲟⲩ	-7629
▁ⲙⲡⲉϥⲕⲱⲧⲉ	-7630
▁ⲙⲡⲉⲥⲉⲓⲱⲧ	-7631
▁ⲛϩⲏⲣⲱⲇⲏⲥ	-7632
▁ⲛϭⲓⲟⲩⲛⲟϭ	-7633
▁ⲛⲁⲃⲉⲛⲛⲏⲣ	-7634
▁ⲛⲁⲥⲟⲟⲩⲧⲛ	-7635
▁ⲛⲁⲧⲛⲁϩⲧⲉ	-7636
▁ⲛⲉⲧⲙⲟⲟⲩⲧ	-7637
▁ⲛⲉⲧⲙⲟⲥⲧⲉ	-7638
▁ⲛⲛⲁⲛⲟⲙⲟⲥ	-7639
▁ⲛⲟⲩϩⲓⲉⲓⲃ	-7640
▁ⲛⲟⲩⲉⲥⲟⲟⲩ	-7641
▁ⲛⲟⲩⲭⲁⲣⲓⲥ	-7642
▁ⲛⲥⲉⲕⲟⲧⲟⲩ	-7643
▁ⲛⲧⲁⲩϫⲡⲟϥ	-7644
▁ⲛⲧⲉⲑⲩⲥⲓⲁ	-7645
▁ⲛⲧⲉⲕⲟⲣⲅⲏ	-7646
▁ⲡⲉϫⲉⲓⲱⲁⲃ	-7647
▁ⲡⲉⲧϩⲙⲟⲟⲥ	-7648
▁ⲡⲉⲧⲛⲟⲩϩⲙ	-7649
▁ⲡⲙⲉϩⲥⲛⲁⲩ	-7650
▁ⲥⲉⲛⲁⲥⲱⲧⲙ	-7651
ⲟⲓⲕⲟⲛⲟⲙⲓⲁ	-7652
ⲡⲉⲧϣⲟⲩⲱⲟⲩ	-7653
ⲥⲩⲅⲅⲉⲛⲉⲓⲁ	-7654
▁ϩⲓⲱⲧⲧⲏⲩⲧⲛ	-7655
▁ϩⲛⲛⲉⲕϣⲁϫⲉ	-7656
▁ϩⲛⲟⲩⲧⲉⲗⲏⲗ	-7657
▁ϫⲉⲁⲓⲣⲛⲟⲃⲉ	-7658
▁ϯⲛⲁⲧⲛⲛⲟⲟⲩ	-7659
▁ⲁϥⲣⲡⲙⲉⲉⲩⲉ	-7660
▁ⲁⲩϫⲓϣⲟϫⲛⲉ	-7661
▁ⲁⲩⲥⲉⲡⲥⲱⲡϥ	-7662
▁ⲉⲛⲉⲧⲛⲉⲣⲏⲩ	-7663
▁ⲉⲛⲧⲁϥϣⲁϫⲉ	-7664
▁ⲉⲛⲧⲁⲩϣⲱⲡⲉ	-7665
▁ⲉⲥϣⲁⲛϣⲱⲡⲉ	-7666
▁ⲉⲧⲃⲉⲡϣⲁϫⲉ	-7667
▁ⲕⲁⲧⲁⲡϩⲩⲗⲏ	-7668
▁ⲕⲁⲧⲁⲡⲟⲗⲓⲥ	-7669
▁ⲙⲙⲓⲛⲙⲙⲟⲟⲩ	-7670
▁ⲙⲛⲡⲉⲕⲗⲁⲟⲥ	-7671
▁ⲙⲛⲧⲡⲓⲥⲧⲓⲥ	-7672
▁ⲙⲡⲉⲓϫⲱⲱⲙⲉ	-7673
▁ⲙⲡⲡⲟⲛⲏⲣⲟⲥ	-7674
▁ⲛϩⲉⲛⲉⲥⲟⲟⲩ	-7675
▁ⲛϭⲓⲛϩⲙϩⲁⲗ	-7676
▁ⲛϭⲓⲧϣⲉⲉⲣⲉ	-7677
▁ⲛⲛⲉⲧⲙⲟⲥⲧⲉ	-7678
▁ⲛⲥⲁⲇⲁⲩⲉⲓⲇ	-7679
▁ⲛⲧϭⲓⲃⲱⲧⲟⲥ	-7680
▁ⲛⲧⲁⲇⲁⲩⲉⲓⲇ	-7681
▁ⲛⲧⲉⲣⲉϥϩⲱⲛ	-7682
▁ⲡⲁⲣⲉϥϣⲟⲡⲧ	-7683
▁ⲡⲙⲁⲕⲁⲣⲓⲟⲥ	-7684
▁ⲧⲉⲧⲛⲁϣⲱⲡⲉ	-7685
▁ⲧⲙⲛⲧⲣⲙⲙⲁⲟ	-7686
▁ⲧⲥⲩⲛⲁⲅⲱⲅⲏ	-7687
ⲙⲛⲧϫⲁⲥⲓϩⲏⲧ	-7688
ⲛⲉϥⲟⲩⲉⲣⲏⲧⲉ	-7689
▁ϩⲛⲧⲉⲓⲡⲟⲗⲓⲥ	-7690
▁ϫⲉϩⲉⲛⲛⲟⲩⲧⲉ	-7691
▁ⲉⲩⲁϩⲉⲣⲁⲧⲟⲩ	-7692
▁ⲙⲛⲡⲉϥⲙⲏⲏϣⲉ	-7693
▁ⲙⲛⲧⲓⲙⲟⲑⲉⲟⲥ	-7694
▁ⲙⲡⲉⲕⲥⲡⲉⲣⲙⲁ	-7695
▁ⲛϭⲓⲡⲓⲗⲁⲧⲟⲥ	-7696
▁ⲛⲉϥⲁϩⲉⲣⲁⲧϥ	-7697
▁ⲛⲛⲉⲩⲡⲁⲧⲣⲓⲁ	-7698
▁ⲛⲧⲉϩⲟⲩⲉⲓⲧⲉ	-7699
▁ⲡⲉϫⲉⲡⲉⲧⲣⲟⲥ	-7700
▁ⲡⲉⲛⲧⲁϥⲉⲓⲛⲉ	-7701
ⲥⲧⲣⲁⲧⲏⲗⲁⲧⲏⲥ	-7702
▁ϩⲛⲛⲥⲩⲛⲁⲅⲱⲅⲏ	-7703
▁ⲛϩⲉⲛϥⲁⲓϣⲓⲛⲉ	-7704
▁ⲛⲛⲁⲡⲟⲥⲧⲟⲗⲟⲥ	-7705
▁ⲛⲛⲉϥⲁⲅⲅⲉⲗⲟⲥ	-7706
▁ⲛⲧⲉⲡϩⲓⲉⲣⲉⲩⲥ	-7707
▁ϩⲙⲡⲡⲁⲣⲁⲇⲓⲥⲟⲥ	-7708
▁ⲙⲛⲛⲁⲗⲗⲟⲫⲩⲗⲟⲥ	-7709
▁ⲛⲉⲅⲣⲁⲙⲙⲁⲧⲉⲩⲥ	-7710
▁ⲛⲛⲉⲭⲁⲛⲁⲛⲁⲓⲟⲥ	-7711
▁ⲙⲡⲕⲁⲧⲁⲡⲉⲧⲁⲥⲙⲁ	-7712
▁ⲉⲛⲧⲁⲩϭⲙⲡⲉⲩϣⲓⲛⲉ	-7713
▁ⲛⲧⲉϥⲕⲗⲏⲣⲟⲛⲟⲙⲓⲁ	-7714
ⲙⲱ	-7715
ⲝⲱ	-7716
ⲫⲱ	-7717
ϣⲏϥ	-7718
ϣⲓⲕ	-7719
ϥⲧⲉ	-7720
ϩⲉⲡ	-7721
ϩⲉⲣ	-7722
ϫⲱⲓ	-7723
ϭⲏⲛ	-7724
ϭⲣⲱ	-7725
▁ϣⲓ	-7726
▁ϣⲛ	-7727
▁ⲁⲉ	-7728
▁ⲟϣ	-7729
▁ⲣⲉ	-7730
▁ⲫⲁ	-7731
ⲁⲣⲝ	-7732
ⲃⲁⲑ	-7733
ⲃⲗⲏ	-7734
ⲃⲱⲣ	-7735
ⲅⲱⲣ	-7736
ⲏⲙⲁ	-7737
ⲑⲉⲥ	-7738
ⲙⲁϩ	-7739
ⲙⲙⲱ	-7740
ⲙⲟⲓ	-7741
ⲙⲡⲟ	-7742
ⲛⲕⲉ	-7743
ⲛⲟϣ	-7744
ⲟⲛϥ	-7745
ⲟⲟⲙ	-7746
ⲟⲣⲕ	-7747
ⲟⲥⲙ	-7748
ⲡⲣϣ	-7749
ⲣⲁⲙ	-7750
ⲣⲓⲱ	-7751
ⲧⲁϣ	-7752
ⲫⲉⲕ	-7753
ⲭⲁⲍ	-7754
ⲱⲙⲧ	-7755
ϣⲕⲟⲗ	-7756
ϣⲙⲧⲉ	-7757
ϣⲱⲥⲙ	-7758
ϩⲙⲉⲕ	-7759
ϩⲟⲗϭ	-7760
ϩⲱⲗϭ	-7761
ϫⲙⲡⲉ	-7762
ϫⲱⲕⲙ	-7763
▁ⲁⲁⲥ	-7764
▁ⲁⲓⲙ	-7765
▁ⲁⲕⲉ	-7766
▁ⲁⲛⲥ	-7767
▁ⲁⲥϯ	-7768
▁ⲁⲩϭ	-7769
▁ⲁⲭⲓ	-7770
▁ⲉϩⲙ	-7771
▁ⲉⲃⲁ	-7772
▁ⲉⲓⲱ	-7773
▁ⲉⲙⲙ	-7774
▁ⲉⲥϯ	-7775
▁ⲏⲛϥ	-7776
▁ⲏⲣⲡ	-7777
▁ⲙⲉⲗ	-7778
▁ⲛⲉϩ	-7779
▁ⲛⲍⲁ	-7780
▁ⲛⲑⲁ	-7781
▁ⲧⲁⲛ	-7782
▁ⲧⲃⲱ	-7783
ⲅⲗⲱⲙ	-7784
ⲉⲧⲡⲉ	-7785
ⲍⲁⲏⲗ	-7786
ⲑⲉⲣⲁ	-7787
ⲓⲱⲁⲃ	-7788
ⲓⲱⲣⲕ	-7789
ⲕⲁⲑⲉ	-7790
ⲕⲧⲟⲕ	-7791
ⲗⲁⲕⲙ	-7792
ⲗⲓⲥⲁ	-7793
ⲙⲁⲧⲉ	-7794
ⲙⲏⲛⲉ	-7795
ⲛⲉⲭⲉ	-7796
ⲛⲧⲉϥ	-7797
ⲟⲕϩⲥ	-7798
ⲟⲣⲛⲁ	-7799
ⲟⲩⲏⲛ	-7800
ⲡⲟⲗⲩ	-7801
ⲣⲉϩⲧ	-7802
ⲥⲁⲉⲓ	-7803
ⲥⲕⲁⲓ	-7804
ⲥⲟⲡⲟ	-7805
ⲥⲟⲧϥ	-7806
ⲥⲧⲙⲉ	-7807
ⲧⲁϩⲥ	-7808
ⲧⲁⲓⲉ	-7809
ⲧⲉⲕⲙ	-7810
ⲧⲉⲟⲩ	-7811
ⲧⲕⲁⲥ	-7812
ⲫⲟⲛⲏ	-7813
ⲫⲟⲣⲁ	-7814
ⲭⲓⲥⲉ	-7815
ϣⲁⲁⲧϥ	-7816
ϩⲁⲓⲟⲥ	-7817
ϩⲟϫϩϫ	-7818
ϫⲓⲟⲩⲉ	-7819
ϫⲟⲟⲩϥ	-7820
▁ϣⲁⲛⲉ	-7821
▁ϣⲙⲙⲟ	-7822
▁ϣⲱⲱⲧ	-7823
▁ϥⲱⲧⲉ	-7824
▁ϩⲛⲁⲥ	-7825
▁ϩⲛⲃⲁ	-7826
▁ϩⲛⲥⲉ	-7827
▁ϫⲉϩⲉ	-7828
▁ϫⲉϭⲱ	-7829
▁ⲁⲓϭⲱ	-7830
▁ⲉϥⲙⲉ	-7831
▁ⲉϥⲙⲡ	-7832
▁ⲉϥⲱϣ	-7833
▁ⲉϩⲟⲩ	-7834
▁ⲉⲡⲓⲁ	-7835
▁ⲉⲣⲁⲧ	-7836
▁ⲉⲧⲕⲉ	-7837
▁ⲉⲩⲟϣ	-7838
▁ⲕⲏⲙⲉ	-7839
▁ⲙⲛⲛⲓ	-7840
▁ⲙⲡⲣⲁ	-7841
▁ⲛϣϣⲉ	-7842
▁ⲛϩⲁⲏ	-7843
▁ⲛϩⲓⲏ	-7844
▁ⲛⲁϣⲉ	-7845
▁ⲛⲁϫⲱ	-7846
▁ⲛⲁⲃⲓ	-7847
▁ⲛⲃⲁⲣ	-7848
▁ⲛⲉⲓⲟ	-7849
▁ⲛⲉⲛⲟ	-7850
▁ⲛⲉⲧⲥ	-7851
▁ⲛⲗⲁⲥ	-7852
▁ⲛⲣⲱⲓ	-7853
▁ⲟⲩⲉⲛ	-7854
▁ⲟⲩⲏⲣ	-7855
▁ⲡϣⲱⲥ	-7856
▁ⲡϫⲱⲕ	-7857
▁ⲥⲉϫⲓ	-7858
▁ⲥⲟⲩⲛ	-7859
▁ⲧϩⲁⲏ	-7860
▁ⲧⲁϫⲓ	-7861
▁ⲧⲁⲁⲥ	-7862
▁ⲧⲟⲩⲱ	-7863
▁ⲧⲱⲃϩ	-7864
ⲁⲛⲉⲭⲉ	-7865
ⲃⲁⲧⲏⲥ	-7866
ⲃⲗⲏⲙⲁ	-7867
ⲅⲁⲓⲟⲥ	-7868
ⲉⲕⲓⲃⲉ	-7869
ⲕⲁⲗⲱⲛ	-7870
ⲕⲉⲣⲣⲟ	-7871
ⲕⲏⲥⲓⲥ	-7872
ⲗⲓⲙⲛⲏ	-7873
ⲗⲟⲙⲗⲙ	-7874
ⲗⲟⲟⲩⲉ	-7875
ⲙⲉⲛⲟⲥ	-7876
ⲙⲛⲧⲉⲩ	-7877
ⲙⲡⲁⲣⲁ	-7878
ⲛⲟⲙⲟⲛ	-7879
ⲟⲩⲃⲁϣ	-7880
ⲟⲩⲱϫⲛ	-7881
ⲡⲙⲟⲟⲩ	-7882
ⲡⲛⲟⲃⲉ	-7883
ⲣⲁⲓⲧⲉ	-7884
ⲥⲉⲏⲣⲡ	-7885
ⲥⲓⲟⲩⲣ	-7886
ⲧⲁϥⲧⲉ	-7887
ⲧⲁⲕⲟⲥ	-7888
ⲧⲉϥⲛⲁ	-7889
ⲧⲟⲛⲧⲛ	-7890
ⲧⲟⲣⲡϥ	-7891
ⲧⲣϩⲱⲃ	-7892
ⲫⲟⲣⲟⲥ	-7893
ϣⲁⲁⲧⲟⲩ	-7894
ϣⲛϩⲧⲏⲕ	-7895
ϩⲉⲗⲗⲏⲛ	-7896
ϩⲟⲧⲃⲉϥ	-7897
ϩⲣⲁⲭⲏⲗ	-7898
ϫⲟⲟⲗⲉⲥ	-7899
ϫⲟⲟⲩⲥⲉ	-7900
ϭⲟⲟⲗⲟⲩ	-7901
▁ϩⲁⲧⲏⲕ	-7902
▁ϩⲓⲣⲱⲥ	-7903
▁ϩⲓⲧⲉϥ	-7904
▁ϩⲓⲧⲛⲡ	-7905
▁ϩⲓⲱⲱⲧ	-7906
▁ϩⲙⲡⲓⲁ	-7907
▁ϩⲛϩⲣⲁ	-7908
▁ϩⲛⲛⲧⲁ	-7909
▁ϩⲱⲱⲧⲉ	-7910
▁ϫⲉⲁⲉⲓ	-7911
▁ϫⲉⲙⲡϥ	-7912
▁ϫⲉⲡⲉϥ	-7913
▁ϫⲉⲧⲉⲕ	-7914
▁ϯⲙⲧⲟⲛ	-7915
▁ⲁϥϫⲛⲉ	-7916
▁ⲁϥⲕⲧⲉ	-7917
▁ⲉϥϩⲏⲗ	-7918
▁ⲉϥⲃⲏⲕ	-7919
▁ⲉϥⲥⲏϩ	-7920
▁ⲉⲉⲓϫⲱ	-7921
▁ⲉⲕⲡⲏⲧ	-7922
▁ⲉⲛⲛⲉⲩ	-7923
▁ⲉⲛⲧⲟⲩ	-7924
▁ⲉⲡϩⲏⲧ	-7925
▁ⲉⲣⲁⲧⲛ	-7926
▁ⲉⲥⲟⲩⲛ	-7927
▁ⲉⲥⲧⲏⲙ	-7928
▁ⲉⲧⲛⲁϯ	-7929
▁ⲉⲧⲛⲁⲩ	-7930
▁ⲉⲩⲃⲏⲕ	-7931
▁ⲑⲃⲃⲓⲉ	-7932
▁ⲙⲛⲧⲙⲉ	-7933
▁ⲙⲡⲉϥⲉ	-7934
▁ⲙⲡⲣϥⲓ	-7935
▁ⲙⲯⲩⲭⲏ	-7936
▁ⲛϣⲟⲙⲧ	-7937
▁ⲛϣⲱⲛⲉ	-7938
▁ⲛϥⲛⲁⲩ	-7939
▁ⲛϩⲟⲙⲧ	-7940
▁ⲛϫⲛⲁϩ	-7941
▁ⲛⲃⲁⲓⲑ	-7942
▁ⲛⲙⲡⲉϥ	-7943
▁ⲛⲙⲡⲉⲧ	-7944
▁ⲛⲛⲁⲏⲧ	-7945
▁ⲛⲛⲉⲕⲁ	-7946
▁ⲛⲛⲉⲧⲥ	-7947
▁ⲛⲥⲛⲁⲩ	-7948
▁ⲛⲥⲟⲃⲧ	-7949
▁ⲛⲥⲟⲟⲩ	-7950
▁ⲛⲧⲁⲩⲣ	-7951
▁ⲛⲧⲟⲟⲧ	-7952
▁ⲟⲩϩⲏⲧ	-7953
▁ⲟⲩⲃⲏⲓ	-7954
▁ⲟⲩⲛⲧϥ	-7955
▁ⲡⲉϣⲁϥ	-7956
▁ⲡⲉⲓⲙⲁ	-7957
▁ⲡⲉⲕⲣⲟ	-7958
▁ⲡⲉⲭⲉⲇ	-7959
▁ⲡⲛⲟⲩⲃ	-7960
▁ⲡⲥⲱⲙⲁ	-7961
▁ⲣⲟⲙⲡⲉ	-7962
▁ⲣⲟⲩϩⲉ	-7963
▁ⲧⲁϭⲟⲙ	-7964
▁ⲧⲁⲣⲟⲩ	-7965
▁ⲧⲉⲃⲟⲗ	-7966
▁ⲧⲙⲏⲧⲉ	-7967
▁ⲭⲁⲣⲓⲥ	-7968
ⲁⲛⲁⲅⲕⲏ	-7969
ⲕⲁⲗⲁⲁⲩ	-7970
ⲗⲓⲧⲟⲩⲣ	-7971
ⲗⲟϫⲗⲉϫ	-7972
ⲙⲛⲧⲙⲁⲓ	-7973
ⲙⲟⲭⲗⲟⲥ	-7974
ⲛⲁⲑⲉⲙⲁ	-7975
ⲛⲉϥϭⲓϫ	-7976
ⲣⲁϩⲧⲟⲩ	-7977
ⲣⲁⲙⲉⲩⲥ	-7978
ⲣⲟϥⲣⲉϥ	-7979
ⲥⲗⲁⲁⲧⲉ	-7980
ⲧⲥⲁⲃⲟϥ	-7981
ⲭⲓⲙⲁⲁⲥ	-7982
ϩⲁⲗⲗⲁⲥⲁ	-7983
ϩⲏⲗⲉⲓⲁⲥ	-7984
ϭⲓⲛⲟⲩⲱⲙ	-7985
▁ϩⲓⲧⲙⲡⲁ	-7986
▁ϩⲙⲡⲁⲏⲓ	-7987
▁ϩⲛⲟⲩϫⲓ	-7988
▁ⲁϥⲙⲟⲣϥ	-7989
▁ⲁϥⲙⲟⲩϩ	-7990
▁ⲁϩⲉⲣⲁⲧ	-7991
▁ⲁⲓϫⲓⲥⲉ	-7992
▁ⲁⲓⲣⲧϩⲉ	-7993
▁ⲁⲓⲧⲁⲁⲩ	-7994
▁ⲁⲩϣⲓⲛⲉ	-7995
▁ⲁⲩϭⲱⲧⲡ	-7996
▁ⲉϥϣⲁⲁⲧ	-7997
▁ⲉϥⲛⲏⲟⲩ	-7998
▁ⲉϥⲟⲩⲏⲩ	-7999
▁ⲉϥⲥⲱⲧⲙ	-8000
▁ⲉϥⲧⲁⲩⲟ	-8001
▁ⲉⲙⲉⲉⲩⲉ	-8002
▁ⲉⲛⲟⲩϫⲉ	-8003
▁ⲉⲛⲧⲉⲧⲛ	-8004
▁ⲉⲡⲕⲱϩⲧ	-8005
▁ⲉⲥϣⲟⲟⲡ	-8006
▁ⲉⲧⲉⲟⲩⲛ	-8007
▁ⲉⲧⲛϩⲏⲧ	-8008
▁ⲉⲧⲟⲩϫⲉ	-8009
▁ⲉⲧⲱⲟⲩⲛ	-8010
▁ⲉⲩϣⲓⲛⲉ	-8011
▁ⲉⲩϩⲙⲟⲧ	-8012
▁ⲉⲩⲥⲛⲟϥ	-8013
▁ⲙⲁⲣⲉⲡⲁ	-8014
▁ⲙⲉⲗⲉⲧⲁ	-8015
▁ⲙⲙⲉⲗⲟⲥ	-8016
▁ⲙⲙⲛⲧⲛⲁ	-8017
▁ⲙⲡⲁϩⲁⲡ	-8018
▁ⲙⲡⲁⲥⲟⲛ	-8019
▁ⲙⲡⲇⲟⲩⲝ	-8020
▁ⲙⲡⲉⲧϩⲓ	-8021
▁ⲙⲡⲓⲛⲁⲩ	-8022
▁ⲙⲡⲧⲁⲕⲟ	-8023
▁ⲙⲡⲧⲃⲃⲟ	-8024
▁ⲛϥϣⲟⲟⲡ	-8025
▁ⲛϩⲃⲟⲩⲣ	-8026
▁ⲛϩⲉⲛⲕⲉ	-8027
▁ⲛϩⲉⲛⲟⲩ	-8028
▁ⲛⲁϩⲙⲉⲧ	-8029
▁ⲛⲅⲟⲩⲱϩ	-8030
▁ⲛⲉⲧⲟⲛϩ	-8031
▁ⲛⲉⲩⲛⲏⲩ	-8032
▁ⲛⲙⲙⲟⲩⲓ	-8033
▁ⲛⲛϩⲗⲗⲟ	-8034
▁ⲛⲛⲉϥⲛⲁ	-8035
▁ⲛⲛⲉⲧⲉⲩ	-8036
▁ⲛⲟⲩϩⲟⲣ	-8037
▁ⲛⲥⲁⲡⲉⲕ	-8038
▁ⲛⲥⲟⲉⲓⲧ	-8039
▁ⲛⲧⲉϩⲉⲛ	-8040
▁ⲛⲧⲉⲛⲉⲕ	-8041
▁ⲛⲧⲉⲥⲙⲏ	-8042
▁ⲟⲩⲗⲁⲁⲩ	-8043
▁ⲟⲩⲛϩⲁϩ	-8044
▁ⲟⲩⲛϩⲉⲛ	-8045
▁ⲡϫⲱⲱⲙⲉ	-8046
▁ⲡϭⲉⲣⲱⲃ	-8047
▁ⲡⲥⲟⲫⲟⲥ	-8048
▁ⲡⲧⲁⲉⲓⲟ	-8049
▁ⲧⲁⲙⲓⲟϥ	-8050
▁ⲧⲁⲥⲱⲛⲉ	-8051
▁ⲧⲱⲟⲩⲛⲉ	-8052
ⲁⲓⲥⲁⲣⲓⲁ	-8053
ⲉⲓⲟⲩⲇⲁⲥ	-8054
ⲓⲥⲑⲏⲥⲓⲥ	-8055
ⲕⲓⲃⲱⲧⲟⲥ	-8056
ⲗⲁⲕⲏⲧⲁⲥ	-8057
ⲙⲛⲧϣⲏⲣⲉ	-8058
ⲙⲛⲧⲁϥⲧⲉ	-8059
ⲛⲁⲛⲟⲙⲓⲁ	-8060
ⲟⲩⲁϩⲙⲉϥ	-8061
ⲣⲉϥⲙⲓϣⲉ	-8062
ⲣⲉⲕⲣⲓⲕⲉ	-8063
ⲣⲏⲛⲓⲕⲟⲛ	-8064
ⲥⲁⲧⲁⲛⲁⲥ	-8065
ⲥⲧⲁⲩⲣⲟⲥ	-8066
ⲧⲁⲗϭⲟⲟⲩ	-8067
ⲧⲉϥⲯⲩⲭⲏ	-8068
ⲧⲛⲁⲛⲟⲩϥ	-8069
ⲫⲓⲗⲓⲥⲧⲓ	-8070
ⲭⲓⲥⲉⲇⲉⲕ	-8071
ϣⲧⲣⲧⲱⲣⲟⲩ	-8072
▁ϥⲛⲁⲉⲓⲛⲉ	-8073
▁ϩⲓϫⲙⲡⲉⲓ	-8074
▁ϩⲓⲧⲛⲛⲉⲧ	-8075
▁ϩⲛⲕⲁⲇⲏⲥ	-8076
▁ϩⲛⲟⲩϩⲏⲧ	-8077
▁ϩⲛⲧⲁⲥⲓⲁ	-8078
▁ϩⲛⲭⲱⲣⲏⲃ	-8079
▁ϯⲛⲁⲡⲱϩⲧ	-8080
▁ϯⲛⲁⲧⲁⲁⲩ	-8081
▁ⲁϥⲟⲩⲁϩϥ	-8082
▁ⲁϥⲟⲩⲱϣϥ	-8083
▁ⲁⲓϩⲙⲟⲟⲥ	-8084
▁ⲁⲓⲙⲟⲩⲧⲉ	-8085
▁ⲁⲛⲙⲟⲟϣⲉ	-8086
▁ⲁⲡⲙⲏⲏϣⲉ	-8087
▁ⲉϥⲥⲃⲧⲱⲧ	-8088
▁ⲉϫⲛϩⲧⲏⲥ	-8089
▁ⲉϫⲛⲕⲏⲙⲉ	-8090
▁ⲉⲓⲙⲟⲟϣⲉ	-8091
▁ⲉⲕⲙⲟⲟϣⲉ	-8092
▁ⲉⲛⲙⲁⲁϫⲉ	-8093
▁ⲉⲛⲥⲟⲟⲩⲛ	-8094
▁ⲉⲡⲟⲩϫⲁⲓ	-8095
▁ⲉⲥⲧⲛⲧⲱⲛ	-8096
▁ⲉⲧϩⲛⲛⲉⲕ	-8097
▁ⲉⲧϭⲟⲟⲙⲉ	-8098
▁ⲉⲧⲙⲟⲥⲧⲉ	-8099
▁ⲉⲧⲛⲁϣⲱⲥ	-8100
▁ⲉⲧⲣⲉⲩⲉⲓ	-8101
▁ⲉⲩⲙⲁⲉⲓⲛ	-8102
▁ⲉⲩⲛⲁⲃⲱⲕ	-8103
▁ⲉⲩⲡⲟⲗⲓⲥ	-8104
▁ⲓⲁⲕⲱⲃⲟⲥ	-8105
▁ⲕⲛⲁⲉⲓⲙⲉ	-8106
▁ⲙⲁⲗⲓⲥⲧⲁ	-8107
▁ⲙⲡⲉⲣⲧⲣⲉ	-8108
▁ⲙⲡⲉⲩϩⲏⲧ	-8109
▁ⲙⲡⲟⲩⲛⲟϥ	-8110
▁ⲙⲡⲣⲧⲣⲉⲛ	-8111
▁ⲛϥϩⲙⲟⲟⲥ	-8112
▁ⲛϭⲓⲡϩⲏⲧ	-8113
▁ⲛⲁⲅⲣⲓⲟⲛ	-8114
▁ⲛⲁⲛⲟⲙⲟⲥ	-8115
▁ⲛⲁⲥⲟⲧⲡϥ	-8116
▁ⲛⲃⲟⲏⲑⲟⲥ	-8117
▁ⲛⲅϩⲁⲣⲉϩ	-8118
▁ⲛⲉⲕϣⲁϫⲉ	-8119
▁ⲛⲉⲩϣⲓⲛⲉ	-8120
▁ⲛⲓⲱⲁⲕⲓⲙ	-8121
▁ⲛⲛϩⲙϩⲁⲗ	-8122
▁ⲛⲛⲉⲓⲟⲧⲉ	-8123
▁ⲛⲟⲩⲥⲛⲟϥ	-8124
▁ⲛⲣⲉϥⲕⲱϩ	-8125
▁ⲛⲧⲁϥϩⲱⲛ	-8126
▁ⲛⲧⲉⲓϭⲟⲧ	-8127
▁ⲛⲧⲉⲗⲓⲟⲥ	-8128
▁ⲟⲩⲉⲥⲟⲟⲩ	-8129
▁ⲡⲉϥⲥⲱⲙⲁ	-8130
▁ⲡⲉⲕⲗⲁⲟⲥ	-8131
▁ⲡⲉⲩⲟⲩⲟⲓ	-8132
▁ⲧⲉⲕⲯⲩⲭⲏ	-8133
▁ⲧⲛⲛⲁⲃⲱⲕ	-8134
▁ⲧⲟⲩⲛⲟⲥϥ	-8135
ⲕⲁⲧⲁⲃⲟⲗⲏ	-8136
ⲕⲁⲧⲏⲅⲟⲣⲓ	-8137
ⲕⲟⲓⲛⲱⲛⲓⲁ	-8138
ⲙⲁⲕⲁⲣⲓⲍⲉ	-8139
ⲙⲛⲧϫⲱⲱⲣⲉ	-8140
ⲛⲉⲩⲫⲣⲁⲛⲉ	-8141
ⲡⲉⲛϫⲟⲉⲓⲥ	-8142
ⲡⲟⲗⲓⲧⲉⲓⲁ	-8143
ⲡⲣⲟⲃⲗⲏⲙⲁ	-8144
ⲣⲉϥⲙⲟⲩⲧⲉ	-8145
▁ϣⲁⲡⲉⲩⲛⲟϭ	-8146
▁ϥⲛⲁⲟⲩⲱⲛϩ	-8147
▁ϩⲙⲡⲉϥⲣⲁⲛ	-8148
▁ϩⲛⲛϣⲉⲉⲣⲉ	-8149
▁ϩⲛⲟⲩⲙⲛⲧⲁ	-8150
▁ϩⲛⲟⲩⲟⲣⲅⲏ	-8151
▁ϩⲛⲧⲉⲕϭⲓϫ	-8152
▁ϫⲉⲁⲓⲥⲱⲧⲙ	-8153
▁ϫⲉⲡⲉⲧⲣⲟⲥ	-8154
▁ⲁϥϣⲧⲟⲣⲧⲣ	-8155
▁ⲁϥϫⲓϣⲕⲁⲕ	-8156
▁ⲁϥⲉⲛⲕⲟⲧⲕ	-8157
▁ⲁϥⲧⲁⲕⲟⲟⲩ	-8158
▁ⲁⲩϯⲛⲟⲩϭⲥ	-8159
▁ⲁⲩⲁϣϣⲕⲁⲕ	-8160
▁ⲁⲩⲕⲁⲣⲱⲟⲩ	-8161
▁ⲉϫⲛⲛⲣⲱⲙⲉ	-8162
▁ⲉⲅⲁⲗⲅⲁⲗⲁ	-8163
▁ⲉⲕⲉⲧⲁⲙⲓⲟ	-8164
▁ⲉⲛⲧⲁⲓϩⲱⲛ	-8165
▁ⲉⲡⲁⲛⲟⲩⲧⲉ	-8166
▁ⲉⲧⲥⲟⲩⲧⲱⲛ	-8167
▁ⲉⲩⲁϣϣⲕⲁⲕ	-8168
▁ⲙⲁⲣⲉⲡⲕⲁϩ	-8169
▁ⲙⲁⲧⲁⲛϩⲟⲓ	-8170
▁ⲙⲉⲣⲉⲗⲁⲁⲩ	-8171
▁ⲙⲛⲛⲁⲣⲭⲱⲛ	-8172
▁ⲙⲛⲛⲉⲛⲧⲁⲩ	-8173
▁ⲙⲛⲡⲉϩⲟⲟⲩ	-8174
▁ⲙⲛⲧⲉⲩϭⲟⲙ	-8175
▁ⲙⲡⲁⲅⲁⲑⲟⲛ	-8176
▁ⲙⲡⲉⲓϩⲟⲟⲩ	-8177
▁ⲙⲡⲉⲕⲥⲱⲧⲙ	-8178
▁ⲙⲡⲓⲗⲁⲧⲟⲥ	-8179
▁ⲛϭⲓⲡϣⲁϫⲉ	-8180
▁ⲛⲉϥϣⲡⲏⲣⲉ	-8181
▁ⲛⲉⲑⲏⲣⲓⲟⲛ	-8182
▁ⲛⲉⲥⲡⲟⲧⲟⲩ	-8183
▁ⲛⲛⲉϥϫⲁϫⲉ	-8184
▁ⲛⲛⲉϥⲥⲛⲏⲩ	-8185
▁ⲛⲛⲉⲅⲣⲁⲫⲏ	-8186
▁ⲛⲛⲉⲕϫⲁϫⲉ	-8187
▁ⲛⲛⲉⲧϣⲟⲟⲡ	-8188
▁ⲛⲛⲉⲧⲉⲓⲣⲉ	-8189
▁ⲛⲛⲉⲧⲛϭⲓϫ	-8190
▁ⲛⲟⲩⲣⲟⲙⲡⲉ	-8191
▁ⲛⲥⲁⲧⲏⲩⲧⲛ	-8192
▁ⲛⲧⲁϥϣⲁϫⲉ	-8193
▁ⲛⲧⲁⲓϫⲟⲟⲥ	-8194
▁ⲛⲧⲉϥⲥⲏϥⲉ	-8195
▁ⲡⲉⲛⲧⲁϥⲉⲓ	-8196
▁ⲡⲉⲧⲕⲣⲓⲛⲉ	-8197
▁ⲥⲉⲛⲁϫⲱⲧⲉ	-8198
▁ⲥⲉⲛⲁⲥⲙⲟⲩ	-8199
▁ⲧⲉⲕⲟⲩⲛⲁⲙ	-8200
▁ⲧⲉⲧⲛⲛⲁϩⲉ	-8201
ⲟⲕⲗⲏϯⲁⲛⲟⲥ	-8202
ⲡⲁⲣⲁⲡⲧⲱⲙⲁ	-8203
ⲥⲧⲣⲁⲧⲏⲅⲟⲥ	-8204
▁ϩⲁⲧϩⲁⲓⲃⲉⲥ	-8205
▁ϩⲓϫⲙⲡⲧⲟⲟⲩ	-8206
▁ϩⲙⲡⲉϥϩⲓⲥⲉ	-8207
▁ϩⲙⲡⲉⲙϩⲁⲁⲩ	-8208
▁ϩⲙⲡⲕⲁⲣⲡⲟⲥ	-8209
▁ϩⲛϩⲉⲛϩⲓⲥⲉ	-8210
▁ϩⲛⲛⲉⲅⲣⲁⲫⲏ	-8211
▁ϩⲛⲟⲩϭⲉⲣⲱⲃ	-8212
▁ϩⲛⲟⲩⲙⲛⲧⲁⲧ	-8213
▁ϩⲛⲧⲉⲕⲟⲣⲅⲏ	-8214
▁ϩⲛⲧⲉⲕⲯⲩⲭⲏ	-8215
▁ϩⲛⲧⲉⲣⲟⲙⲡⲉ	-8216
▁ϩⲛⲧⲉⲥⲙⲏⲧⲉ	-8217
▁ϩⲩⲡⲟⲧⲁⲥⲥⲉ	-8218
▁ϫⲉϩⲣⲁⲃⲃⲉⲓ	-8219
▁ⲁϥϥⲓⲉⲓⲁⲧϥ	-8220
▁ⲁϥⲡⲓⲥⲧⲉⲩⲉ	-8221
▁ⲉϫⲙⲡϫⲟⲉⲓⲥ	-8222
▁ⲉⲡⲉⲟⲩⲟⲉⲓϣ	-8223
▁ⲉⲡⲉⲡⲛⲉⲩⲙⲁ	-8224
▁ⲙⲙⲁⲕⲁⲣⲓⲟⲥ	-8225
▁ⲙⲛⲛⲉϩⲓⲟⲙⲉ	-8226
▁ⲙⲛⲡⲉϥⲉⲓⲱⲧ	-8227
▁ⲙⲡⲉⲇⲣⲁⲕⲱⲛ	-8228
▁ⲙⲡⲉⲕⲛⲟⲙⲟⲥ	-8229
▁ⲙⲡⲉⲩϫⲟⲉⲓⲥ	-8230
▁ⲙⲫⲓⲗⲓⲡⲡⲟⲥ	-8231
▁ⲛϩⲉⲛⲁⲧⲑⲁⲃ	-8232
▁ⲛϭⲓⲙⲙⲏⲏϣⲉ	-8233
▁ⲛϭⲓⲛⲟⲩⲏⲏⲃ	-8234
▁ⲛϭⲓⲟⲩⲣⲱⲙⲉ	-8235
▁ⲛϭⲓⲡⲙⲏⲏϣⲉ	-8236
▁ⲛⲅⲟⲇⲟⲗⲓⲁⲥ	-8237
▁ⲛⲛⲗⲉⲩⲓⲧⲏⲥ	-8238
▁ⲛⲥⲁⲓⲏⲥⲟⲩⲥ	-8239
▁ⲛⲥⲉⲙⲟⲩⲟⲩⲧ	-8240
▁ⲡⲉⲛⲧⲁϥⲃⲱⲕ	-8241
▁ⲡⲓⲟⲣⲇⲁⲛⲏⲥ	-8242
▁ⲡⲣⲉϥⲣⲛⲟⲃⲉ	-8243
ⲉⲩⲁⲅⲅⲉⲗⲓⲟⲛ	-8244
ⲫⲓⲗⲓⲥⲧⲓⲉⲓⲙ	-8245
▁ϩⲓⲧⲙⲡⲛⲟⲙⲟⲥ	-8246
▁ϩⲓⲧⲛⲧⲧⲁⲡⲣⲟ	-8247
▁ϩⲙⲡⲁⲡⲛⲉⲩⲙⲁ	-8248
▁ϩⲛⲛⲉⲡⲗⲁⲧⲓⲁ	-8249
▁ϩⲛⲛⲉⲩϩⲃⲏⲩⲉ	-8250
▁ϩⲛⲧⲉⲕⲧⲁⲡⲣⲟ	-8251
▁ϫⲉϩⲙⲡⲉϩⲟⲟⲩ	-8252
▁ⲉϫⲛⲛⲉⲧⲟⲩⲏϩ	-8253
▁ⲉⲣϣⲁⲛⲡⲣⲱⲙⲉ	-8254
▁ⲉⲧⲥⲩⲛⲁⲅⲱⲅⲏ	-8255
▁ⲙⲛⲛⲉⲧⲙⲟⲟⲩⲧ	-8256
▁ⲙⲡⲡⲉⲧⲟⲩⲁⲁⲃ	-8257
▁ⲛϩⲉⲛϩⲉⲑⲛⲟⲥ	-8258
▁ⲛⲁⲙⲟⲣⲣⲁⲓⲟⲥ	-8259
▁ⲛⲛϩⲉⲃⲣⲁⲓⲟⲥ	-8260
▁ⲛⲧⲉⲣⲉⲟⲩⲛⲟϭ	-8261
▁ϩⲛⲛⲉϥϩⲓⲟⲟⲩⲉ	-8262
▁ⲉϫⲙⲡⲉⲑⲣⲟⲛⲟⲥ	-8263
▁ⲉⲣϣⲁⲛⲡϫⲟⲉⲓⲥ	-8264
▁ⲕⲁⲧⲁⲡⲉⲓϣⲁϫⲉ	-8265
▁ⲛϩⲩⲡⲟⲕⲣⲓⲧⲏⲥ	-8266
▁ⲛϭⲓⲓⲉⲣⲉⲙⲓⲁⲥ	-8267
▁ⲛⲁⲓⲭⲙⲁⲗⲱⲧⲟⲥ	-8268
▁ⲛⲧⲉϥⲟⲩⲉⲣⲏⲧⲉ	-8269
▁ⲛⲧⲉⲣⲉⲓⲏⲥⲟⲩⲥ	-8270
▁ϩⲁⲛⲉϥⲟⲩⲉⲣⲏⲧⲉ	-8271
▁ϩⲓⲧⲙⲡⲉⲡⲛⲉⲩⲙⲁ	-8272
▁ⲁⲩⲕⲗⲏⲣⲟⲛⲟⲙⲉⲓ	-8273
▁ⲉⲧⲇⲓⲕⲁⲓⲟⲥⲩⲛⲏ	-8274
▁ⲉⲩⲇⲓⲕⲁⲓⲟⲥⲩⲛⲏ	-8275
▁ⲕⲁⲧⲁⲛⲉϥϩⲃⲏⲩⲉ	-8276
▁ⲙⲙⲛⲧϩⲉⲃⲣⲁⲓⲟⲥ	-8277
▁ⲙⲛⲛⲉϥⲁⲅⲅⲉⲗⲟⲥ	-8278
▁ⲛϭⲓⲡⲙⲁⲕⲁⲣⲓⲟⲥ	-8279
▁ⲛⲉⲫⲁⲣⲓⲥⲥⲁⲓⲟⲥ	-8280
▁ⲛⲛⲁϩⲣⲙⲡϫⲟⲉⲓⲥ	-8281
▁ⲡⲉϫⲉⲁⲃⲏⲥⲁⲗⲱⲙ	-8282
▁ⲙⲡⲉⲭⲉⲓⲣⲟⲩⲃⲉⲓⲛ	-8283
▁ⲛⲛⲉⲫⲁⲣⲓⲥⲥⲁⲓⲟⲥ	-8284
▁ⲛⲟⲩⲙⲛⲧⲭⲣⲏⲥⲧⲟⲥ	-8285
▁ϩⲛⲧⲉⲕⲇⲓⲕⲁⲓⲟⲥⲩⲛⲏ	-8286
▁ⲛϭⲓⲛⲉⲫⲁⲣⲓⲥⲥⲁⲓⲟⲥ	-8287
▁ⲛⲧⲉⲧⲛⲕⲗⲏⲣⲟⲛⲟⲙⲉⲓ	-8288
ϭⲏ	-8289
▁ⲭ	-8290
ⲱⲭ	-8291
ϣⲉⲧ	-8292
ϩⲣⲟ	-8293
ϩⲱϣ	-8294
ϩⲱⲥ	-8295
ϫⲁⲧ	-8296
ϭⲉϫ	-8297
ϭⲉⲙ	-8298
ϭⲣⲏ	-8299
▁ϭⲙ	-8300
▁ⲣⲁ	-8301
ⲁϣⲏ	-8302
ⲁⲁⲕ	-8303
ⲃⲏⲧ	-8304
ⲃⲱⲛ	-8305
ⲇⲇⲁ	-8306
ⲍⲉⲕ	-8307
ⲏⲧⲛ	-8308
ⲏⲱⲛ	-8309
ⲑⲉⲛ	-8310
ⲑⲏⲧ	-8311
ⲑⲟⲣ	-8312
ⲓⲃⲉ	-8313
ⲕⲁⲙ	-8314
ⲕⲟⲟ	-8315
ⲙⲉⲛ	-8316
ⲙⲉⲩ	-8317
ⲙⲏϩ	-8318
ⲙⲟϥ	-8319
ⲛⲁⲝ	-8320
ⲛⲏⲗ	-8321
ⲛⲟⲏ	-8322
ⲛⲟⲓ	-8323
ⲟϣϥ	-8324
ⲟⲓⲛ	-8325
ⲡⲁⲛ	-8326
ⲡⲓⲛ	-8327
ⲣⲁⲑ	-8328
ⲣⲛⲁ	-8329
ⲣⲱⲧ	-8330
ⲧⲁϩ	-8331
ⲧⲃⲧ	-8332
ⲧⲥⲟ	-8333
ⲩⲣⲁ	-8334
ⲱϩⲙ	-8335
ⲱⲃϩ	-8336
ⲱⲕⲙ	-8337
ⲱⲣϣ	-8338
ϣⲉⲉⲓ	-8339
ϣⲗⲁϩ	-8340
ϣⲟⲡⲥ	-8341
ϩⲃⲃⲉ	-8342
ϩⲟⲡⲧ	-8343
ϩⲟⲩⲱ	-8344
ϫⲉⲣⲉ	-8345
ϫⲓϩⲟ	-8346
ϫⲡⲟⲓ	-8347
▁ϣⲏⲛ	-8348
▁ϥϫⲓ	-8349
▁ϥⲧⲟ	-8350
▁ϩⲏⲩ	-8351
▁ϯⲥⲟ	-8352
▁ⲁϥⲛ	-8353
▁ⲁⲕⲁ	-8354
▁ⲁⲡⲟ	-8355
▁ⲃⲁⲓ	-8356
▁ⲉϥⲛ	-8357
▁ⲉϭⲱ	-8358
▁ⲉⲣⲡ	-8359
▁ⲏⲇⲏ	-8360
▁ⲕⲁϩ	-8361
▁ⲙⲛⲓ	-8362
▁ⲛϭⲱ	-8363
▁ⲛⲃⲉ	-8364
▁ⲡϣⲓ	-8365
▁ⲡⲏⲧ	-8366
▁ⲣⲁⲧ	-8367
▁ⲥⲉⲓ	-8368
▁ⲧⲁⲩ	-8369
ⲃⲁⲧⲉ	-8370
ⲅⲉⲓⲁ	-8371
ⲏⲗⲓⲝ	-8372
ⲑⲉⲟⲥ	-8373
ⲓⲁⲁⲥ	-8374
ⲗⲁⲓⲁ	-8375
ⲗⲁⲛⲁ	-8376
ⲗⲏⲛⲏ	-8377
ⲗⲓⲟⲛ	-8378
ⲙⲁⲓⲛ	-8379
ⲙⲉⲥⲓ	-8380
ⲙⲙⲙⲉ	-8381
ⲙⲟϫϩ	-8382
ⲙⲟⲩⲥ	-8383
ⲛⲉⲉϥ	-8384
ⲛⲏⲧⲛ	-8385
ⲛⲱⲟⲩ	-8386
ⲟⲩϩⲉ	-8387
ⲟⲫⲓⲁ	-8388
ⲡⲁϩⲥ	-8389
ⲡⲓⲣⲁ	-8390
ⲡⲓⲥⲉ	-8391
ⲡⲟⲇⲏ	-8392
ⲡⲟⲣϣ	-8393
ⲡⲟⲣⲕ	-8394
ⲣⲁⲍⲉ	-8395
ⲣⲁⲓⲁ	-8396
ⲣⲟⲃⲟ	-8397
ⲣⲟⲏⲣ	-8398
ⲣⲟⲫⲏ	-8399
ⲥⲉⲡⲏ	-8400
ⲥⲟⲣⲧ	-8401
ⲥⲩⲛⲏ	-8402
ⲧⲉⲭⲉ	-8403
ⲧⲥⲓⲟ	-8404
ⲩⲛⲟⲩ	-8405
ⲭⲁⲓⲁ	-8406
ϣⲁⲁⲣⲉ	-8407
ϣⲟⲟϭⲉ	-8408
ϩⲓⲗⲁⲥ	-8409
ϩⲗⲗⲟⲓ	-8410
ϭⲟⲗⲡⲥ	-8411
▁ϩⲛⲥⲓ	-8412
▁ϩⲟⲩⲟ	-8413
▁ϫⲉⲛϥ	-8414
▁ϯⲟⲛϩ	-8415
▁ⲁⲓϫⲱ	-8416
▁ⲁⲓⲁⲓ	-8417
▁ⲁⲛⲉⲕ	-8418
▁ⲁⲡⲉⲕ	-8419
▁ⲁⲣⲓϥ	-8420
▁ⲁⲥϩⲉ	-8421
▁ⲁⲧⲉⲩ	-8422
▁ⲉϥϥⲓ	-8423
▁ⲉϩⲁϩ	-8424
▁ⲉⲡⲣⲟ	-8425
▁ⲉⲡⲱⲧ	-8426
▁ⲉⲣⲱⲥ	-8427
▁ⲉⲧϫⲟ	-8428
▁ⲉⲩⲧⲙ	-8429
▁ⲕⲁⲁⲩ	-8430
▁ⲙⲙⲁⲛ	-8431
▁ⲙⲟⲕϩ	-8432
▁ⲙⲡϥϯ	-8433
▁ⲛϣⲃⲣ	-8434
▁ⲛϣⲙⲧ	-8435
▁ⲛϥⲕⲱ	-8436
▁ⲛϥⲥⲱ	-8437
▁ⲛϭⲟⲣ	-8438
▁ⲛⲁϣⲧ	-8439
▁ⲛⲁⲁⲥ	-8440
▁ⲛⲁⲧⲁ	-8441
▁ⲛⲃⲏⲑ	-8442
▁ⲛⲅϩⲉ	-8443
▁ⲛⲉϥϯ	-8444
▁ⲛⲉϩⲙ	-8445
▁ⲛⲕⲱϩ	-8446
▁ⲛⲛⲁⲣ	-8447
▁ⲛⲥⲓⲛ	-8448
▁ⲛⲧⲕⲓ	-8449
▁ⲡⲏⲣⲡ	-8450
▁ⲡⲟⲥⲟ	-8451
▁ⲡⲧⲟϣ	-8452
▁ⲡⲧⲱϣ	-8453
▁ⲣⲉⲕⲧ	-8454
▁ⲥⲃⲟⲕ	-8455
▁ⲥⲃⲧⲉ	-8456
▁ⲥⲟϣϥ	-8457
▁ⲧⲏⲡⲉ	-8458
ⲁⲡⲁⲧⲁ	-8459
ⲓⲥⲧⲏⲥ	-8460
ⲕⲁⲣⲧⲉ	-8461
ⲕⲉⲗⲁⲕ	-8462
ⲗⲁϩⲁⲙ	-8463
ⲗⲓⲛⲟⲥ	-8464
ⲗⲥⲱⲗϥ	-8465
ⲛⲁⲥⲉⲓ	-8466
ⲛⲟⲩⲟⲛ	-8467
ⲟⲕⲙⲉⲕ	-8468
ⲟⲛⲓⲁⲥ	-8469
ⲟⲣⲛⲏⲗ	-8470
ⲟⲩⲱⲧϩ	-8471
ⲡⲁⲣⲛⲁ	-8472
ⲣⲁϩⲧⲕ	-8473
ⲣⲁⲓⲧⲱ	-8474
ⲣⲁⲕⲧⲕ	-8475
ⲥⲁⲙⲏⲥ	-8476
ⲥⲙⲛⲧⲥ	-8477
ⲧⲟϣⲟⲩ	-8478
ⲧⲟⲟⲃⲉ	-8479
ⲧⲟⲩⲏⲧ	-8480
ⲫⲁⲉⲓⲛ	-8481
ϩⲟⲓⲙⲓⲁ	-8482
ϩⲟⲧⲃⲟⲩ	-8483
ϭⲗⲟⲟⲧⲉ	-8484
ϭⲟⲟⲗⲉϥ	-8485
▁ϩⲁⲧⲏϥ	-8486
▁ϩⲁⲧⲡⲉ	-8487
▁ϩⲓⲛⲉⲩ	-8488
▁ϩⲓⲣⲉⲛ	-8489
▁ϩⲙⲡϩⲟ	-8490
▁ϩⲙⲡⲉⲧ	-8491
▁ϩⲙⲡⲥⲁ	-8492
▁ϫⲉϩⲙⲡ	-8493
▁ϫⲉⲁⲛⲉ	-8494
▁ϫⲉⲁⲣⲁ	-8495
▁ϫⲉⲁⲧⲁ	-8496
▁ϫⲉⲁⲩⲣ	-8497
▁ϫⲉⲉⲥⲉ	-8498
▁ϫⲉⲙⲏⲡ	-8499
▁ϫⲉⲟⲩⲕ	-8500
▁ϫⲟⲩⲱⲧ	-8501
▁ⲁϥϯⲡⲓ	-8502
▁ⲁϥⲱⲛϩ	-8503
▁ⲁⲥϯⲡⲉ	-8504
▁ⲉϥⲉⲉⲓ	-8505
▁ⲉϩⲉⲛⲉ	-8506
▁ⲉϭⲱϣⲧ	-8507
▁ⲉⲃⲁⲓⲑ	-8508
▁ⲉⲕⲉⲕⲱ	-8509
▁ⲉⲛⲛⲉϥ	-8510
▁ⲉⲡϣⲏⲓ	-8511
▁ⲉⲡⲁⲏⲓ	-8512
▁ⲉⲡⲉⲓⲁ	-8513
▁ⲉⲥⲟⲣϫ	-8514
▁ⲉⲧⲁⲩⲉ	-8515
▁ⲉⲧⲓⲛⲁ	-8516
▁ⲉⲧⲙⲏⲣ	-8517
▁ⲉⲧⲛⲛⲁ	-8518
▁ⲉⲩϩⲏⲡ	-8519
▁ⲉⲩϩⲱⲃ	-8520
▁ⲉⲩⲕⲏⲃ	-8521
▁ⲉⲩⲟⲛϩ	-8522
▁ⲕⲛⲁϫⲓ	-8523
▁ⲕⲟⲧⲟⲩ	-8524
▁ⲗⲩⲡⲉⲓ	-8525
▁ⲙⲁⲁϫⲉ	-8526
▁ⲙⲁⲛⲱⲉ	-8527
▁ⲙⲁⲣⲟⲛ	-8528
▁ⲙⲛⲙⲏⲧ	-8529
▁ⲙⲛⲡⲕⲉ	-8530
▁ⲙⲡϣⲏⲛ	-8531
▁ⲙⲡϯⲟⲩ	-8532
▁ⲙⲡⲉⲓⲁ	-8533
▁ⲙⲡⲓϩⲉ	-8534
▁ⲙⲡⲣⲙⲛ	-8535
▁ⲛϣⲗⲟϥ	-8536
▁ⲛϥⲡⲱⲧ	-8537
▁ⲛϩⲉⲛⲧ	-8538
▁ⲛϭⲁⲗⲉ	-8539
▁ⲛϭⲓⲧⲡ	-8540
▁ⲛⲁϩⲱⲛ	-8541
▁ⲛⲁⲁⲁϥ	-8542
▁ⲛⲁⲁⲕⲉ	-8543
▁ⲛⲁⲕⲓⲙ	-8544
▁ⲛⲁⲥⲁⲫ	-8545
▁ⲛⲉⲇⲱⲙ	-8546
▁ⲛⲉⲧϩⲙ	-8547
▁ⲛⲉⲧⲕⲱ	-8548
▁ⲛⲉⲩⲕⲉ	-8549
▁ⲛⲉⲫⲑⲁ	-8550
▁ⲛⲕⲟⲩⲓ	-8551
▁ⲛⲛⲁϣⲧ	-8552
▁ⲛⲛⲟⲩⲉ	-8553
▁ⲛⲟϫⲟⲩ	-8554
▁ⲛⲟⲩⲕⲱ	-8555
▁ⲛⲟⲩⲛⲉ	-8556
▁ⲛⲟⲩⲱⲙ	-8557
▁ⲛⲣⲓⲙⲉ	-8558
▁ⲛⲧⲉⲧⲉ	-8559
▁ⲛⲧⲛⲟϭ	-8560
▁ⲟⲩϩⲁⲧ	-8561
▁ⲟⲩⲃⲏϥ	-8562
▁ⲟⲩⲛⲡⲉ	-8563
▁ⲟⲩⲣⲁⲛ	-8564
▁ⲟⲩⲱⲛⲉ	-8565
▁ⲡϩⲏⲕⲉ	-8566
▁ⲡⲉϥϩⲟ	-8567
▁ⲡⲉⲧⲉⲧ	-8568
▁ⲡⲉⲧⲣⲁ	-8569
▁ⲡⲕⲱϩⲧ	-8570
▁ⲡⲥⲟⲃⲧ	-8571
▁ⲣⲁⲧⲟⲩ	-8572
▁ⲣⲣⲱⲟⲩ	-8573
▁ⲧⲙⲁⲁⲩ	-8574
▁ⲧⲛⲧⲱⲛ	-8575
▁ⲧⲟⲟⲧⲉ	-8576
▁ⲧⲟⲟⲧⲥ	-8577
▁ⲧⲥⲁⲣⲝ	-8578
▁ⲭⲁⲗⲉⲃ	-8579
ⲁⲓϣⲓⲛⲉ	-8580
ⲃⲗⲃⲓⲗⲉ	-8581
ⲇⲟⲕⲓⲙⲏ	-8582
ⲇⲣⲓⲧⲏⲥ	-8583
ⲑⲁⲣⲓⲍⲉ	-8584
ⲕⲁϩⲧⲏⲓ	-8585
ⲙⲉⲗⲉⲧⲏ	-8586
ⲙⲓⲭⲁⲏⲗ	-8587
ⲛⲁϩⲙⲉⲕ	-8588
ⲛⲁϩⲙⲉⲛ	-8589
ⲟⲩⲥⲟⲟⲩ	-8590
ⲡⲉϥⲣⲁⲛ	-8591
ⲡⲟⲇⲓⲟⲛ	-8592
ⲣϫⲟⲉⲓⲥ	-8593
ⲣⲟⲩⲃⲓⲛ	-8594
ⲣⲟⲩⲟϭⲉ	-8595
ⲥⲁⲗⲟⲛⲓ	-8596
ⲥⲃⲧⲱⲧϥ	-8597
ⲧⲁⲗⲟⲟⲩ	-8598
ⲧⲁⲙⲓⲟⲥ	-8599
ⲧⲁⲛϩⲉⲧ	-8600
ⲧⲉϥⲁⲡⲉ	-8601
ⲧⲉⲧⲛⲛⲁ	-8602
ⲧⲉⲯⲩⲭⲏ	-8603
ϩⲁⲗⲁⲁⲧⲉ	-8604
ϩⲓⲧⲟⲩⲱⲓ	-8605
▁ϣⲁⲛⲧⲉⲧ	-8606
▁ϣⲟⲩϣⲟⲩ	-8607
▁ϥⲟⲩⲁⲁⲃ	-8608
▁ϩⲁϩⲧⲏⲕ	-8609
▁ϩⲁϩⲧⲏⲩ	-8610
▁ϩⲁⲣⲱⲟⲩ	-8611
▁ϩⲙⲡϣⲏⲛ	-8612
▁ϩⲛⲥⲏⲗⲱ	-8613
▁ϫⲉϭⲱϣⲧ	-8614
▁ϫⲉⲉⲉⲓⲉ	-8615
▁ϫⲉⲉⲩⲛⲁ	-8616
▁ⲁϥϩⲱⲃⲥ	-8617
▁ⲁϥϫⲓⲧⲥ	-8618
▁ⲁϥⲕⲁⲁⲧ	-8619
▁ⲁϥⲣⲁϣⲉ	-8620
▁ⲁϥⲧⲁϩⲥ	-8621
▁ⲁⲃⲓⲕⲓⲁ	-8622
▁ⲁⲓⲕⲧⲟⲓ	-8623
▁ⲁⲓⲱⲥⲏⲫ	-8624
▁ⲁⲛⲥϭⲏⲣ	-8625
▁ⲁⲥϫⲟⲟⲩ	-8626
▁ⲁⲩϣⲙϣⲉ	-8627
▁ⲁⲩϣⲧⲁⲙ	-8628
▁ⲁⲩⲣⲱϩⲧ	-8629
▁ⲁⲩⲧⲁϩⲟ	-8630
▁ⲁⲩⲧⲁⲗⲟ	-8631
▁ⲁⲫⲁⲣⲁⲱ	-8632
▁ⲇⲁⲛⲓⲏⲗ	-8633
▁ⲉϥϫⲟⲟⲣ	-8634
▁ⲉϥⲉⲃⲱⲕ	-8635
▁ⲉϥⲟⲩⲟϫ	-8636
▁ⲉϥⲣⲁϣⲉ	-8637
▁ⲉϥⲥⲙⲟⲩ	-8638
▁ⲉⲛⲉⲩⲙⲁ	-8639
▁ⲉⲟⲩⲱⲛϩ	-8640
▁ⲉⲡⲉⲛⲧⲁ	-8641
▁ⲉⲡⲛⲟⲩⲃ	-8642
▁ⲉⲧϩⲁⲧⲛ	-8643
▁ⲉⲧⲁⲥⲙⲏ	-8644
▁ⲉⲧⲉϣϣⲉ	-8645
▁ⲉⲧⲙⲛⲁⲩ	-8646
▁ⲉⲧⲛⲏⲟⲩ	-8647
▁ⲉⲧⲟⲣⲅⲏ	-8648
▁ⲉⲩϫⲟⲟⲣ	-8649
▁ⲉⲩϯⲥⲃⲱ	-8650
▁ⲉⲩⲉⲛⲁⲩ	-8651
▁ⲉⲩⲉⲟⲟⲩ	-8652
▁ⲉⲩⲛⲧⲁϥ	-8653
▁ⲉⲩⲥϩⲁⲓ	-8654
▁ⲉⲫⲣⲁⲓⲙ	-8655
▁ⲙⲁⲩⲁⲁⲥ	-8656
▁ⲙⲉⲗⲭⲱⲗ	-8657
▁ⲙⲉⲣⲕⲟⲩ	-8658
▁ⲙⲙⲁⲣⲓⲁ	-8659
▁ⲙⲙⲛϭⲟⲙ	-8660
▁ⲙⲛϩⲉⲛⲉ	-8661
▁ⲙⲛⲡⲟⲟϩ	-8662
▁ⲙⲡⲉⲕⲃⲁ	-8663
▁ⲙⲡⲉⲛⲧⲁ	-8664
▁ⲙⲡⲉⲧⲉⲛ	-8665
▁ⲙⲡⲟⲩϫⲓ	-8666
▁ⲙⲡⲣⲕⲱϩ	-8667
▁ⲙⲡⲥⲁⲃⲉ	-8668
▁ⲙⲡⲥⲃⲃⲉ	-8669
▁ⲙⲡⲥⲟⲃⲧ	-8670
▁ⲛϥϫⲓⲧⲥ	-8671
▁ⲛϥⲟⲩⲱⲙ	-8672
▁ⲛϩⲏⲗⲉⲓ	-8673
▁ⲛϫⲱⲱⲙⲉ	-8674
▁ⲛϭⲓⲡⲉⲓ	-8675
▁ⲛϭⲓⲧⲉⲕ	-8676
▁ⲛϯⲙⲡϣⲁ	-8677
▁ⲛⲁⲟⲩⲉⲙ	-8678
▁ⲛⲁⲧⲁⲁⲩ	-8679
▁ⲛⲉϥϭⲓϫ	-8680
▁ⲛⲛⲉⲣⲏⲧ	-8681
▁ⲛⲛⲉⲩϫⲓ	-8682
▁ⲛⲛⲥⲁⲃⲉ	-8683
▁ⲛⲟⲉⲙⲓⲛ	-8684
▁ⲛⲟⲩϩⲟϥ	-8685
▁ⲛⲟⲩⲛⲉϩ	-8686
▁ⲛⲟⲩⲛⲟϥ	-8687
▁ⲛⲟⲩⲣⲁⲛ	-8688
▁ⲛⲟⲩⲥⲟⲛ	-8689
▁ⲛⲥⲁⲛⲉⲩ	-8690
▁ⲛⲥⲏⲉⲓⲣ	-8691
▁ⲛⲧⲁⲩϩⲉ	-8692
▁ⲛⲧⲉϥϩⲉ	-8693
▁ⲛⲧⲉⲣⲓⲥ	-8694
▁ⲛⲧⲡⲁϣⲉ	-8695
▁ⲟⲩⲛⲟⲃⲉ	-8696
▁ⲟⲩⲛⲡⲉⲧ	-8697
▁ⲡⲉⲕϩⲏⲧ	-8698
▁ⲡⲉⲧⲛⲁⲩ	-8699
▁ⲥⲁⲩⲗⲟⲥ	-8700
▁ⲥⲉⲛⲁⲕⲁ	-8701
▁ⲧⲁϫⲟⲟⲥ	-8702
▁ⲧⲁϫⲣⲏⲩ	-8703
▁ⲧⲉϥϭⲓϫ	-8704
▁ⲧⲉⲛⲧⲁⲩ	-8705
▁ⲧⲙⲉⲣⲓⲥ	-8706
▁ⲧⲥⲁϣϥⲉ	-8707
ⲁⲓⲥⲑⲁⲛⲉ	-8708
ⲃⲉⲇⲁⲓⲟⲥ	-8709
ⲅⲉⲛⲛⲏⲙⲁ	-8710
ⲇⲣⲁⲁⲍⲁⲣ	-8711
ⲕⲁⲑⲉⲇⲣⲁ	-8712
ⲗⲁⲍⲁⲣⲟⲥ	-8713
ⲙⲉⲥⲥⲁⲉⲓ	-8714
ⲙⲛⲧⲥⲁⲃⲉ	-8715
ⲙⲡϫⲟⲉⲓⲥ	-8716
ⲛⲉϭⲛⲟⲩϭ	-8717
ⲛⲟⲩⲉⲃⲟⲗ	-8718
ⲡⲁⲥⲉⲃⲏⲥ	-8719
ⲡⲉⲕϣⲃⲏⲣ	-8720
ⲡⲟⲥⲕⲉⲩⲏ	-8721
ⲡⲟⲩⲇⲁⲍⲉ	-8722
ⲥⲟⲩⲱⲛⲟⲩ	-8723
ⲥⲧⲁⲩⲣⲟⲩ	-8724
ⲩⲧⲛⲛⲟⲟⲩ	-8725
ϣⲣⲡⲙⲙⲓⲥⲉ	-8726
▁ϣⲁⲛⲧϥⲉⲓ	-8727
▁ϣⲁⲧⲉⲛⲟⲩ	-8728
▁ϣⲁⲫⲁⲣⲁⲱ	-8729
▁ϥⲛⲁⲉⲓⲣⲉ	-8730
▁ϥⲛⲁⲧⲁⲕⲟ	-8731
▁ϩⲉⲛϣⲏⲣⲉ	-8732
▁ϩⲓⲡⲉⲥⲏⲧ	-8733
▁ϩⲓⲧⲟⲩⲱϥ	-8734
▁ϩⲓⲧⲟⲩⲱⲛ	-8735
▁ϩⲙⲡϣⲟⲣⲡ	-8736
▁ϩⲙⲡⲛⲟⲃⲉ	-8737
▁ϩⲛϩⲉⲛⲕⲉ	-8738
▁ϩⲛⲧⲉⲥⲃⲱ	-8739
▁ϫⲉϩⲁⲣⲉϩ	-8740
▁ϫⲉⲕⲁⲗⲱⲥ	-8741
▁ϫⲉⲛⲥⲉⲛⲁ	-8742
▁ϫⲓⲛⲙⲙⲟⲛ	-8743
▁ϯⲛⲁϫⲟⲟⲥ	-8744
▁ϯⲛⲁⲥⲱⲧⲙ	-8745
▁ϯⲣⲙⲛⲧⲣⲉ	-8746
▁ⲁⲡⲁⲩⲗⲟⲥ	-8747
▁ⲁⲡⲥⲱⲧⲏⲣ	-8748
▁ⲁⲩϫⲱⲱⲣⲉ	-8749
▁ⲁⲩⲧⲁⲟⲩⲟ	-8750
▁ⲉϥⲛⲁⲙⲟⲩ	-8751
▁ⲉϥⲛⲟⲩϫⲉ	-8752
▁ⲉϥⲟⲩⲟⲛϩ	-8753
▁ⲉϥⲣⲟⲟⲩⲧ	-8754
▁ⲉϩⲟⲩⲉⲟⲩ	-8755
▁ⲉⲃⲟⲏⲑⲉⲓ	-8756
▁ⲉⲛϩⲟⲥⲟⲛ	-8757
▁ⲉⲟⲩⲛⲧⲁⲩ	-8758
▁ⲉⲡⲉⲓϩⲱⲃ	-8759
▁ⲉⲡⲥⲟⲟⲩⲛ	-8760
▁ⲉⲣϩⲙϩⲁⲗ	-8761
▁ⲉⲧⲁⲅⲁⲡⲏ	-8762
▁ⲉⲧⲁⲯⲩⲭⲏ	-8763
▁ⲉⲧⲃⲉϩⲱⲃ	-8764
▁ⲉⲧⲃⲉⲧⲉⲩ	-8765
▁ⲉⲧⲃⲏⲏⲧⲉ	-8766
▁ⲉⲧⲃⲏⲏⲧⲛ	-8767
▁ⲉⲧⲙⲧⲣⲉϥ	-8768
▁ⲉⲩⲁⲥⲱⲟⲩ	-8769
▁ⲉⲩⲉⲟⲩⲱⲙ	-8770
▁ⲉⲩⲛⲟⲩϫⲉ	-8771
▁ⲉⲩⲟⲩⲛⲟϥ	-8772
▁ⲕⲁⲧⲁⲙⲙⲁ	-8773
▁ⲕⲁⲧⲁⲛⲏⲓ	-8774
▁ⲙⲁⲛⲁⲥⲥⲏ	-8775
▁ⲙⲙⲛϣϭⲟⲙ	-8776
▁ⲙⲛⲓⲟⲩⲇⲁ	-8777
▁ⲙⲛⲟⲩϫⲱⲙ	-8778
▁ⲙⲡϫⲱⲱⲣⲉ	-8779
▁ⲙⲡⲉⲥⲙⲟⲩ	-8780
▁ⲙⲡⲣϫⲓⲥⲉ	-8781
▁ⲙⲱⲟⲩⲥⲏⲥ	-8782
▁ⲛϭⲓⲛϭⲱⲣ	-8783
▁ⲛⲁⲧⲉⲗⲏⲗ	-8784
▁ⲛⲁⲧⲱⲙⲛⲧ	-8785
▁ⲛⲉϥⲟⲩⲱϣ	-8786
▁ⲛⲉϥⲥⲛⲏⲩ	-8787
▁ⲛⲉⲧϣⲙϣⲉ	-8788
▁ⲛⲉⲧⲉϥϫⲱ	-8789
▁ⲛⲓⲱⲥⲓⲁⲥ	-8790
▁ⲛⲕⲁⲣⲡⲟⲥ	-8791
▁ⲛⲛϫⲟⲉⲓⲧ	-8792
▁ⲛⲛⲉϣⲁϫⲉ	-8793
▁ⲛⲛⲉⲩϩⲏⲧ	-8794
▁ⲛⲛⲓⲛⲉⲩⲏ	-8795
▁ⲛⲟⲩⲉⲃⲟⲗ	-8796
▁ⲛⲟⲩⲉⲓⲱⲧ	-8797
▁ⲛⲟⲩⲕⲗⲟⲙ	-8798
▁ⲛⲟⲩⲣⲓⲁⲥ	-8799
▁ⲛⲟⲩⲭⲓⲱⲛ	-8800
▁ⲛⲥⲁⲛⲉⲧⲛ	-8801
▁ⲛⲥⲁⲟⲩⲥⲁ	-8802
▁ⲛⲥⲉⲛⲟϫϥ	-8803
▁ⲛⲥⲟⲩⲟⲩⲁ	-8804
▁ⲛⲧⲁϥⲛⲁⲩ	-8805
▁ⲛⲧⲁⲅⲁⲡⲏ	-8806
▁ⲛⲧⲁⲓⲁⲁϥ	-8807
▁ⲛⲧⲁⲕⲁⲁϥ	-8808
▁ⲛⲧⲁⲕⲁⲁⲩ	-8809
▁ⲛⲧⲁⲩⲁⲁⲩ	-8810
▁ⲛⲧⲉϥⲥⲙⲏ	-8811
▁ⲛⲧⲉⲧⲛⲕⲱ	-8812
▁ⲛⲧⲉⲭⲱⲣⲁ	-8813
▁ⲛⲧⲙⲉⲣⲓⲥ	-8814
▁ⲛⲧⲛⲥⲱⲧⲙ	-8815
▁ⲛⲧⲟⲩⲉⲓⲏ	-8816
▁ⲛⲭⲉⲃⲣⲱⲛ	-8817
▁ⲟⲩϣⲉⲉⲣⲉ	-8818
▁ⲟⲩϭⲉⲣⲱⲃ	-8819
▁ⲟⲩⲡⲟⲗⲓⲥ	-8820
▁ⲟⲩⲣⲙⲙⲁⲟ	-8821
▁ⲡⲁⲧⲁⲥⲥⲉ	-8822
▁ⲡⲉⲓⲗⲁⲟⲥ	-8823
▁ⲡⲉⲕϣⲏⲣⲉ	-8824
▁ⲡⲉⲛⲧⲁϥⲣ	-8825
▁ⲡⲉⲧⲛⲁϫⲓ	-8826
▁ⲥⲉⲛⲁⲛⲁⲩ	-8827
ⲉⲡⲓⲑⲩⲙⲉⲓ	-8828
ⲕⲁⲣⲧⲉⲣⲉⲓ	-8829
ⲙⲉϩϣⲟⲙⲛⲧ	-8830
ⲛⲉⲛⲉⲓⲟⲧⲉ	-8831
ⲡⲉⲩⲙⲉⲉⲩⲉ	-8832
ⲣⲙⲛⲛⲟⲩⲧⲉ	-8833
ⲧⲁⲛϩⲟⲩⲧⲕ	-8834
▁ϣⲁⲛⲧⲉϥⲉⲓ	-8835
▁ϣⲁⲡⲁⲉⲓⲱⲧ	-8836
▁ϩⲙⲡⲉⲙϩⲓⲧ	-8837
▁ϩⲛⲅⲁⲗⲁⲁⲇ	-8838
▁ϩⲛⲛⲉⲩⲃⲁⲗ	-8839
▁ϩⲛⲟⲩⲕⲣⲟϥ	-8840
▁ϩⲛⲟⲩⲥⲱⲧⲙ	-8841
▁ϫⲉⲁⲕⲥⲱⲧⲙ	-8842
▁ϫⲉⲙⲛϣϭⲟⲙ	-8843
▁ϫⲉⲛⲁⲛⲟⲩⲥ	-8844
▁ϫⲉⲥⲟⲟⲩⲧⲛ	-8845
▁ϯⲛⲁⲧⲱⲟⲩⲛ	-8846
▁ϯⲛⲁⲧⲱⲱⲃⲉ	-8847
▁ⲁⲛϩⲉⲑⲛⲟⲥ	-8848
▁ⲉϩⲉⲛϣⲏⲣⲉ	-8849
▁ⲉⲙⲁⲥⲥⲏⲫⲁ	-8850
▁ⲉⲛⲧⲁϥⲁⲁϥ	-8851
▁ⲉⲛⲧⲁϥⲁⲁⲩ	-8852
▁ⲉⲥⲧⲁϫⲣⲏⲩ	-8853
▁ⲉⲧⲉⲧⲛⲛⲁⲩ	-8854
▁ⲉⲧⲣⲉⲡⲟⲩⲁ	-8855
▁ⲉⲧⲣⲉⲧⲉⲧⲛ	-8856
▁ⲉⲧⲧⲁϫⲣⲏⲩ	-8857
▁ⲉⲩⲥⲟⲩⲧⲱⲛ	-8858
▁ⲕⲁⲧⲁⲧⲏⲡⲉ	-8859
▁ⲙⲛⲙⲡⲟⲗⲓⲥ	-8860
▁ⲙⲛⲡⲉⲥⲛⲟϥ	-8861
▁ⲙⲡⲉϥⲥⲱⲧⲙ	-8862
▁ⲙⲡⲉⲩⲉⲓⲱⲧ	-8863
▁ⲙⲡⲉⲩⲟⲩⲟⲓ	-8864
▁ⲙⲡⲟⲗⲉⲙⲟⲥ	-8865
▁ⲛϩⲉⲛϩⲟⲟⲩ	-8866
▁ⲛϭⲓⲡⲇⲟⲩⲝ	-8867
▁ⲛϭⲓⲡⲙⲟⲟⲩ	-8868
▁ⲛⲉⲍⲉⲕⲓⲁⲥ	-8869
▁ⲛⲉⲓⲇⲱⲗⲟⲛ	-8870
▁ⲛⲉⲕϩⲃⲏⲩⲉ	-8871
▁ⲛⲉⲗⲉⲁⲍⲁⲣ	-8872
▁ⲛⲉⲧⲛϣⲏⲣⲉ	-8873
▁ⲛⲛⲁϩⲣⲙⲡⲉ	-8874
▁ⲛⲛⲉϩⲙϩⲁⲗ	-8875
▁ⲛⲛⲕⲁⲣⲡⲟⲥ	-8876
▁ⲛⲟⲩϩⲁⲗⲏⲧ	-8877
▁ⲛⲟⲩⲁⲣⲭⲱⲛ	-8878
▁ⲛⲣⲉϥϯⲥⲃⲱ	-8879
▁ⲛⲥⲉⲙⲟⲟϣⲉ	-8880
▁ⲛⲥⲉⲟⲩⲱⲗⲥ	-8881
▁ⲛⲥⲉⲧⲱⲟⲩⲛ	-8882
▁ⲛⲥⲫⲣⲁⲅⲓⲥ	-8883
▁ⲛⲧⲁⲧⲁⲙⲟⲕ	-8884
▁ⲛⲧⲉⲕⲙⲁⲁⲩ	-8885
▁ⲟⲩⲁⲅⲁⲑⲟⲥ	-8886
▁ⲡϩⲓⲉⲣⲉⲩⲥ	-8887
▁ⲡⲁⲡⲛⲟⲩⲧⲉ	-8888
▁ⲡⲉⲛⲧⲁϥϩⲉ	-8889
▁ⲡⲉⲧⲉⲛϥⲛⲁ	-8890
▁ⲡⲕⲉⲥⲉⲉⲡⲉ	-8891
▁ⲥⲉⲛⲁϣⲓⲛⲉ	-8892
▁ⲧⲉϥϣⲉⲉⲣⲉ	-8893
▁ⲫⲓⲗⲓⲡⲡⲟⲥ	-8894
ⲅⲁⲗⲓⲗⲁⲓⲟⲥ	-8895
ⲉⲩⲥⲧⲁⲑⲓⲟⲥ	-8896
ϫⲓⲃⲁⲡⲧⲓⲥⲙⲁ	-8897
▁ϩⲓϫⲛⲛⲧⲟⲟⲩ	-8898
▁ϩⲓⲛⲉⲩⲉⲣⲏⲩ	-8899
▁ϩⲙⲡⲉϥⲥⲱⲙⲁ	-8900
▁ϩⲙⲡⲉⲓⲥⲙⲟⲧ	-8901
▁ϩⲛⲛⲉϥϩⲟⲟⲩ	-8902
▁ϩⲛⲟⲩϩⲣⲟⲟⲩ	-8903
▁ϩⲛⲟⲩⲁⲅⲁⲡⲏ	-8904
▁ϫⲉⲡⲁⲙⲉⲣⲓⲧ	-8905
▁ϫⲓⲛⲛⲧⲉⲛⲟⲩ	-8906
▁ⲁϥⲉⲡⲓⲧⲓⲙⲁ	-8907
▁ⲁⲓⲣⲡⲙⲉⲉⲩⲉ	-8908
▁ⲁⲧⲉⲧⲛⲉⲓⲙⲉ	-8909
▁ⲁⲩⲧⲱⲟⲩⲛⲟⲩ	-8910
▁ⲉϥⲥⲙⲁⲙⲁⲁⲧ	-8911
▁ⲉⲇⲁⲙⲁⲥⲕⲟⲥ	-8912
▁ⲉⲛⲁⲉⲛⲧⲟⲗⲏ	-8913
▁ⲉⲛⲥⲉⲥⲟⲟⲩⲛ	-8914
▁ⲉⲛⲧⲁⲓϫⲟⲟⲩ	-8915
▁ⲉⲛⲧⲁⲩⲧⲁⲁⲥ	-8916
▁ⲉⲣⲉⲛⲉϥⲃⲁⲗ	-8917
▁ⲉⲧϩⲛⲧⲥⲱϣⲉ	-8918
▁ⲉⲧⲁϣⲉⲟⲉⲓϣ	-8919
▁ⲉⲧⲃⲉⲡⲁϣⲁⲓ	-8920
▁ⲉⲧⲃⲉⲡⲁⲣⲁⲛ	-8921
▁ⲉⲧⲃⲉⲧϩⲟⲧⲉ	-8922
▁ⲉⲧⲣⲉⲕϣⲱⲡⲉ	-8923
▁ⲕⲁⲧⲁⲡⲁϣⲁⲓ	-8924
▁ⲙⲛⲛⲉⲧϣⲟⲟⲡ	-8925
▁ⲙⲛⲡⲁⲙⲁⲗⲏⲕ	-8926
▁ⲙⲡⲕⲉⲥⲉⲉⲡⲉ	-8927
▁ⲛϭⲓⲡⲉϩⲟⲟⲩ	-8928
▁ⲛⲉⲛϩⲉⲑⲛⲟⲥ	-8929
▁ⲛⲛⲉϥⲥⲕⲏⲩⲉ	-8930
▁ⲛⲛⲉⲡⲛⲉⲩⲙⲁ	-8931
▁ⲛⲛⲉⲧⲑⲗⲓⲃⲉ	-8932
▁ⲛⲛⲉⲧⲣϩⲟⲧⲉ	-8933
▁ⲛⲟⲩⲁⲛⲟⲙⲓⲁ	-8934
▁ⲛⲧⲉⲣⲟⲩⲃⲱⲕ	-8935
▁ⲛⲧⲉⲧⲛⲟⲩⲱϩ	-8936
▁ⲛⲧⲙⲛⲧⲥⲁⲃⲉ	-8937
▁ⲡⲁⲣⲁⲕⲁⲗⲉⲓ	-8938
▁ⲡⲉⲛⲧⲁϥⲛⲧⲕ	-8939
▁ⲡⲉⲧⲛⲛⲁⲁⲁϥ	-8940
▁ⲧⲉⲧⲛⲁⲉⲓⲙⲉ	-8941
ⲅⲉⲣⲅⲉⲥⲁⲓⲟⲥ	-8942
ⲛⲟⲩⲉⲉⲓⲉⲛⲓⲛ	-8943
ⲡⲣⲟⲥⲩⲗⲏⲧⲟⲥ	-8944
ϩⲓⲗⲁⲥⲧⲏⲣⲓⲟⲛ	-8945
▁ϣⲁⲣⲉⲡⲁⲧϩⲏⲧ	-8946
▁ϩⲁⲧϭⲓⲃⲱⲧⲟⲥ	-8947
▁ϩⲓⲛⲉϩⲓⲟⲟⲩⲉ	-8948
▁ϩⲛⲟⲩϩⲉⲗⲡⲓⲥ	-8949
▁ϩⲛⲧϩⲁⲗⲁⲥⲥⲁ	-8950
▁ϩⲛⲧⲉⲩⲧⲁⲡⲣⲟ	-8951
▁ⲁⲥϯⲡⲉⲥⲟⲩⲟⲓ	-8952
▁ⲉⲛⲉϥⲉⲛⲧⲟⲗⲏ	-8953
▁ⲉⲧϥⲛⲁⲥⲟⲧⲡϥ	-8954
▁ⲉⲧⲁⲛⲧⲓⲟⲭⲓⲁ	-8955
▁ⲉⲧⲃⲉⲡⲉⲕⲣⲁⲛ	-8956
▁ⲉⲧⲉⲕⲕⲗⲏⲥⲓⲁ	-8957
▁ⲉⲧⲉⲧⲛⲉⲟⲩⲱⲙ	-8958
▁ⲉⲧⲉⲧⲛⲟⲩⲁⲁⲃ	-8959
▁ⲉⲧⲣⲉⲧⲛⲉⲓⲣⲉ	-8960
▁ⲙⲉⲣⲕⲟⲩⲣⲓⲟⲥ	-8961
▁ⲙⲛⲃⲁⲣⲛⲁⲃⲁⲥ	-8962
▁ⲙⲛⲛⲉⲧⲟⲩⲁⲁⲃ	-8963
▁ⲙⲛⲛⲉⲧⲧⲛⲧⲱⲛ	-8964
▁ⲛⲉⲛⲧⲁⲩϣⲱⲡⲉ	-8965
▁ⲛⲛⲉⲓϩⲉⲑⲛⲟⲥ	-8966
▁ⲛⲟⲩⲡⲉⲧϩⲟⲟⲩ	-8967
▁ⲛⲥⲁⲡⲉϥⲉⲓⲱⲧ	-8968
▁ⲛⲧⲉⲣⲉϥϫⲟⲟⲩ	-8969
▁ⲛⲧⲉⲧⲛϩⲁⲣⲉϩ	-8970
▁ⲛⲧⲉⲧⲛⲙⲟⲟϣⲉ	-8971
▁ⲟⲩⲡⲣⲟⲫⲏⲧⲏⲥ	-8972
▁ⲡⲁⲙⲟⲣⲣⲁⲓⲟⲥ	-8973
▁ⲡⲉϫⲉⲡⲛⲟⲩⲧⲉ	-8974
▁ⲡⲉϫⲉⲥⲁⲙⲯⲱⲛ	-8975
▁ⲡⲉⲧⲉⲟⲩⲛϭⲟⲙ	-8976
▁ⲡⲉⲭⲉⲇⲇⲁⲓⲟⲥ	-8977
▁ⲉⲧⲉⲣⲉⲡⲛⲟⲩⲧⲉ	-8978
▁ⲉⲧⲙⲁⲕⲉⲇⲟⲛⲓⲁ	-8979
▁ⲙⲡⲙⲛⲧⲥⲛⲟⲟⲩⲥ	-8980
▁ⲙⲡⲟⲩⲉϣϭⲙϭⲟⲙ	-8981
▁ⲛⲉⲩⲁϩⲉⲣⲁⲧⲟⲩ	-8982
▁ⲛⲛⲉⲕⲟⲩⲉⲣⲏⲧⲉ	-8983
▁ⲛⲟⲩⲡⲁⲣⲁⲃⲟⲗⲏ	-8984
▁ⲛⲣⲉϥϫⲓⲛϭⲟⲛⲥ	-8985
▁ⲛⲧⲉⲧⲛⲡⲓⲥⲧⲓⲥ	-8986
▁ⲛⲧⲙⲛⲧⲣⲙⲛϩⲏⲧ	-8987
▁ⲡⲉⲭⲁⲛⲁⲛⲁⲓⲟⲥ	-8988
▁ϩⲓϫⲛⲧϩⲁⲗⲁⲥⲥⲁ	-8989
▁ϫⲓⲛⲧⲁⲙⲛⲧⲕⲟⲩⲓ	-8990
▁ⲉⲛⲉⲕⲇⲓⲕⲁⲓⲱⲙⲁ	-8991
▁ⲉⲡⲉⲩⲁⲅⲅⲉⲗⲓⲟⲛ	-8992
▁ⲛⲛⲉⲧⲁϩⲉⲣⲁⲧⲟⲩ	-8993
▁ⲛⲧⲉⲧⲛⲡⲓⲥⲧⲉⲩⲉ	-8994
▁ⲡⲉϫⲉⲓⲉⲣⲉⲙⲓⲁⲥ	-8995
▁ⲛϩⲉⲛⲡⲉⲧϣⲟⲩⲉⲓⲧ	-8996
▁ⲛⲥⲉⲕⲗⲏⲣⲟⲛⲟⲙⲉⲓ	-8997
▁ⲥⲉⲛⲁⲡⲁⲣⲁⲇⲓⲇⲟⲩ	-8998
▁ⲛⲧⲉⲕⲕⲗⲏⲣⲟⲛⲟⲙⲓⲁ	-8999
▁ⲉϫⲛⲧϩⲓⲉⲣⲟⲩⲥⲁⲗⲏⲙ	-9000
ϫⲗ	-9001
ⲅⲕ	-9002
ⲏⲃ	-9003
ⲏⲕ	-9004
ⲕⲥ	-9005
ⲗⲧ	-9006
ⲣϫ	-9007
ϣⲏⲕ	-9008
ϩⲃⲱ	-9009
ϩⲛⲁ	-9010
ϫⲓϥ	-9011
▁ϥⲉ	-9012
▁ϫⲁ	-9013
▁ⲏⲥ	-9014
ⲁⲍⲉ	-9015
ⲃⲏⲓ	-9016
ⲃⲏⲗ	-9017
ⲅⲇⲁ	-9018
ⲇⲟⲗ	-9019
ⲇⲱⲣ	-9020
ⲉⲭⲉ	-9021
ⲑⲉⲙ	-9022
ⲑⲉⲟ	-9023
ⲑⲉⲣ	-9024
ⲑⲑⲓ	-9025
ⲓⲱⲛ	-9026
ⲕⲉⲣ	-9027
ⲗⲩⲥ	-9028
ⲛϩⲉ	-9029
ⲛⲁⲑ	-9030
ⲛⲏϩ	-9031
ⲝⲁⲛ	-9032
ⲟⲗⲩ	-9033
ⲟⲩϣ	-9034
ⲡⲓⲧ	-9035
ⲡⲣⲁ	-9036
ⲥⲃⲟ	-9037
ⲥⲕⲥ	-9038
ⲥⲟⲓ	-9039
ⲧⲏϩ	-9040
ⲧⲥⲛ	-9041
ⲧⲱⲥ	-9042
ⲭⲓⲣ	-9043
ⲯⲁⲅ	-9044
ⲯⲓⲧ	-9045
ⲱⲗⲉ	-9046
ⲱⲛⲏ	-9047
ⲱⲛⲥ	-9048
ϣⲏϭⲉ	-9049
ϣⲟⲉⲓ	-9050
ϣⲟⲡⲛ	-9051
ϣⲟⲥⲙ	-9052
ϣⲣϣⲣ	-9053
ϣⲣⲱϣ	-9054
ϣⲱⲧⲙ	-9055
ϩⲏⲟⲩ	-9056
ϩⲓⲗⲁ	-9057
ϩⲓⲧⲉ	-9058
ϩⲛⲁⲩ	-9059
ϩⲣⲉⲛ	-9060
ϩⲧⲟⲡ	-9061
ϫⲡⲓⲉ	-9062
ϫⲱⲟⲩ	-9063
ϭⲟⲟⲃ	-9064
▁ϣϥⲉ	-9065
▁ϣⲱⲗ	-9066
▁ϩⲛⲙ	-9067
▁ϩⲣⲱ	-9068
▁ϫⲡⲉ	-9069
▁ⲁϫⲙ	-9070
▁ⲁⲱⲑ	-9071
▁ⲉⲕϯ	-9072
▁ⲉⲥⲁ	-9073
▁ⲏⲡⲉ	-9074
▁ⲙⲁⲥ	-9075
▁ⲙⲉⲕ	-9076
▁ⲛϥⲥ	-9077
▁ⲛϭⲉ	-9078
▁ⲛⲉⲣ	-9079
▁ⲛⲛⲏ	-9080
▁ⲛⲣⲁ	-9081
▁ⲛⲧⲏ	-9082
▁ⲟⲩϭ	-9083
▁ⲟⲩⲙ	-9084
▁ⲡⲧⲉ	-9085
▁ⲣⲱⲓ	-9086
▁ⲥⲱⲕ	-9087
▁ⲧⲱⲙ	-9088
ⲃⲉⲉⲣ	-9089
ⲃⲱϭⲉ	-9090
ⲃⲱⲧⲛ	-9091
ⲅⲓⲟⲛ	-9092
ⲇⲣⲓⲁ	-9093
ⲉⲓⲟϥ	-9094
ⲏⲥⲁⲩ	-9095
ⲑⲁⲓⲙ	-9096
ⲑⲁⲛⲁ	-9097
ⲑⲓⲏⲙ	-9098
ⲑⲙⲕⲟ	-9099
ⲓⲟⲩⲣ	-9100
ⲕⲁⲛⲁ	-9101
ⲕⲙⲧⲟ	-9102
ⲕⲛⲧⲉ	-9103
ⲕⲱⲧϥ	-9104
ⲗⲁⲙⲓ	-9105
ⲗⲓⲁⲥ	-9106
ⲗⲓⲗⲁ	-9107
ⲙⲉⲉⲓ	-9108
ⲛⲟϫⲛ	-9109
ⲛⲟⲩⲣ	-9110
ⲟϣⲧϥ	-9111
ⲟⲗⲱⲥ	-9112
ⲟⲙⲟⲥ	-9113
ⲟⲣⲕⲣ	-9114
ⲟⲣⲟⲥ	-9115
ⲟⲩⲇⲁ	-9116
ⲡϩⲏⲧ	-9117
ⲡⲉⲛⲉ	-9118
ⲡⲉⲣⲓ	-9119
ⲡⲟⲥⲉ	-9120
ⲣⲏⲟⲩ	-9121
ⲣⲥⲟⲥ	-9122
ⲥⲉⲧⲙ	-9123
ⲧⲉⲛϥ	-9124
ⲧⲙⲉϥ	-9125
ⲧⲛⲧⲱ	-9126
ⲧⲥⲧⲟ	-9127
ⲫⲟⲩⲇ	-9128
ⲭⲙⲁⲥ	-9129
ⲭⲟⲗⲏ	-9130
ⲱⲟⲩⲛ	-9131
ⲱⲣⲓⲁ	-9132
ϣⲟⲉⲓϫ	-9133
ϩⲁⲉⲉⲩ	-9134
ϩⲁⲙⲱⲥ	-9135
ϩⲣⲏⲧⲛ	-9136
ϫⲓϯⲡⲉ	-9137
ϫⲛⲟⲩⲕ	-9138
ϫⲟⲗϫⲗ	-9139
ϭⲟⲡⲟⲩ	-9140
▁ϣⲁⲩⲥ	-9141
▁ϣⲱⲛⲉ	-9142
▁ϩⲁⲡⲁ	-9143
▁ϩⲏⲗⲓ	-9144
▁ϩⲓϩⲟ	-9145
▁ϩⲛϩⲛ	-9146
▁ϩⲛⲁϥ	-9147
▁ϩⲛⲕⲉ	-9148
▁ϩⲛⲥⲁ	-9149
▁ϩⲟⲗϭ	-9150
▁ϩⲱⲧⲡ	-9151
▁ϫⲉϩⲱ	-9152
▁ϫⲉⲁϣ	-9153
▁ϭⲱⲣϭ	-9154
▁ⲁϥϭⲙ	-9155
▁ⲁϥⲧⲉ	-9156
▁ⲁⲓⲱϣ	-9157
▁ⲁⲛϩⲉ	-9158
▁ⲁⲥϭⲱ	-9159
▁ⲁⲥⲱϣ	-9160
▁ⲉϥⲥⲁ	-9161
▁ⲉϩⲟⲧ	-9162
▁ⲉⲕⲟⲩ	-9163
▁ⲉⲙⲙⲛ	-9164
▁ⲉⲙⲛⲧ	-9165
▁ⲉⲣⲟⲩ	-9166
▁ⲉⲣⲱⲓ	-9167
▁ⲉⲥⲕⲏ	-9168
▁ⲉⲧϣⲉ	-9169
▁ⲉⲧϥⲓ	-9170
▁ⲉⲧⲉⲣ	-9171
▁ⲉⲧⲥⲱ	-9172
▁ⲉⲧⲱϣ	-9173
▁ⲉⲩϣⲁ	-9174
▁ⲕⲁⲁⲥ	-9175
▁ⲙⲓⲭⲁ	-9176
▁ⲙⲛⲃⲁ	-9177
▁ⲙⲛⲓⲁ	-9178
▁ⲙⲛⲓⲥ	-9179
▁ⲙⲛⲧϥ	-9180
▁ⲙⲛⲧⲛ	-9181
▁ⲙⲟⲩⲛ	-9182
▁ⲙⲡϫⲓ	-9183
▁ⲙⲡⲱⲣ	-9184
▁ⲛϣⲟⲧ	-9185
▁ⲛϩⲟⲧ	-9186
▁ⲛϩⲱⲡ	-9187
▁ⲛϭⲓⲫ	-9188
▁ⲛⲁϣⲁ	-9189
▁ⲛⲁⲕⲉ	-9190
▁ⲛⲅϫⲱ	-9191
▁ⲛⲉⲁⲩ	-9192
▁ⲛⲉⲧϯ	-9193
▁ⲛⲉⲩϯ	-9194
▁ⲛⲛⲉϣ	-9195
▁ⲛⲛⲓⲉ	-9196
▁ⲛⲥⲃⲱ	-9197
▁ⲛⲧⲃⲧ	-9198
▁ⲛⲧⲛϩ	-9199
▁ⲟⲉⲓϣ	-9200
▁ⲟⲩⲉϩ	-9201
▁ⲟⲩⲛϯ	-9202
▁ⲡϣⲏⲛ	-9203
▁ⲡⲁⲕⲉ	-9204
▁ⲡⲃⲁⲗ	-9205
▁ⲡⲥⲁϩ	-9206
▁ⲡⲱϣⲥ	-9207
▁ⲣⲱϩⲧ	-9208
▁ⲥⲁϩⲉ	-9209
▁ⲧⲁϣⲉ	-9210
▁ⲧⲁⲉⲓ	-9211
▁ⲧⲃⲛⲏ	-9212
▁ⲯⲓⲧⲉ	-9213
▁ⲯⲩⲭⲏ	-9214
ⲁϩⲱⲱⲣ	-9215
ⲁⲃϩⲏⲧ	-9216
ⲁⲧⲣⲓⲁ	-9217
ⲃⲁϩⲥⲉ	-9218
ⲅⲉⲛⲏⲥ	-9219
ⲇⲁⲗⲓⲥ	-9220
ⲉⲓⲟⲟⲩ	-9221
ⲑⲁⲛⲓⲁ	-9222
ⲑⲩⲙⲓⲁ	-9223
ⲑⲱⲙⲁⲥ	-9224
ⲓⲥⲧⲟⲥ	-9225
ⲕⲁⲁⲧⲉ	-9226
ⲕⲁⲣⲓⲱ	-9227
ⲕⲁⲣⲱⲛ	-9228
ⲕⲁⲥⲕⲥ	-9229
ⲕⲟⲩⲕⲙ	-9230
ⲕⲟⲩⲟⲓ	-9231
ⲙⲁⲛⲟⲥ	-9232
ⲙⲉⲓⲟⲛ	-9233
ⲙⲟⲩⲕϩ	-9234
ⲛϣⲟⲣⲡ	-9235
ⲛⲉⲃⲟⲗ	-9236
ⲛⲉⲥⲟⲩ	-9237
ⲛⲟⲩⲉⲙ	-9238
ⲟⲣⲙⲉⲥ	-9239
ⲟⲧⲙⲟⲩ	-9240
ⲟⲩⲟⲙⲥ	-9241
ⲟⲩⲱⲧⲃ	-9242
ⲡⲁϭⲥⲉ	-9243
ⲡⲁⲛⲧⲁ	-9244
ⲡⲁⲣⲓⲥ	-9245
ⲡⲓⲛⲁⲝ	-9246
ⲡⲟⲣϫϥ	-9247
ⲣⲉⲱⲙⲁ	-9248
ⲣⲟⲟⲩⲉ	-9249
ⲣⲟⲭⲟⲥ	-9250
ⲣⲣⲱⲙⲉ	-9251
ⲥⲁⲗⲙⲁ	-9252
ⲥⲁⲣⲣⲁ	-9253
ⲥⲏⲇⲱⲑ	-9254
ⲥⲟⲧⲟⲩ	-9255
ⲥⲧⲙⲏⲧ	-9256
ⲧⲉⲓⲙⲉ	-9257
ⲧⲉⲛⲥⲉ	-9258
ⲧⲉⲥⲃⲱ	-9259
ⲧⲕⲟⲩⲓ	-9260
ⲧⲟⲟⲧⲥ	-9261
ⲧⲟⲩⲱⲧ	-9262
ⲧⲩⲡⲟⲥ	-9263
ⲩⲛⲁⲅⲱ	-9264
ⲩⲥⲟⲡⲥ	-9265
ⲯⲁⲅⲏⲥ	-9266
ϫⲁϩⲙⲟⲩ	-9267
ϭⲓⲛϭⲱⲣ	-9268
▁ϣⲁϥⲉⲓ	-9269
▁ϣⲁⲛⲧⲕ	-9270
▁ϥⲥⲟⲧⲡ	-9271
▁ϩⲁϩⲧⲛ	-9272
▁ϩⲓϫⲱⲕ	-9273
▁ϩⲓⲉⲓⲃ	-9274
▁ϩⲓⲏⲣⲡ	-9275
▁ϩⲓⲛⲉϥ	-9276
▁ϩⲓⲡⲉⲥ	-9277
▁ϩⲙⲡⲕⲉ	-9278
▁ϩⲛⲅⲉⲑ	-9279
▁ϫⲉⲁϥϯ	-9280
▁ϫⲉⲁϥⲣ	-9281
▁ϫⲉⲛⲟⲩ	-9282
▁ϫⲉⲟⲩⲥ	-9283
▁ϫⲉⲧⲉⲛ	-9284
▁ⲁϥϫⲓⲧ	-9285
▁ⲁϥⲁⲁϥ	-9286
▁ⲁϥⲁⲣⲭ	-9287
▁ⲁⲛⲃⲱⲕ	-9288
▁ⲁⲟⲩⲱⲛ	-9289
▁ⲁⲡⲣⲣⲟ	-9290
▁ⲁⲣⲓⲣⲉ	-9291
▁ⲃⲁⲣⲁⲕ	-9292
▁ⲃⲁⲣⲛⲏ	-9293
▁ⲉϥⲟⲃⲉ	-9294
▁ⲉϩⲣⲁⲩ	-9295
▁ⲉϫⲛⲓⲱ	-9296
▁ⲉⲁϥϫⲓ	-9297
▁ⲉⲁϥⲉⲓ	-9298
▁ⲉⲉⲓⲛⲁ	-9299
▁ⲉⲓⲥⲟⲩ	-9300
▁ⲉⲕⲁⲁⲩ	-9301
▁ⲉⲕⲛⲁϯ	-9302
▁ⲉⲕⲱⲧⲉ	-9303
▁ⲉⲙⲉⲣⲉ	-9304
▁ⲉⲙⲟⲟⲩ	-9305
▁ⲉⲡϩⲱⲃ	-9306
▁ⲉⲡⲛⲟϭ	-9307
▁ⲉⲣϩⲱⲃ	-9308
▁ⲉⲧϩⲉⲛ	-9309
▁ⲉⲧⲁϣⲉ	-9310
▁ⲉⲧⲁⲗⲉ	-9311
▁ⲉⲧⲉⲛϥ	-9312
▁ⲉⲧⲉⲛⲧ	-9313
▁ⲉⲧⲉⲡⲉ	-9314
▁ⲉⲧⲟⲟⲧ	-9315
▁ⲉⲧⲟⲣϫ	-9316
▁ⲉⲧⲟⲩⲉ	-9317
▁ⲉⲩϩⲏⲗ	-9318
▁ⲉⲩϩⲏⲩ	-9319
▁ⲉⲩⲙⲏⲣ	-9320
▁ⲉⲩⲛⲁⲙ	-9321
▁ⲉⲩⲟⲣϫ	-9322
▁ⲉⲩⲥⲉⲓ	-9323
▁ⲉⲩⲥⲱϣ	-9324
▁ⲉⲩⲧⲱⲛ	-9325
▁ⲓⲟⲩⲇⲁ	-9326
▁ⲙⲙⲁⲥⲉ	-9327
▁ⲙⲛⲛⲕⲁ	-9328
▁ⲙⲛⲡⲛⲁ	-9329
▁ⲙⲛⲧⲛⲁ	-9330
▁ⲙⲟⲉⲓⲧ	-9331
▁ⲙⲡⲉⲧϥ	-9332
▁ⲙⲡⲩⲗⲏ	-9333
▁ⲛϥⲱⲛϩ	-9334
▁ⲛϩⲟⲩⲉ	-9335
▁ⲛϫⲏϭⲉ	-9336
▁ⲛϭⲓⲕⲉ	-9337
▁ⲛϯⲛⲁϯ	-9338
▁ⲛⲁϩⲧⲉ	-9339
▁ⲛⲁⲁⲁⲩ	-9340
▁ⲛⲁⲥⲏⲣ	-9341
▁ⲛⲉϣⲁϥ	-9342
▁ⲛⲉⲕⲛⲁ	-9343
▁ⲛⲉⲧⲉⲛ	-9344
▁ⲛⲕⲙⲧⲟ	-9345
▁ⲛⲛⲉⲓⲁ	-9346
▁ⲛⲛⲉⲕⲣ	-9347
▁ⲛⲛⲉⲟⲩ	-9348
▁ⲛⲛⲉⲧⲟ	-9349
▁ⲛⲛⲧⲟϣ	-9350
▁ⲛⲟⲩϣⲉ	-9351
▁ⲛⲥⲓⲃⲧ	-9352
▁ⲛⲥⲓⲕⲉ	-9353
▁ⲛⲧⲁϥⲓ	-9354
▁ⲛⲧⲁⲓⲟ	-9355
▁ⲛⲧⲃⲛⲏ	-9356
▁ⲛⲧⲉⲓⲥ	-9357
▁ⲛⲧⲉⲕⲁ	-9358
▁ⲛⲧⲛⲧⲙ	-9359
▁ⲟⲩⲗⲁⲥ	-9360
▁ⲟⲩⲛⲟϥ	-9361
▁ⲡϣⲙⲙⲟ	-9362
▁ⲡϩⲏⲃⲥ	-9363
▁ⲡϫⲟⲉⲓ	-9364
▁ⲡⲉϥⲙⲁ	-9365
▁ⲡⲉⲧⲕⲱ	-9366
▁ⲡⲓⲉⲣⲟ	-9367
▁ⲣϣⲟⲣⲡ	-9368
▁ⲥⲙⲟⲛⲧ	-9369
▁ⲧⲁⲛⲁⲩ	-9370
▁ⲧⲉⲕⲙⲉ	-9371
▁ⲧⲉⲛⲛⲁ	-9372
▁ⲧⲉⲩϣⲏ	-9373
▁ⲧⲟⲟⲧⲕ	-9374
ⲁⲣⲉⲥⲕⲉ	-9375
ⲁⲣⲭⲓⲙⲁ	-9376
ⲉⲫⲣⲁⲓⲙ	-9377
ⲑⲃⲃⲓⲟⲥ	-9378
ⲕⲁⲓⲣⲟⲥ	-9379
ⲕⲉⲡⲁⲍⲉ	-9380
ⲙⲉⲥⲧⲱⲥ	-9381
ⲛϫⲟⲉⲓⲥ	-9382
ⲛⲉⲣⲱⲟⲩ	-9383
ⲛⲟⲉⲙⲓⲛ	-9384
ⲟⲗⲉⲙⲉⲓ	-9385
ⲟⲩⲉⲟⲟⲩ	-9386
ⲟⲩⲥⲟⲩⲛ	-9387
ⲟⲩⲥⲱⲧⲙ	-9388
ⲡⲁⲗⲁⲟⲥ	-9389
ⲡⲁⲩⲗⲟⲥ	-9390
ⲡⲣⲁⲓⲧⲱ	-9391
ⲣⲁⲃⲃⲁⲥ	-9392
ⲣⲁⲡⲉⲍⲁ	-9393
ⲥⲟⲟⲩϩⲉ	-9394
ⲧⲁϩⲙⲟⲩ	-9395
ⲧⲉⲗⲓⲟⲥ	-9396
ⲩⲣⲓⲁⲕⲏ	-9397
ⲭⲁⲣⲧⲏⲥ	-9398
ϩⲓⲧⲟⲟⲧϥ	-9399
ϫⲁⲓⲃⲉⲕⲉ	-9400
▁ϥⲛⲁⲃⲱⲕ	-9401
▁ϩⲓⲧⲛⲛⲁ	-9402
▁ϩⲓⲱⲱⲧⲉ	-9403
▁ϩⲙⲡϩⲱⲃ	-9404
▁ϩⲙⲡⲛⲉϩ	-9405
▁ϩⲙⲡⲱϩⲥ	-9406
▁ϩⲛϣⲏⲣⲉ	-9407
▁ϩⲛⲛⲉⲙⲁ	-9408
▁ϩⲛⲣⲱⲙⲉ	-9409
▁ϫⲉⲙⲡⲉϥ	-9410
▁ϫⲉⲙⲡⲣⲣ	-9411
▁ϫⲓⲛⲡⲉⲩ	-9412
▁ϫⲓⲛⲧⲉϥ	-9413
▁ⲁϥⲕⲱⲧⲉ	-9414
▁ⲁϥⲟⲩⲱϣ	-9415
▁ⲁϥⲣϩⲱⲃ	-9416
▁ⲁϥⲣⲱϩⲧ	-9417
▁ⲁⲓϣⲓⲛⲉ	-9418
▁ⲁⲓⲉⲓⲛⲉ	-9419
▁ⲁⲓⲉⲓⲣⲉ	-9420
▁ⲁⲓⲙⲉⲣⲉ	-9421
▁ⲁⲕϣⲁϫⲉ	-9422
▁ⲁⲛⲁⲃⲁⲗ	-9423
▁ⲁⲡⲁⲃⲁⲗ	-9424
▁ⲁⲣⲓⲥⲟⲩ	-9425
▁ⲁⲩϣⲗⲏⲗ	-9426
▁ⲁⲩϫⲓⲧⲥ	-9427
▁ⲁⲩⲡⲱⲣϣ	-9428
▁ⲉϥϩⲟⲗϭ	-9429
▁ⲉϩⲉⲛⲙⲁ	-9430
▁ⲉϫⲛⲛⲉⲛ	-9431
▁ⲉⲅⲁⲃⲁⲁ	-9432
▁ⲉⲓⲁⲕⲱⲃ	-9433
▁ⲉⲓⲉⲓⲣⲉ	-9434
▁ⲉⲛϣⲟⲟⲡ	-9435
▁ⲉⲛⲁϭⲓϫ	-9436
▁ⲉⲛⲧⲁϥϯ	-9437
▁ⲉⲛⲧⲁⲩⲣ	-9438
▁ⲉⲟⲩϫⲁⲓ	-9439
▁ⲉⲟⲩⲟⲙϥ	-9440
▁ⲉⲡⲉⲥⲙⲁ	-9441
▁ⲉⲡⲙⲟⲟⲩ	-9442
▁ⲉⲣϩⲟⲧⲉ	-9443
▁ⲉⲣⲉⲟⲩⲁ	-9444
▁ⲉⲣⲉⲡⲁⲓ	-9445
▁ⲉⲣⲉⲡⲉⲩ	-9446
▁ⲉⲥⲛⲁϣⲧ	-9447
▁ⲉⲥⲣⲓⲙⲉ	-9448
▁ⲉⲥⲱⲟⲩϩ	-9449
▁ⲉⲧϩⲟⲗϭ	-9450
▁ⲉⲧϭⲱϣⲧ	-9451
▁ⲉⲧⲣⲉⲟⲩ	-9452
▁ⲉⲧⲣⲉⲩⲉ	-9453
▁ⲉⲩϣⲙϣⲉ	-9454
▁ⲉⲩϩⲏⲕⲉ	-9455
▁ⲉⲩⲙⲟⲕϩ	-9456
▁ⲉⲩⲥⲙⲟⲩ	-9457
▁ⲙⲛϣⲙⲧⲉ	-9458
▁ⲙⲛⲛⲥⲱⲕ	-9459
▁ⲙⲡⲁⲛⲁϣ	-9460
▁ⲙⲡⲉⲕⲙⲁ	-9461
▁ⲙⲡⲉⲙⲛⲧ	-9462
▁ⲙⲡⲉⲣⲡⲉ	-9463
▁ⲙⲡⲉⲧϫⲓ	-9464
▁ⲙⲡⲣⲕⲧⲉ	-9465
▁ⲛϥⲥⲱⲧⲙ	-9466
▁ⲛϩⲉⲛⲙⲁ	-9467
▁ⲛϩⲓⲉⲓⲃ	-9468
▁ⲛϩⲟⲉⲓⲙ	-9469
▁ⲛϩⲣⲏϣⲉ	-9470
▁ⲛϩⲣⲟⲟⲩ	-9471
▁ⲛϭⲓⲛⲟⲩ	-9472
▁ⲛϭⲟⲣϭⲥ	-9473
▁ⲛⲁϣⲕⲁⲕ	-9474
▁ⲛⲁϥⲱⲧⲉ	-9475
▁ⲛⲁϩⲣⲟⲕ	-9476
▁ⲛⲁϫⲉⲛⲁ	-9477
▁ⲛⲁϯⲟⲩⲱ	-9478
▁ⲛⲁⲙⲧⲟⲛ	-9479
▁ⲛⲃⲟⲭⲟⲣ	-9480
▁ⲛⲅⲧⲁⲁⲩ	-9481
▁ⲛⲇⲱⲣⲟⲛ	-9482
▁ⲛⲉϣⲏⲣⲉ	-9483
▁ⲛⲉⲓⲟⲧⲉ	-9484
▁ⲛⲉⲛⲧⲁⲕ	-9485
▁ⲛⲗⲟⲓϭⲉ	-9486
▁ⲛⲛⲃⲗⲗⲉ	-9487
▁ⲛⲛⲉϥϩⲉ	-9488
▁ⲛⲛⲟⲃϩⲉ	-9489
▁ⲛⲛⲟⲩⲱⲧ	-9490
▁ⲛⲟⲩϣⲁϩ	-9491
▁ⲛⲟⲩϩⲁⲧ	-9492
▁ⲛⲟⲩϩⲓⲏ	-9493
▁ⲛⲟⲩⲁϣⲏ	-9494
▁ⲛⲟⲩⲕⲃⲁ	-9495
▁ⲛⲟⲩⲱⲧϩ	-9496
▁ⲛⲥⲁⲙⲓⲧ	-9497
▁ⲛⲥⲁⲣⲣⲁ	-9498
▁ⲛⲧϩⲓⲙⲉ	-9499
▁ⲛⲧⲉⲛⲉϥ	-9500
▁ⲛⲧⲉⲛⲉⲧ	-9501
▁ⲛⲧⲉⲡⲉⲕ	-9502
▁ⲛⲧⲩⲣⲟⲥ	-9503
▁ⲟⲩⲁϣⲟⲩ	-9504
▁ⲟⲩⲟⲉⲓⲕ	-9505
▁ⲟⲩⲟⲙⲟⲩ	-9506
▁ⲟⲩⲡⲏⲅⲏ	-9507
▁ⲡⲉⲕⲃⲁⲗ	-9508
▁ⲡⲉⲧϣⲱⲡ	-9509
▁ⲡⲉⲧⲕⲛⲁ	-9510
▁ⲡⲙⲛⲧⲣⲉ	-9511
▁ⲡⲥⲉⲉⲡⲉ	-9512
▁ⲥⲉⲛⲏⲟⲩ	-9513
▁ⲧⲅⲉⲛⲉⲁ	-9514
▁ⲧⲟⲩⲛⲉⲥ	-9515
▁ⲧⲡⲟⲣⲛⲏ	-9516
ⲁⲃⲉⲛⲛⲏⲣ	-9517
ⲅⲇⲁⲗⲏⲛⲏ	-9518
ⲑⲃⲃⲓⲟⲟⲩ	-9519
ⲕⲟⲓⲛⲱⲛⲓ	-9520
ⲙⲉⲣⲓⲧⲟⲩ	-9521
ⲛⲉϥϣⲟⲟⲡ	-9522
ⲛⲉⲣⲅⲉⲓⲁ	-9523
ⲟⲩⲟϣϥⲟⲩ	-9524
ⲡⲉⲧⲙⲙⲁⲩ	-9525
ⲥⲁⲛⲟⲩϣϥ	-9526
ⲧⲉⲅⲣⲁⲫⲏ	-9527
ⲧⲉⲫⲁⲛⲟⲥ	-9528
ϥⲓⲡⲣⲟⲟⲩϣ	-9529
ϩⲣⲟⲩⲃⲃⲁⲓ	-9530
▁ϣⲁⲛⲧⲉⲧⲛ	-9531
▁ϣⲁⲣⲉϩⲉⲛ	-9532
▁ϥⲛⲁϫⲓⲥⲉ	-9533
▁ϩⲉⲛϣⲁϫⲉ	-9534
▁ϩⲉⲛⲕⲟⲩⲓ	-9535
▁ϩⲓϩⲃⲟⲩⲣ	-9536
▁ϩⲙⲡⲉⲟⲟⲩ	-9537
▁ϩⲛⲛⲧⲟⲟⲩ	-9538
▁ϩⲛⲧⲟⲣⲅⲏ	-9539
▁ϫⲉⲁⲓⲛⲁⲩ	-9540
▁ϫⲉⲛⲟⲩϫⲉ	-9541
▁ϫⲉⲟⲩⲁϩⲕ	-9542
▁ϯϣⲡϩⲙⲟⲧ	-9543
▁ϯⲛⲁⲟⲩⲱⲛ	-9544
▁ϯⲛⲁⲧⲁⲕⲟ	-9545
▁ϯⲛⲁⲧⲣⲉⲩ	-9546
▁ⲁϥⲧⲁϫⲣⲉ	-9547
▁ⲁϥⲧⲁϫⲣⲟ	-9548
▁ⲁϩⲉⲣⲁⲧⲕ	-9549
▁ⲁⲙⲏⲉⲓⲧⲛ	-9550
▁ⲁⲩϥⲓⲧⲟⲩ	-9551
▁ⲁⲩⲛⲟⲩϫⲉ	-9552
▁ⲁⲩⲡⲗⲁⲛⲁ	-9553
▁ⲁⲩⲥⲟⲩⲱϩ	-9554
▁ⲉϥⲙⲟⲟⲛⲉ	-9555
▁ⲉϥⲛⲁⲃⲱⲕ	-9556
▁ⲉϥⲛⲕⲟⲧⲕ	-9557
▁ⲉϫⲛⲛⲉⲧⲛ	-9558
▁ⲉⲓⲇⲱⲗⲟⲛ	-9559
▁ⲉⲕⲛⲁϩⲧⲉ	-9560
▁ⲉⲛⲧⲁϥⲉⲓ	-9561
▁ⲉⲡⲉϥⲥⲟⲛ	-9562
▁ⲉⲡⲉⲓⲛⲁⲩ	-9563
▁ⲉⲡⲓⲧⲓⲙⲁ	-9564
▁ⲉⲣϣⲁⲛⲧⲉ	-9565
▁ⲉⲧⲃⲉⲧⲉⲕ	-9566
▁ⲉⲧⲉϥⲥⲙⲏ	-9567
▁ⲉⲧⲉⲣⲉⲡⲉ	-9568
▁ⲉⲧⲉⲧⲛⲧⲙ	-9569
▁ⲉⲧⲙⲥⲱⲧⲙ	-9570
▁ⲉⲧⲟⲩⲛⲉⲥ	-9571
▁ⲉⲧⲧⲁⲡⲣⲟ	-9572
▁ⲉⲩⲑⲩⲥⲓⲁ	-9573
▁ⲉⲭⲉⲃⲣⲱⲛ	-9574
▁ⲕⲁⲧⲁⲡⲉⲩ	-9575
▁ⲙⲁⲣⲉϥⲉⲓ	-9576
▁ⲙⲁⲣⲉⲛⲉⲕ	-9577
▁ⲙⲙⲁⲩⲁⲁⲧ	-9578
▁ⲙⲛⲛⲉⲥⲕⲉ	-9579
▁ⲙⲛⲛⲉⲧⲛⲁ	-9580
▁ⲙⲛⲟⲩϩⲁⲡ	-9581
▁ⲙⲛⲧⲁϥⲧⲉ	-9582
▁ⲙⲛⲧⲉⲥⲃⲱ	-9583
▁ⲙⲡϣⲟⲉⲓϣ	-9584
▁ⲙⲡⲁⲛⲟⲃⲉ	-9585
▁ⲙⲡⲉϣⲗⲏⲗ	-9586
▁ⲙⲡⲉⲕⲱⲛϩ	-9587
▁ⲙⲡⲣⲟⲩⲱϣ	-9588
▁ⲛⲁⲛⲟⲙⲓⲁ	-9589
▁ⲛⲁⲟⲩϫⲁⲓ	-9590
▁ⲛⲁⲧϣⲏⲣⲉ	-9591
▁ⲛⲁⲧϣⲓⲡⲉ	-9592
▁ⲛⲁⲧⲥⲃⲃⲉ	-9593
▁ⲛⲅϭⲙϭⲟⲙ	-9594
▁ⲛⲉϥϯⲥⲃⲱ	-9595
▁ⲛⲉϩⲙⲟⲟⲥ	-9596
▁ⲛⲉⲛⲟⲭⲟⲥ	-9597
▁ⲛⲉⲛⲧⲟⲗⲏ	-9598
▁ⲛⲉⲥϣⲟⲟⲡ	-9599
▁ⲛⲉⲧⲟⲩⲛⲁ	-9600
▁ⲛⲕⲉⲕⲟⲩⲓ	-9601
▁ⲛⲗⲟⲓⲙⲟⲥ	-9602
▁ⲛⲙⲙⲁⲛϣⲁ	-9603
▁ⲛⲛⲁϩⲣⲁⲓ	-9604
▁ⲛⲛⲁⲕⲉⲉⲥ	-9605
▁ⲛⲛⲁⲛⲟⲃⲉ	-9606
▁ⲛⲛⲉϭⲟⲟϣ	-9607
▁ⲛⲛⲏⲣⲓⲁⲥ	-9608
▁ⲛⲟⲩⲉⲣⲏⲧ	-9609
▁ⲛⲥⲁⲙⲯⲱⲛ	-9610
▁ⲛⲥⲉⲟⲩⲱϩ	-9611
▁ⲛⲥⲉⲧⲙϩⲉ	-9612
▁ⲛⲥⲓⲥⲁⲣⲁ	-9613
▁ⲛⲧⲁⲉⲓⲟⲩ	-9614
▁ⲛⲧⲁⲕⲛⲁⲩ	-9615
▁ⲛⲧⲉⲛⲉⲧⲛ	-9616
▁ⲛⲧⲉⲣⲓⲉⲓ	-9617
▁ⲛⲧⲉⲧⲛϥⲓ	-9618
▁ⲛⲧⲉⲧⲛⲟⲩ	-9619
▁ⲛⲧⲧⲁⲡⲣⲟ	-9620
▁ⲟⲩϩⲙϩⲁⲗ	-9621
▁ⲟⲩⲙⲁⲉⲓⲛ	-9622
▁ⲟⲩⲛϣϭⲟⲙ	-9623
▁ⲡⲁⲥⲉⲃⲏⲥ	-9624
▁ⲡⲁⲧⲁϫⲣⲟ	-9625
▁ⲥⲉⲛⲁⲃⲱⲕ	-9626
▁ⲥⲉⲛⲁⲡⲱⲧ	-9627
▁ⲧⲁⲛⲁϣⲧⲉ	-9628
▁ⲧⲉⲣⲟⲙⲡⲉ	-9629
ⲅⲟⲇⲟⲗⲓⲁⲥ	-9630
ⲕⲁⲣⲓⲱⲧⲏⲥ	-9631
ⲙⲉϩϥⲧⲟⲟⲩ	-9632
ⲛⲁϣϭⲙϭⲟⲙ	-9633
ⲛⲉⲧⲙⲟⲟⲩⲧ	-9634
ⲛⲧⲁⲧⲥⲃⲃⲉ	-9635
ⲛⲧⲓⲗⲟⲅⲓⲁ	-9636
ⲡⲟⲗⲟⲅⲓⲍⲉ	-9637
ⲣⲙⲛϭⲟⲓⲗⲉ	-9638
ⲥⲧⲉⲣⲉⲱⲙⲁ	-9639
ⲧⲉⲓⲅⲉⲛⲉⲁ	-9640
ⲧⲉⲧⲛⲉⲓⲣⲉ	-9641
ⲩⲛⲁⲅⲱⲅⲟⲥ	-9642
.........	-9643
▁ϥⲛⲁⲕⲣⲓⲛⲉ	-9644
▁ϥⲛⲁⲧⲱⲟⲩⲛ	-9645
▁ϩⲁⲧⲉⲧⲛϩⲏ	-9646
▁ϩⲓϫⲛⲧⲁⲡⲉ	-9647
▁ϩⲙⲡϣⲟⲙⲛⲧ	-9648
▁ϩⲙⲡⲉϥⲗⲁⲥ	-9649
▁ϩⲙⲡⲉⲓⲕⲁϩ	-9650
▁ϩⲙⲡⲉⲕⲕⲁϩ	-9651
▁ϩⲙⲡⲟⲩϩⲏⲧ	-9652
▁ϩⲙⲡⲥⲟⲟⲩⲛ	-9653
▁ϩⲛⲛⲉⲕϭⲓϫ	-9654
▁ϩⲛⲛⲉⲩϩⲏⲧ	-9655
▁ϩⲛⲟⲩⲧⲃⲃⲟ	-9656
▁ϩⲛⲧⲁⲙⲏⲧⲉ	-9657
▁ϩⲛⲧⲥⲟⲫⲓⲁ	-9658
▁ϫⲉϣⲁⲧⲛⲁⲩ	-9659
▁ϫⲉϩⲛⲟⲩⲙⲉ	-9660
▁ϫⲉϯⲟⲩⲁⲁⲃ	-9661
▁ϫⲉⲁⲩϫⲟⲟⲥ	-9662
▁ϫⲉⲙⲡⲣⲧⲣⲉ	-9663
▁ϫⲉⲙⲱⲩⲥⲏⲥ	-9664
▁ϫⲉⲛⲧⲁⲕⲉⲓ	-9665
▁ϫⲉⲡⲉϣⲃⲏⲣ	-9666
▁ϯⲛⲁϩⲁⲣⲉϩ	-9667
▁ϯⲛⲁⲧⲁϫⲣⲉ	-9668
▁ϯⲛⲁⲧⲉⲗⲏⲗ	-9669
▁ⲁϥϫⲟⲟⲩⲥⲉ	-9670
▁ⲁϥⲛⲁϩⲙⲟⲩ	-9671
▁ⲁϥⲣⲡⲁϩⲣⲉ	-9672
▁ⲁⲡⲉϥⲉⲓⲱⲧ	-9673
▁ⲁⲩⲙⲟⲟⲩⲧϥ	-9674
▁ⲁⲩⲣϩⲙϩⲁⲗ	-9675
▁ⲃⲁⲣⲛⲁⲃⲁⲥ	-9676
▁ⲉϫⲙⲡⲉⲩϩⲟ	-9677
▁ⲉϯⲛⲁⲧⲁⲁϥ	-9678
▁ⲉⲕϣⲁⲛⲃⲱⲕ	-9679
▁ⲉⲛⲁⲅⲁⲑⲟⲛ	-9680
▁ⲉⲛⲧⲁϥⲙⲟⲩ	-9681
▁ⲉⲛⲧⲁϥⲱⲣⲕ	-9682
▁ⲉⲛⲧⲁⲓⲱⲣⲕ	-9683
▁ⲉⲡⲁⲅⲁⲑⲟⲛ	-9684
▁ⲉⲡⲉϥⲗⲁⲟⲥ	-9685
▁ⲉⲡⲓⲑⲩⲙⲉⲓ	-9686
▁ⲉⲣϣⲁⲛⲡⲉⲕ	-9687
▁ⲉⲥⲁⲙⲟⲩⲏⲗ	-9688
▁ⲉⲧⲉⲣⲉⲡⲉϥ	-9689
▁ⲉⲧⲉⲥϩⲓⲙⲉ	-9690
▁ⲉⲧⲛⲁⲥⲱⲧⲙ	-9691
▁ⲉⲧⲟⲟⲧⲁⲩⲱ	-9692
▁ⲉⲧⲣⲉⲩⲧⲁⲩ	-9693
▁ⲉⲩϩⲉⲑⲛⲟⲥ	-9694
▁ⲙⲙⲓⲛⲙⲙⲟⲛ	-9695
▁ⲙⲛⲛⲁⲁⲣⲱⲛ	-9696
▁ⲙⲛⲡⲁⲩⲗⲟⲥ	-9697
▁ⲙⲡⲃⲁⲁⲙⲡⲉ	-9698
▁ⲙⲡⲉϥⲃⲉⲕⲉ	-9699
▁ⲙⲡⲉϥⲥⲛⲟϥ	-9700
▁ⲙⲡⲉⲕϣⲃⲏⲣ	-9701
▁ⲙⲡⲉⲕϭⲱⲛⲧ	-9702
▁ⲙⲡⲉⲕⲥⲱⲙⲁ	-9703
▁ⲙⲡⲡⲩⲣⲅⲟⲥ	-9704
▁ⲛϭⲓϩⲟⲓⲛⲉ	-9705
▁ⲛⲁϣⲧⲟⲣⲧⲣ	-9706
▁ⲛⲉⲕϩⲙϩⲁⲗ	-9707
▁ⲛⲉⲛⲧⲁⲩⲉⲓ	-9708
▁ⲛⲉⲧⲛⲉⲣⲏⲩ	-9709
▁ⲛⲉⲩⲡⲟⲗⲓⲥ	-9710
▁ⲛⲛϩⲁⲗⲁⲧⲉ	-9711
▁ⲛⲛⲉⲓϩⲟⲟⲩ	-9712
▁ⲛⲛⲉⲓⲣⲱⲙⲉ	-9713
▁ⲛⲛⲉⲧϣⲓⲛⲉ	-9714
▁ⲛⲛⲉⲧϩⲟⲟⲩ	-9715
▁ⲛⲛⲉⲧⲛⲃⲁⲗ	-9716
▁ⲛⲛⲧⲟⲩⲉⲓⲏ	-9717
▁ⲛⲟⲩϫⲱⲱⲙⲉ	-9718
▁ⲛⲟⲩⲟⲩϫⲁⲓ	-9719
▁ⲛⲟⲩⲡⲉⲧⲣⲁ	-9720
▁ⲛⲣⲉϥϣⲙϣⲉ	-9721
▁ⲛⲣⲉϥϭⲱⲛⲧ	-9722
▁ⲛⲧⲁϥϫⲟⲟⲩ	-9723
▁ⲛⲧⲁⲧⲁⲡⲣⲟ	-9724
▁ⲛⲧⲉϥϣⲧⲏⲛ	-9725
▁ⲟⲩⲉⲓⲣⲏⲛⲏ	-9726
▁ⲡⲉϥⲛⲟⲩⲧⲉ	-9727
▁ⲡⲉⲧⲓⲉⲓⲣⲉ	-9728
▁ⲡⲗⲉⲩⲓⲧⲏⲥ	-9729
▁ⲡⲡⲟⲗⲉⲙⲟⲥ	-9730
▁ⲥⲉⲇⲉⲕⲓⲁⲥ	-9731
▁ⲥⲉⲛⲁⲟⲩⲱⲙ	-9732
▁ⲧⲉⲕϩⲙϩⲁⲗ	-9733
▁ⲧⲉⲧⲛⲁⲛⲁⲩ	-9734
ⲑⲉⲥⲥⲁⲗⲟⲛⲓ	-9735
ⲕⲁⲧⲁⲗⲁⲗⲉⲓ	-9736
ⲛⲁⲟⲩⲉⲣⲏⲧⲉ	-9737
ⲛⲉϩⲙⲧⲏⲩⲧⲛ	-9738
ⲡⲁⲣⲁⲛⲟⲙⲟⲥ	-9739
ⲡⲣⲟⲫⲏⲧⲉⲓⲁ	-9740
▁ϩⲓⲧⲙⲡⲉⲓⲱⲧ	-9741
▁ϩⲓⲧⲛⲫⲁⲣⲁⲱ	-9742
▁ϩⲙⲡⲉⲓϣⲁϫⲉ	-9743
▁ϩⲛⲛⲉϥϣⲁϫⲉ	-9744
▁ϩⲛⲟⲩⲟⲩⲣⲟⲧ	-9745
▁ϩⲛⲟⲩⲣⲁⲥⲟⲩ	-9746
▁ϩⲛⲟⲩⲥⲟⲫⲓⲁ	-9747
▁ϫⲉⲁⲙⲏⲉⲓⲧⲛ	-9748
▁ϫⲉⲉⲣϣⲁⲛⲟⲩ	-9749
▁ϫⲉⲉⲧⲃⲉⲡⲁⲓ	-9750
▁ϫⲉⲥⲁⲙⲟⲩⲏⲗ	-9751
▁ϫⲓⲛϩⲧⲟⲟⲩⲉ	-9752
▁ⲁⲓⲱϩⲁⲛⲛⲏⲥ	-9753
▁ⲁⲡⲉⲡⲛⲉⲩⲙⲁ	-9754
▁ⲁⲧⲉⲧⲛⲉⲓⲣⲉ	-9755
▁ⲁⲩⲙⲟⲟⲩⲧⲟⲩ	-9756
▁ⲉϥϣⲁⲛϫⲟⲟⲥ	-9757
▁ⲉϫⲛⲟⲩⲧⲟⲟⲩ	-9758
▁ⲉⲕⲁⲓⲥⲁⲣⲓⲁ	-9759
▁ⲉⲙⲉⲩⲙⲟⲟϣⲉ	-9760
▁ⲉⲛⲉⲧⲙⲟⲟⲩⲧ	-9761
▁ⲉⲛⲧⲁⲥϣⲱⲡⲉ	-9762
▁ⲉⲛⲧⲁⲧⲉⲧⲛⲁ	-9763
▁ⲉⲣⲉⲡⲟⲩⲏⲏⲃ	-9764
▁ⲉⲧⲁϩⲉⲣⲁⲧϥ	-9765
▁ⲉⲧⲃⲉⲡⲛⲟⲃⲉ	-9766
▁ⲉⲧⲉⲟⲩⲛⲧⲁϥ	-9767
▁ⲉⲧⲉⲧⲛϭⲱϣⲧ	-9768
▁ⲉⲧⲣⲉⲕⲉⲓⲣⲉ	-9769
▁ⲉⲩϣⲁⲛϫⲟⲟⲥ	-9770
▁ⲉⲩⲛⲁⲙⲟⲩⲧⲉ	-9771
▁ⲉⲩⲡⲉⲓⲣⲁⲍⲉ	-9772
▁ⲉⲩⲡⲟⲗⲉⲙⲟⲥ	-9773
▁ⲙⲁⲣⲉⲥϣⲱⲡⲉ	-9774
▁ⲙⲛⲅⲟⲙⲟⲣⲣⲁ	-9775
▁ⲙⲛⲛϩⲁⲗⲁⲧⲉ	-9776
▁ⲙⲛⲟⲩϩⲣⲟⲟⲩ	-9777
▁ⲙⲛⲡⲉϩⲓⲉⲓⲃ	-9778
▁ⲙⲛⲡⲉⲕϣⲏⲣⲉ	-9779
▁ⲙⲛⲧⲉⲕⲙⲁⲁⲩ	-9780
▁ⲙⲛⲧⲉⲥϩⲓⲙⲉ	-9781
▁ⲙⲡϩⲓⲉⲣⲉⲩⲥ	-9782
▁ⲙⲡⲉⲕⲙⲁⲁϫⲉ	-9783
▁ⲙⲡⲣⲡⲙⲉⲉⲩⲉ	-9784
▁ⲛϭⲓⲓⲟⲩⲇⲁⲥ	-9785
▁ⲛϯⲛⲁⲣϩⲟⲧⲉ	-9786
▁ⲛⲉⲡⲓⲑⲩⲙⲓⲁ	-9787
▁ⲛⲛⲉϥϩⲁⲣⲙⲁ	-9788
▁ⲛⲛⲉϥⲉⲓⲟⲧⲉ	-9789
▁ⲛⲛⲉⲕϭⲟⲗⲡⲥ	-9790
▁ⲛⲛⲉⲕⲉϩⲟⲟⲩ	-9791
▁ⲛⲛⲉⲧⲛⲥⲛⲏⲩ	-9792
▁ⲛⲛⲉⲧⲛⲯⲩⲭⲏ	-9793
▁ⲛⲛⲟⲣⲫⲁⲛⲟⲥ	-9794
▁ⲛⲟⲩⲉⲛⲧⲟⲗⲏ	-9795
▁ⲛⲟⲩⲕⲁⲣⲡⲟⲥ	-9796
▁ⲛⲟⲩⲕⲗⲟⲟⲗⲉ	-9797
▁ⲛⲟⲩⲥⲡⲉⲣⲙⲁ	-9798
▁ⲛⲥⲁⲧⲣⲁⲡⲏⲥ	-9799
▁ⲛⲧⲁⲩⲥⲃⲧⲱⲧ	-9800
▁ⲛⲧⲉϥⲧⲁⲡⲣⲟ	-9801
▁ⲛⲧⲉⲅⲁⲗⲁⲁⲇ	-9802
▁ⲛⲧⲉⲣⲟⲩϫⲱⲕ	-9803
▁ⲛⲧⲉⲧⲙⲗⲁⲁⲩ	-9804
▁ⲛⲧⲉⲧⲛⲥⲙⲟⲩ	-9805
▁ⲛⲧⲥⲁⲙⲁⲣⲓⲁ	-9806
▁ⲡⲉⲧⲉⲟⲩⲛⲧϥ	-9807
▁ⲡⲉⲧⲛⲁϫⲟⲟⲥ	-9808
▁ⲡⲉⲧⲛⲁⲟⲩⲱϣ	-9809
▁ⲡⲉⲩⲫⲣⲁⲧⲏⲥ	-9810
▁ⲡⲡⲉⲧⲟⲩⲁⲁⲃ	-9811
▁ⲥⲉⲛⲁⲧⲉⲗⲏⲗ	-9812
▁ⲧϩⲩⲡⲟⲙⲟⲛⲏ	-9813
▁ⲧⲙⲛⲧⲙⲛⲧⲣⲉ	-9814
ⲙⲛⲧⲉⲩⲥⲉⲃⲏⲥ	-9815
▁ϩⲓⲧⲛⲡϫⲟⲉⲓⲥ	-9816
▁ϩⲛⲇⲁⲙⲁⲥⲕⲟⲥ	-9817
▁ϩⲛⲛⲉⲕϩⲃⲏⲩⲉ	-9818
▁ϩⲛⲛⲉⲧⲟⲩⲁⲁⲃ	-9819
▁ϩⲛⲟⲩϣⲧⲟⲣⲧⲣ	-9820
▁ϩⲛⲧⲃⲁⲃⲩⲗⲱⲛ	-9821
▁ϩⲛⲧⲉⲑⲗⲓⲯⲓⲥ	-9822
▁ⲁϥⲁⲛⲁⲭⲱⲣⲉⲓ	-9823
▁ⲉⲛⲉϥϩⲓⲟⲟⲩⲉ	-9824
▁ⲉⲛⲉⲧⲛⲁϣⲱⲡⲉ	-9825
▁ⲉⲛⲧⲁⲡⲁⲉⲓⲱⲧ	-9826
▁ⲉⲣⲉϣⲁⲛⲧⲟⲩⲁ	-9827
▁ⲉⲧⲉⲧⲛⲉⲉⲓⲙⲉ	-9828
▁ⲉⲧⲣⲉⲩϩⲁⲣⲉϩ	-9829
▁ⲙⲁⲣⲟⲩⲟⲩⲱⲛϩ	-9830
▁ⲙⲉⲙⲫⲓⲃⲟⲥⲑⲉ	-9831
▁ⲙⲛϩⲉⲛⲑⲩⲥⲓⲁ	-9832
▁ⲙⲛⲛⲉⲑⲏⲣⲓⲟⲛ	-9833
▁ⲙⲛⲛⲉⲧⲛϣⲏⲣⲉ	-9834
▁ⲙⲛⲛⲥⲁϣⲟⲙⲛⲧ	-9835
▁ⲙⲛⲡⲕⲉⲥⲉⲉⲡⲉ	-9836
▁ⲙⲛⲧⲑⲁⲗⲁⲥⲥⲁ	-9837
▁ⲙⲛⲧⲥⲁⲙⲁⲣⲓⲁ	-9838
▁ⲙⲡⲉϥⲕⲁⲣⲡⲟⲥ	-9839
▁ⲙⲡⲉⲓⲟⲩⲟⲉⲓϣ	-9840
▁ⲙⲡⲉⲛⲧⲁϥⲙⲟⲩ	-9841
▁ⲙⲡⲉⲧⲛⲁⲛⲟⲩϥ	-9842
▁ⲛϭⲓϩⲏⲣⲱⲇⲏⲥ	-9843
▁ⲛϭⲓⲛⲉⲧϣⲓⲛⲉ	-9844
▁ⲛⲉⲓⲣⲏⲛⲓⲕⲟⲛ	-9845
▁ⲛⲍⲉⲃⲉⲇⲁⲓⲟⲥ	-9846
▁ⲛⲍⲟⲣⲟⲃⲁⲃⲉⲗ	-9847
▁ⲛⲙⲓⲱϩⲁⲛⲛⲏⲥ	-9848
▁ⲛⲛⲁⲟⲩⲉⲣⲏⲧⲉ	-9849
▁ⲛⲛⲉϥⲥⲡⲟⲧⲟⲩ	-9850
▁ⲛⲛⲉⲧⲉⲙⲉϣϣⲉ	-9851
▁ⲛⲧⲉⲡⲉⲧⲛϩⲏⲧ	-9852
▁ⲛⲧⲉⲧⲛⲧⲉⲗⲏⲗ	-9853
▁ⲛⲧⲙⲉⲧⲁⲛⲟⲓⲁ	-9854
▁ⲡⲉϫⲉⲙⲱⲩⲥⲏⲥ	-9855
▁ⲡⲉⲛⲧⲁϥⲉⲓⲣⲉ	-9856
▁ⲡⲉⲧⲡⲓⲥⲧⲉⲩⲉ	-9857
▁ⲧⲟⲓⲕⲟⲩⲙⲉⲛⲏ	-9858
ⲡⲉⲣⲓⲥⲡⲁⲥⲙⲟⲥ	-9859
▁ϩⲙⲡⲉⲓⲟⲩⲟⲉⲓϣ	-9860
▁ϩⲙⲡⲙⲉϩϣⲙⲟⲩⲛ	-9861
▁ϩⲛⲛⲕⲓⲛⲇⲩⲛⲟⲥ	-9862
▁ⲉⲕⲁⲫⲁⲣⲛⲁⲟⲩⲙ	-9863
▁ⲉⲛⲧⲁⲙⲱⲟⲩⲥⲏⲥ	-9864
▁ⲉⲡⲡⲉⲧⲛⲁⲛⲟⲩϥ	-9865
▁ⲕⲁⲧⲁⲛⲉϩⲃⲏⲩⲉ	-9866
▁ⲙⲙⲉⲗⲭⲓⲥⲉⲇⲉⲕ	-9867
▁ⲙⲛⲧⲥⲩⲛⲁⲅⲱⲅⲏ	-9868
▁ⲙⲡⲙⲩⲥⲧⲏⲣⲓⲟⲛ	-9869
▁ⲛⲁⲗⲗⲟⲫⲩⲗⲗⲟⲥ	-9870
▁ⲛⲛⲇⲁⲓⲙⲱⲛⲓⲟⲛ	-9871
▁ⲡⲉϫⲉⲓⲱⲛⲁⲑⲁⲛ	-9872
ⲣⲉϥϣⲙϣⲉⲛⲟⲩⲧⲉ	-9873
▁ⲛϭⲓⲟⲩⲁⲅⲅⲉⲗⲟⲥ	-9874
▁ⲛⲛⲉϥⲡⲉⲧⲟⲩⲁⲁⲃ	-9875
▁ⲛⲛⲉⲕⲇⲓⲕⲁⲓⲱⲙⲁ	-9876
▁ⲛⲛⲉⲧⲛⲟⲩⲉⲣⲏⲧⲉ	-9877
▁ⲛⲧⲁⲓⲭⲙⲁⲗⲱⲥⲓⲁ	-9878
▁ⲡⲉϫⲉⲓⲱϩⲁⲛⲛⲏⲥ	-9879
▁ⲉⲧϩⲙⲡⲉⲭⲣⲓⲥⲧⲟⲥ	-9880
▁ⲛϭⲓⲡⲉⲛⲧⲁⲩϫⲟⲟϥ	-9881
▁ⲡⲉⲡⲣⲉⲥⲃⲩⲧⲉⲣⲟⲥ	-9882
▁ϩⲓⲧⲙⲡⲉⲡⲣⲟⲫⲏⲧⲏⲥ	-9883
▁ⲡⲉⲑⲩⲥⲓⲁⲥⲧⲏⲣⲓⲟⲛ	-9884
▁ⲡⲉⲧⲛⲁⲡⲁⲣⲁⲇⲓⲇⲟⲩ	-9885
ⲅⲭ	-9886
ⲕⲧ	-9887
ⲗⲃ	-9888
ⲣⲥ	-9889
ⲧⲧ	-9890
ⲩⲯ	-9891
ⲭⲩ	-9892
ⲱϭ	-9893
ⲱⲅ	-9894
ⲱⲱ	-9895
ϣⲉϥ	-9896
ϣⲓⲏ	-9897
ϩⲟⲃ	-9898
ϩⲧⲙ	-9899
ϯⲗⲉ	-9900
▁ϣⲡ	-9901
▁ϫⲡ	-9902
▁ⲇⲓ	-9903
▁ⲧⲣ	-9904
▁ⲭⲁ	-9905
ⲁϩⲟ	-9906
ⲃϣⲕ	-9907
ⲃⲛⲧ	-9908
ⲅⲉⲇ	-9909
ⲅⲕⲁ	-9910
ⲅⲛⲱ	-9911
ⲏⲩⲧ	-9912
ⲓϩⲉ	-9913
ⲓⲁⲑ	-9914
ⲕⲓⲁ	-9915
ⲛⲉϣ	-9916
ⲛⲉⲍ	-9917
ⲡⲏⲗ	-9918
ⲡⲣϫ	-9919
ⲡⲱⲛ	-9920
ⲣⲁⲫ	-9921
ⲣⲏϭ	-9922
ⲣⲏⲃ	-9923
ⲥⲛⲁ	-9924
ⲥⲥⲉ	-9925
ⲧⲉⲙ	-9926
ⲧⲙⲙ	-9927
ⲧⲧⲁ	-9928
ⲧⲱⲃ	-9929
ⲩϣⲉ	-9930
ⲭⲱⲑ	-9931
ⲱⲣϩ	-9932
ϣⲙⲛⲧ	-9933
ϣⲟϣⲧ	-9934
ϥⲟⲧϥ	-9935
ϩⲁⲉⲓ	-9936
ϩⲏⲧⲕ	-9937
ϩⲓϫⲙ	-9938
ϩⲓⲕⲁ	-9939
ϩⲗⲟϭ	-9940
ϩⲧⲟⲣ	-9941
ϩⲧⲱⲣ	-9942
ϫⲉⲥⲧ	-9943
ϫⲟⲉⲥ	-9944
ϭⲗⲱϭ	-9945
▁ϣⲏⲧ	-9946
▁ϥϫⲱ	-9947
▁ϩⲁⲛ	-9948
▁ϩⲏⲡ	-9949
▁ϩⲟⲃ	-9950
▁ϯϩⲓ	-9951
▁ⲁⲥⲕ	-9952
▁ⲁⲩⲛ	-9953
▁ⲅⲁⲇ	-9954
▁ⲉϩⲏ	-9955
▁ⲉⲃⲏ	-9956
▁ⲉⲕⲣ	-9957
▁ⲉⲛϯ	-9958
▁ⲉⲛⲓ	-9959
▁ⲉⲩϫ	-9960
▁ⲕⲱϩ	-9961
▁ⲙⲏⲛ	-9962
▁ⲙⲛⲙ	-9963
▁ⲙⲫⲟ	-9964
▁ⲛϥⲓ	-9965
▁ⲛϫⲁ	-9966
▁ⲛⲉϫ	-9967
▁ⲛⲕⲩ	-9968
▁ⲛⲣⲉ	-9969
▁ⲛⲣⲙ	-9970
▁ⲛⲥϯ	-9971
▁ⲛⲱⲅ	-9972
▁ⲡⲓⲁ	-9973
▁ⲡⲣⲙ	-9974
▁ⲡⲱⲕ	-9975
▁ⲡⲱⲛ	-9976
▁ⲣⲉϥ	-9977
▁ⲥⲙⲛ	-9978
▁ⲥⲟⲛ	-9979
▁ⲥⲱⲣ	-9980
▁ⲧⲉⲡ	-9981
ⲃⲃⲓⲱ	-9982
ⲅⲁⲛⲁ	-9983
ⲇⲉⲓⲥ	-9984
ⲏⲏⲛⲉ	-9985
ⲑⲉⲧⲓ	-9986
ⲓⲱϩⲉ	-9987
ⲕⲁⲗⲓ	-9988
ⲕⲉⲟⲥ	-9989
ⲕⲗⲏⲥ	-9990
ⲕⲱⲙⲏ	-9991
ⲕⲱⲣⲕ	-9992
ⲛⲁⲓⲥ	-9993
ⲛⲉϩϥ	-9994
ⲛⲟϩⲉ	-9995
ⲝⲓⲟⲩ	-9996
ⲟϣⲟⲩ	-9997
ⲟϥⲧⲉ	-9998
ⲟⲕⲟⲧ	-9999
ⲟⲧⲡϥ	-10000
ⲟⲩⲟϭ	-10001
ⲡⲟϣⲥ	-10002
ⲡⲟϩⲉ	-10003
ⲡⲟⲗⲓ	-10004
ⲡⲩⲅⲏ	-10005
ⲡⲱⲣⲕ	-10006
ⲣϣⲱⲛ	-10007
ⲣⲁⲃⲁ	-10008
ⲣⲟⲓⲁ	-10009
ⲣⲟⲩⲥ	-10010
ⲣⲧϩⲉ	-10011
ⲥⲁϩϥ	-10012
ⲥⲁⲙⲁ	-10013
ⲥⲁⲡⲉ	-10014
ⲧⲉⲙⲡ	-10015
ⲧⲏⲗⲏ	-10016
ⲧⲏⲟⲩ	-10017
ⲧⲓⲙⲏ	-10018
ⲧⲕⲛⲁ	-10019
ⲧⲕⲱⲧ	-10020
ⲧⲟϭⲥ	-10021
ⲧⲥⲉⲓ	-10022
ⲧⲥⲟϥ	-10023
ⲭⲉⲣⲉ	-10024
ϣⲁⲓⲣⲉ	-10025
ϣⲙⲏⲛⲉ	-10026
ϣⲧϩⲏⲧ	-10027
ϩⲟⲟⲗⲉ	-10028
ϩⲣⲏⲩⲉ	-10029
ϫⲁⲥⲧϥ	-10030
ϫⲁⲥⲧⲕ	-10031
ϭⲓⲛⲟⲩ	-10032
ϭⲟⲣⲧⲉ	-10033
▁ϣⲁϥϯ	-10034
▁ϩⲁⲣⲓ	-10035
▁ϩⲉⲛⲧ	-10036
▁ϩⲙⲡⲓ	-10037
▁ϩⲛⲛⲧ	-10038
▁ϫⲉⲁⲣ	-10039
▁ϫⲉⲕⲉ	-10040
▁ϫⲱϩⲙ	-10041
▁ϭⲃⲃⲉ	-10042
▁ⲁⲛⲉⲧ	-10043
▁ⲁⲛⲕⲱ	-10044
▁ⲁⲛⲛⲁ	-10045
▁ⲁⲡⲣⲏ	-10046
▁ⲉϣⲱⲡ	-10047
▁ⲉϥⲉⲣ	-10048
▁ⲉⲃⲱⲗ	-10049
▁ⲉⲓⲕⲏ	-10050
▁ⲉⲓⲕⲱ	-10051
▁ⲉⲕⲧⲉ	-10052
▁ⲉⲛϫⲱ	-10053
▁ⲉⲛⲏⲓ	-10054
▁ⲉⲛⲧⲉ	-10055
▁ⲉⲣⲏⲧ	-10056
▁ⲉⲧⲁⲛ	-10057
▁ⲉⲧⲧⲟ	-10058
▁ⲉⲩⲉϯ	-10059
▁ⲉⲩⲉⲓ	-10060
▁ⲉⲩⲕⲱ	-10061
▁ⲉⲩⲙⲟ	-10062
▁ⲏⲥⲁⲩ	-10063
▁ⲙⲕⲁϩ	-10064
▁ⲙⲙⲁⲣ	-10065
▁ⲙⲙⲗϩ	-10066
▁ⲙⲛⲓⲉ	-10067
▁ⲙⲡⲟⲗ	-10068
▁ⲙⲫⲏⲧ	-10069
▁ⲛϥϭⲱ	-10070
▁ⲛϥⲱϣ	-10071
▁ⲛϩⲉⲃ	-10072
▁ⲛϭⲣⲟ	-10073
▁ⲛⲁⲉⲣ	-10074
▁ⲛⲁⲕⲁ	-10075
▁ⲛⲁⲕⲱ	-10076
▁ⲛⲅⲉⲣ	-10077
▁ⲛⲉⲗⲓ	-10078
▁ⲛⲉⲧⲁ	-10079
▁ⲛⲉⲧⲓ	-10080
▁ⲛⲓⲁⲥ	-10081
▁ⲛⲕⲁϩ	-10082
▁ⲛⲗⲱⲧ	-10083
▁ⲛⲛⲁϩ	-10084
▁ⲛⲛⲣⲟ	-10085
▁ⲛⲣⲱⲕ	-10086
▁ⲛⲥⲁϩ	-10087
▁ⲛⲥⲉⲓ	-10088
▁ⲛⲥⲓⲫ	-10089
▁ⲛⲧϩⲏ	-10090
▁ⲛⲧⲏⲩ	-10091
▁ⲟⲩϣⲓ	-10092
▁ⲟⲩⲁϣ	-10093
▁ⲡϩⲏⲩ	-10094
▁ⲡϩⲟϥ	-10095
▁ⲡⲁⲏⲓ	-10096
▁ⲡⲁⲛⲁ	-10097
▁ⲡⲉⲓⲁ	-10098
▁ⲡⲉⲧϥ	-10099
▁ⲡⲛⲁⲩ	-10100
▁ⲥⲉϫⲱ	-10101
▁ⲥⲛⲏⲩ	-10102
▁ⲥⲛⲟϥ	-10103
▁ⲥⲱⲧⲡ	-10104
▁ⲧⲁⲓⲟ	-10105
▁ⲧⲁⲙⲉ	-10106
▁ⲧⲁⲩⲟ	-10107
▁ⲧⲙϩⲉ	-10108
▁ⲧⲱϭⲉ	-10109
ⲁⲧϩⲏⲧ	-10110
ⲃⲏⲑⲣⲁ	-10111
ⲅⲓⲣⲟⲥ	-10112
ⲅⲛⲱⲙⲏ	-10113
ⲇⲟⲕⲓⲁ	-10114
ⲇⲟⲥⲓⲥ	-10115
ⲉⲓⲟⲡⲉ	-10116
ⲑⲁⲙⲛⲁ	-10117
ⲑⲉⲥⲓⲥ	-10118
ⲑⲓⲛⲟⲛ	-10119
ⲑⲟⲛⲉⲓ	-10120
ⲑⲩⲣⲱⲛ	-10121
ⲕⲁⲓⲟⲛ	-10122
ⲗⲃⲟⲩⲉ	-10123
ⲗⲟⲅⲟⲥ	-10124
ⲙⲟⲣⲟⲩ	-10125
ⲛⲁⲥⲡⲉ	-10126
ⲛⲉⲟⲟⲩ	-10127
ⲛⲧⲁⲕϥ	-10128
ⲛⲧⲁⲩⲥ	-10129
ⲟϫⲛⲟⲩ	-10130
ⲟⲟⲣⲟⲩ	-10131
ⲟⲣⲛⲟⲥ	-10132
ⲟⲩⲱⲛⲉ	-10133
ⲟⲩⲱⲛⲥ	-10134
ⲡϫⲟⲉⲓ	-10135
ⲡⲁϩⲧⲥ	-10136
ⲡⲉϥϩⲟ	-10137
ⲡⲉⲓⲙⲁ	-10138
ⲡⲉⲣⲓⲍ	-10139
ⲡⲟⲛⲇⲏ	-10140
ⲡⲟⲣⲉⲓ	-10141
ⲡⲣⲏⲧⲉ	-10142
ⲣϩⲛⲁϥ	-10143
ⲣϩⲧⲏϥ	-10144
ⲣⲁⲓⲁⲥ	-10145
ⲣⲓϩⲁⲙ	-10146
ⲥⲁϣⲁⲓ	-10147
ⲥⲁⲓⲇⲁ	-10148
ⲥⲁⲛⲟⲥ	-10149
ⲥⲓⲙⲱⲛ	-10150
ⲥⲛⲁⲩϩ	-10151
ⲥⲩⲛⲧⲉ	-10152
ⲧⲁⲕⲟⲕ	-10153
ⲧⲁⲙⲓⲁ	-10154
ⲧⲁⲥⲙⲏ	-10155
ⲧⲓⲕⲟⲥ	-10156
ⲧⲱⲱⲙⲉ	-10157
ⲩⲯⲥⲏⲥ	-10158
ⲫⲟⲣⲙⲏ	-10159
ϣⲛϩⲧⲏⲓ	-10160
ϩⲟⲡⲗⲓⲁ	-10161
ϫⲁⲥⲧⲟⲩ	-10162
ϫⲓϫⲣⲟⲡ	-10163
ϫⲙⲡⲕⲁϩ	-10164
ϭⲟⲗⲡⲟⲩ	-10165
ϯⲗⲁⲧⲏⲥ	-10166
ϯⲛⲁⲁⲕⲉ	-10167
ϯⲟⲩⲃⲏⲕ	-10168
▁ϣⲁⲛⲉϥ	-10169
▁ϣⲁⲛⲧⲛ	-10170
▁ϥϣⲓⲛⲉ	-10171
▁ϥⲓⲧⲟⲩ	-10172
▁ϥⲛⲁϫⲱ	-10173
▁ϩⲁⲛⲉⲕ	-10174
▁ϩⲁⲡⲣⲏ	-10175
▁ϩⲁⲧⲏⲓ	-10176
▁ϩⲁⲧⲛⲛ	-10177
▁ϩⲓϩⲓⲏ	-10178
▁ϩⲓⲟⲩⲉ	-10179
▁ϩⲛⲛⲕⲉ	-10180
▁ϩⲛⲧⲃⲱ	-10181
▁ϩⲛⲧⲕⲉ	-10182
▁ϩⲟⲗⲱⲥ	-10183
▁ϩⲟⲙⲛⲧ	-10184
▁ϩⲣⲁⲁⲃ	-10185
▁ϫⲉϫⲓⲛ	-10186
▁ϫⲉϯⲙⲉ	-10187
▁ϫⲉⲁϩⲉ	-10188
▁ϫⲉⲁⲓϯ	-10189
▁ϫⲉⲁⲛⲁ	-10190
▁ϫⲉⲙⲁⲣ	-10191
▁ϫⲉⲡⲏⲓ	-10192
▁ϫⲉⲧⲟⲩ	-10193
▁ϫⲓⲛⲉⲓ	-10194
▁ϯⲛⲁⲉⲓ	-10195
▁ϯⲣⲁϣⲉ	-10196
▁ϯⲥⲱⲧⲙ	-10197
▁ⲁϥϩⲕⲟ	-10198
▁ⲁϥⲕⲓⲙ	-10199
▁ⲁϥⲥⲉϩ	-10200
▁ⲁⲗⲱⲧⲛ	-10201
▁ⲁⲙⲛⲧⲉ	-10202
▁ⲁⲣⲭⲉⲓ	-10203
▁ⲁⲥϩⲱⲛ	-10204
▁ⲁⲥⲙⲟⲩ	-10205
▁ⲁⲩϫⲡⲟ	-10206
▁ⲁⲩⲁⲗⲉ	-10207
▁ⲁⲩⲃⲱⲗ	-10208
▁ⲁⲩⲟⲩⲱ	-10209
▁ⲁⲩⲡⲱϩ	-10210
▁ⲉϣⲱⲱⲧ	-10211
▁ⲉϥⲛⲉϫ	-10212
▁ⲉϥⲧⲣⲉ	-10213
▁ⲉⲁϥϩⲉ	-10214
▁ⲉⲁⲛⲟⲛ	-10215
▁ⲉⲁⲣⲙⲁ	-10216
▁ⲉⲕⲁⲁϥ	-10217
▁ⲉⲗⲓⲥⲁ	-10218
▁ⲉⲙⲉϣⲧ	-10219
▁ⲉⲛⲁⲁϥ	-10220
▁ⲉⲛⲟⲃⲉ	-10221
▁ⲉⲥⲙⲟⲩ	-10222
▁ⲉⲥⲱⲃⲉ	-10223
▁ⲉⲧϩⲁⲏ	-10224
▁ⲉⲧϫⲏⲩ	-10225
▁ⲉⲧⲁⲁⲩ	-10226
▁ⲉⲧⲁⲕⲉ	-10227
▁ⲉⲧⲁⲗⲟ	-10228
▁ⲉⲧⲉⲣⲁ	-10229
▁ⲉⲧⲙⲟⲩ	-10230
▁ⲉⲧⲟⲃⲉ	-10231
▁ⲉⲧⲣⲁⲓ	-10232
▁ⲉⲧⲣⲏⲧ	-10233
▁ⲉⲧⲱⲙⲧ	-10234
▁ⲉⲩϣⲱⲗ	-10235
▁ⲉⲩϫⲡⲟ	-10236
▁ⲉⲩⲕⲱⲧ	-10237
▁ⲉⲩⲙⲟⲩ	-10238
▁ⲉⲩⲛⲏϫ	-10239
▁ⲕⲛⲁϩⲉ	-10240
▁ⲕⲛⲁⲕⲱ	-10241
▁ⲙⲁⲣⲑⲁ	-10242
▁ⲙⲛⲡⲱⲧ	-10243
▁ⲙⲛⲧⲡⲉ	-10244
▁ⲙⲡϩⲣⲃ	-10245
▁ⲙⲡϭⲟⲗ	-10246
▁ⲙⲡⲁⲧⲓ	-10247
▁ⲙⲡⲁⲧⲕ	-10248
▁ⲙⲡⲉⲧϯ	-10249
▁ⲙⲡⲗⲁⲥ	-10250
▁ⲙⲡⲣϫⲓ	-10251
▁ⲙⲡⲧⲏⲩ	-10252
▁ⲛϣⲁⲣⲉ	-10253
▁ⲛϩⲏⲃⲉ	-10254
▁ⲛϩⲏⲗⲓ	-10255
▁ⲛϩⲧⲏⲓ	-10256
▁ⲛϭⲓⲓⲟ	-10257
▁ⲛϭⲓⲧⲥ	-10258
▁ⲛϯϩⲁⲡ	-10259
▁ⲛⲁⲛⲟⲕ	-10260
▁ⲛⲅⲡⲱⲧ	-10261
▁ⲛⲉϣϣⲉ	-10262
▁ⲛⲉϣⲱⲧ	-10263
▁ⲛⲉϫⲡⲟ	-10264
▁ⲛⲉⲓϫⲱ	-10265
▁ⲛⲉⲓⲉⲣ	-10266
▁ⲛⲉⲙⲁⲥ	-10267
▁ⲛⲉⲛⲁⲕ	-10268
▁ⲛⲉⲣⲏⲧ	-10269
▁ⲛⲙⲛⲉϥ	-10270
▁ⲛⲙⲡⲉⲕ	-10271
▁ⲛⲛϭⲓϫ	-10272
▁ⲛⲛϭⲱⲃ	-10273
▁ⲛⲛⲉⲧⲣ	-10274
▁ⲛⲛⲉⲩϣ	-10275
▁ⲛⲟⲇⲟⲗ	-10276
▁ⲛⲟⲩⲙⲉ	-10277
▁ⲛⲣⲁⲧϥ	-10278
▁ⲛⲥⲉϫⲱ	-10279
▁ⲛⲥⲛⲧⲉ	-10280
▁ⲛⲥⲟⲧⲉ	-10281
▁ⲛⲧϩⲁⲏ	-10282
▁ⲛⲧⲁϫⲓ	-10283
▁ⲛⲧⲁϫⲱ	-10284
▁ⲛⲧⲉⲓⲉ	-10285
▁ⲛⲧⲉⲩⲥ	-10286
▁ⲛⲧⲕⲟⲩ	-10287
▁ⲛⲧⲱⲃⲉ	-10288
▁ⲛⲧⲱⲇⲏ	-10289
▁ⲟⲛⲧϩⲉ	-10290
▁ⲟⲩⲃⲏⲛ	-10291
▁ⲟⲩⲡⲁⲣ	-10292
▁ⲟⲩⲱϣⲥ	-10293
▁ⲟⲩⲱϣⲧ	-10294
▁ⲡϩⲟⲩⲛ	-10295
▁ⲡⲁⲣⲣⲟ	-10296
▁ⲡⲁⲩⲗⲉ	-10297
▁ⲡⲉⲕϩⲟ	-10298
▁ⲡⲉⲣⲏⲧ	-10299
▁ⲡⲉⲧϥⲓ	-10300
▁ⲡⲙⲁⲥⲉ	-10301
▁ⲡⲛⲟⲩⲛ	-10302
▁ⲡⲥⲃⲃⲉ	-10303
▁ⲡⲱⲱⲛⲉ	-10304
▁ⲥⲙⲓⲛⲉ	-10305
▁ⲥⲟⲩⲧⲛ	-10306
▁ⲧⲟⲗⲙⲁ	-10307
ⲁⲡⲁⲣⲛⲁ	-10308
ⲅⲓⲥⲙⲟⲥ	-10309
ⲇⲉⲓⲥⲟⲥ	-10310
ⲑⲁⲛⲁⲏⲗ	-10311
ⲓⲁⲥⲧⲏⲥ	-10312
ⲓⲕⲟⲟⲩⲉ	-10313
ⲓⲥϩⲓⲙⲉ	-10314
ⲓⲥⲙⲁⲏⲗ	-10315
ⲓⲥⲟⲟⲩⲛ	-10316
ⲕⲟⲛⲥⲟⲩ	-10317
ⲕⲣⲓⲥⲓⲥ	-10318
ⲗⲉⲕⲧⲱⲣ	-10319
ⲙⲉⲣⲓⲧⲕ	-10320
ⲙⲉⲣⲓⲧⲛ	-10321
ⲙⲙⲁⲧⲟⲓ	-10322
ⲙⲛⲧⲣⲉϥ	-10323
ⲛⲉⲥⲛⲏⲩ	-10324
ⲛⲟⲟⲩⲥⲉ	-10325
ⲝⲱⲣⲓⲍⲉ	-10326
ⲟⲗⲟⲕⲟⲧ	-10327
ⲡⲉⲓϩⲱⲃ	-10328
ⲡⲉⲛⲧⲁϥ	-10329
ⲡⲟⲣϫⲟⲩ	-10330
ⲡⲣⲟⲕⲟⲡ	-10331
ⲣⲁⲕⲧⲟⲩ	-10332
ⲣⲁⲣⲭⲱⲛ	-10333
ⲣⲓⲕⲉⲫⲁ	-10334
ⲣⲟⲩⲟⲓⲛ	-10335
ⲥⲁⲩⲗⲟⲥ	-10336
ⲥⲏⲙⲁⲛⲉ	-10337
ⲥⲕⲟⲣⲕⲣ	-10338
ⲥⲟⲧⲙⲉϥ	-10339
ⲥⲟⲩⲟⲩⲁ	-10340
ⲧⲁϫⲣⲟⲓ	-10341
ⲧⲉⲩⲛⲟⲩ	-10342
ⲧⲓⲁⲛⲟⲥ	-10343
ⲧⲟⲙⲥⲟⲩ	-10344
ⲧⲥⲁⲃⲟⲛ	-10345
ⲩϩⲁⲓⲟⲥ	-10346
ϣⲧⲣⲧⲱⲣⲧ	-10347
ϩⲁⲣⲡⲁⲍⲉ	-10348
ϩⲉⲛⲕⲟⲩⲓ	-10349
ϩⲓⲕⲁⲛⲟⲥ	-10350
▁ϣⲁϩⲟⲩⲛ	-10351
▁ϣⲁⲣⲉⲛⲉ	-10352
▁ϩⲁⲓⲃⲉⲥ	-10353
▁ϩⲁⲧⲁϩⲏ	-10354
▁ϩⲙⲡϣⲏⲓ	-10355
▁ϩⲛϩⲉⲛⲁ	-10356
▁ϩⲛⲛϭⲓϫ	-10357
▁ϩⲛⲛⲉⲕⲁ	-10358
▁ϩⲛⲧⲉⲓⲉ	-10359
▁ϫⲉϣⲗⲏⲗ	-10360
▁ϫⲉⲁϥⲉⲓ	-10361
▁ϫⲉⲁⲩϥⲓ	-10362
▁ϫⲉⲙⲡⲱⲣ	-10363
▁ϫⲉⲛⲁⲙⲉ	-10364
▁ϫⲉⲛⲛⲉⲛ	-10365
▁ϫⲉⲛⲛⲉⲥ	-10366
▁ϫⲉⲛⲛⲉⲧ	-10367
▁ϫⲉⲡⲉⲧⲛ	-10368
▁ϯⲙⲉⲉⲩⲉ	-10369
▁ⲁϥϩⲟⲡϥ	-10370
▁ⲁⲓϣⲗⲏⲗ	-10371
▁ⲁⲓϫⲓⲧϥ	-10372
▁ⲁⲓⲣⲁϣⲉ	-10373
▁ⲁⲕⲕⲁⲁⲧ	-10374
▁ⲁⲛⲉⲓⲙⲉ	-10375
▁ⲁⲡϣⲁϫⲉ	-10376
▁ⲁⲡϣⲏⲣⲉ	-10377
▁ⲁⲥⲡⲁⲍⲉ	-10378
▁ⲁⲩϥⲓⲧϥ	-10379
▁ⲁⲩⲉⲛⲧϥ	-10380
▁ⲁⲩⲕⲱϩⲧ	-10381
▁ⲁⲩⲝⲁⲛⲉ	-10382
▁ⲁⲩⲡⲱϣⲥ	-10383
▁ⲁⲩⲥⲙⲟⲩ	-10384
▁ⲁⲩⲥⲱⲃⲉ	-10385
▁ⲁⲩⲧⲱⲣⲡ	-10386
▁ⲉϥⲙⲡϣⲁ	-10387
▁ⲉϩⲙⲟⲟⲥ	-10388
▁ⲉϫⲓⲧⲟⲩ	-10389
▁ⲉϫⲛⲛⲉⲥ	-10390
▁ⲉϫⲛⲟⲩϥ	-10391
▁ⲉϯⲥⲱⲧⲙ	-10392
▁ⲉⲁϥⲙⲟⲩ	-10393
▁ⲉⲕϣⲁⲛⲣ	-10394
▁ⲉⲕⲉⲃⲱⲕ	-10395
▁ⲉⲗⲓⲟⲩⲥ	-10396
▁ⲉⲙⲡⲁⲧⲕ	-10397
▁ⲉⲛⲉⲥⲱϥ	-10398
▁ⲉⲛⲕⲁⲧⲁ	-10399
▁ⲉⲛⲕⲟⲧⲕ	-10400
▁ⲉⲡϩⲓⲥⲉ	-10401
▁ⲉⲡⲃⲏⲙⲁ	-10402
▁ⲉⲡⲉⲙⲛⲧ	-10403
▁ⲉⲣϣⲁⲛⲧ	-10404
▁ⲉⲣⲉⲡⲉⲕ	-10405
▁ⲉⲣⲉⲡⲉⲛ	-10406
▁ⲉⲣⲟⲁⲩⲱ	-10407
▁ⲉⲥϫⲟⲥⲉ	-10408
▁ⲉⲧⲉⲡⲱϥ	-10409
▁ⲉⲧⲉⲧⲛⲣ	-10410
▁ⲉⲩϫⲟⲉⲓ	-10411
▁ⲉⲩϫⲟⲥⲉ	-10412
▁ⲉⲩⲕⲁⲕⲉ	-10413
▁ⲉⲩⲗⲁⲁⲩ	-10414
▁ⲉⲩⲗⲁⲟⲥ	-10415
▁ⲉⲩⲙⲓϣⲉ	-10416
▁ⲉⲩⲟⲩⲱϣ	-10417
▁ⲕⲁⲓⲡⲉⲣ	-10418
▁ⲙⲉⲣⲓⲧϥ	-10419
▁ⲙⲙⲟⲕϩⲥ	-10420
▁ⲙⲙⲟⲥⲧⲉ	-10421
▁ⲙⲙⲟⲩⲛⲅ	-10422
▁ⲙⲛϩⲉⲛⲁ	-10423
▁ⲙⲛⲡϩⲁⲡ	-10424
▁ⲙⲛⲧⲉⲧⲛ	-10425
▁ⲙⲡⲉϯⲛⲁ	-10426
▁ⲙⲡⲉⲁⲩⲱ	-10427
▁ⲙⲡⲓⲙⲟⲩ	-10428
▁ⲙⲡⲟⲩϭⲛ	-10429
▁ⲙⲡⲣⲡⲱⲧ	-10430
▁ⲛϣⲟϫⲛⲉ	-10431
▁ⲛϥϣⲓⲛⲉ	-10432
▁ⲛϥⲛⲁϫⲓ	-10433
▁ⲛϩⲁⲙⲱⲥ	-10434
▁ⲛϭⲓⲧⲉϥ	-10435
▁ⲛϭⲟⲓⲗⲉ	-10436
▁ⲛⲁϩⲣⲁⲕ	-10437
▁ⲛⲁⲕⲉⲉⲥ	-10438
▁ⲛⲁⲭⲟⲩⲥ	-10439
▁ⲛⲅϣⲙϣⲉ	-10440
▁ⲛⲅϭⲱϣⲧ	-10441
▁ⲛⲅⲁⲃⲁⲁ	-10442
▁ⲛⲅⲉⲓⲙⲉ	-10443
▁ⲛⲅⲕⲟⲧⲕ	-10444
▁ⲛⲅⲥϩⲁⲓ	-10445
▁ⲛⲅⲧⲁⲗⲟ	-10446
▁ⲛⲉⲕϩⲁⲡ	-10447
▁ⲛⲉⲕϭⲓϫ	-10448
▁ⲛⲉⲧϥϫⲱ	-10449
▁ⲛⲉⲧⲉⲟⲩ	-10450
▁ⲛⲉⲩⲛⲁⲣ	-10451
▁ⲛⲉⲯⲩⲭⲏ	-10452
▁ⲛⲓⲱⲛⲁⲥ	-10453
▁ⲛⲗⲁⲃⲁⲛ	-10454
▁ⲛⲙⲛⲉⲧⲛ	-10455
▁ⲛⲙⲡⲕⲁϩ	-10456
▁ⲛⲛⲁⲓⲱⲛ	-10457
▁ⲛⲛⲉⲧϩⲙ	-10458
▁ⲛⲛⲟⲉⲓⲧ	-10459
▁ⲛⲟⲉⲓⲗⲉ	-10460
▁ⲛⲟⲩⲉⲓⲱ	-10461
▁ⲛⲟⲩⲥⲟϭ	-10462
▁ⲛⲟⲩⲧⲏⲩ	-10463
▁ⲛⲟⲩⲱⲃϣ	-10464
▁ⲛⲥⲁⲛⲁⲓ	-10465
▁ⲛⲥⲁⲛⲓⲙ	-10466
▁ⲛⲥⲁⲡⲉⲧ	-10467
▁ⲛⲥⲁⲡⲉⲩ	-10468
▁ⲛⲥⲟⲫⲓⲁ	-10469
▁ⲛⲧⲁϥϫⲉ	-10470
▁ⲛⲧⲁⲣⲭⲏ	-10471
▁ⲛⲧⲉϩⲣⲁ	-10472
▁ⲛⲧⲉⲛⲁⲩ	-10473
▁ⲛⲧⲉⲡⲣⲱ	-10474
▁ⲛⲧⲙⲛⲧⲁ	-10475
▁ⲛⲧⲥⲛⲧⲉ	-10476
▁ⲛⲭⲁⲗⲉⲃ	-10477
▁ⲟⲩϣⲃⲏⲣ	-10478
▁ⲟⲩⲗⲩⲡⲏ	-10479
▁ⲟⲩⲙⲕⲁϩ	-10480
▁ⲟⲩⲛⲧⲁⲕ	-10481
▁ⲟⲩⲟⲛϩϥ	-10482
▁ⲟⲩⲥⲁⲃⲉ	-10483
▁ⲟⲩⲥⲏϥⲉ	-10484
▁ⲡϫⲱⲱⲣⲉ	-10485
▁ⲡⲉϩⲙⲟⲧ	-10486
▁ⲡⲉⲧϥⲛⲁ	-10487
▁ⲡⲉⲧⲛⲁⲣ	-10488
▁ⲡⲉⲩϩⲏⲧ	-10489
▁ⲡⲟⲩⲛⲟϥ	-10490
▁ⲡⲧⲁϫⲣⲟ	-10491
▁ⲣϣⲡⲏⲣⲉ	-10492
▁ⲧⲁϣⲁϫⲉ	-10493
▁ⲧⲁⲩⲟⲟⲩ	-10494
▁ⲧⲃⲃⲟⲟⲩ	-10495
▁ⲧⲉⲕϭⲓϫ	-10496
▁ⲧⲉⲛⲧⲁϥ	-10497
▁ⲧⲕⲁⲕⲓⲁ	-10498
▁ⲧⲙⲛⲧⲛⲁ	-10499
▁ⲧⲛⲟⲩⲛⲉ	-10500
▁ⲧⲥⲩⲣⲓⲁ	-10501
ⲁⲣⲭⲱⲛⲧⲁ	-10502
ⲃⲉⲥⲁⲗⲱⲙ	-10503
ⲗⲉⲓⲧⲟⲩⲣ	-10504
ⲙⲉⲥⲧⲱⲟⲩ	-10505
ⲙⲛⲧⲛⲟⲩϫ	-10506
ⲛⲇⲣⲓⲧⲏⲥ	-10507
ⲛⲉⲕϣⲁϫⲉ	-10508
ⲛⲟⲙⲓⲕⲟⲥ	-10509
ⲡⲓⲧⲓⲙⲓⲁ	-10510
ⲡⲟⲗⲟⲅⲓⲁ	-10511
ⲥϩⲁⲓⲥⲟⲩ	-10512
ⲥⲁⲛⲟⲩϣⲧ	-10513
ⲧϣⲉⲗⲉⲉⲧ	-10514
ⲧⲉⲕⲙⲁⲁⲩ	-10515
ⲧⲟⲓⲭⲓⲟⲛ	-10516
ⲧⲥⲁⲃⲟⲟⲩ	-10517
ⲩⲙⲃⲏⲑⲣⲁ	-10518
ⲫⲟⲓⲛⲓⲕⲏ	-10519
ⲫⲩⲗⲟⲟⲩⲉ	-10520
ⲭⲁⲣⲓⲥⲙⲁ	-10521
ϭⲓⲛⲟⲩⲟⲟⲙ	-10522
▁ϣⲁⲛⲧⲓⲉⲓ	-10523
▁ϣⲁⲡⲉⲓⲱⲧ	-10524
▁ϣⲁⲣⲟⲩϩⲉ	-10525
▁ϩⲏⲣⲱⲇⲏⲥ	-10526
▁ϩⲓϫⲛⲛⲉⲩ	-10527
▁ϩⲓⲡϫⲟⲉⲓ	-10528
▁ϩⲙⲡⲉϥϩⲟ	-10529
▁ϩⲙⲡⲉⲥⲙⲁ	-10530
▁ϩⲙⲡⲧⲁⲕⲟ	-10531
▁ϩⲛⲓⲟⲩⲇⲁ	-10532
▁ϩⲛⲛϣⲁϫⲉ	-10533
▁ϩⲛⲥⲁⲟⲩⲗ	-10534
▁ϩⲛⲥⲏⲉⲓⲣ	-10535
▁ϩⲛⲧⲉⲕⲙⲉ	-10536
▁ϫⲉϯⲥⲟⲡⲥ	-10537
▁ϫⲉⲡϣⲁϫⲉ	-10538
▁ϫⲉⲡⲗⲁⲟⲥ	-10539
▁ϫⲉⲣⲁⲥⲧⲉ	-10540
▁ϫⲉⲥⲁϩⲱⲕ	-10541
▁ϫⲉⲥⲓⲙⲱⲛ	-10542
▁ϫⲉⲥⲱⲟⲩϩ	-10543
▁ϫⲓⲛϣⲟⲣⲡ	-10544
▁ϭⲙⲡϣⲓⲛⲉ	-10545
▁ϯⲛⲁϫⲓⲥⲉ	-10546
▁ⲁϥⲁⲓⲧⲉⲓ	-10547
▁ⲁϥⲉⲓⲱⲣⲙ	-10548
▁ⲁϥⲛⲟⲩϩⲙ	-10549
▁ⲁϥⲥⲙⲓⲛⲉ	-10550
▁ⲁϥⲧⲁⲗⲟϥ	-10551
▁ⲁⲓⲙⲉⲉⲩⲉ	-10552
▁ⲁⲓⲣϩⲟⲧⲉ	-10553
▁ⲁⲓⲣⲛⲟⲃⲉ	-10554
▁ⲁⲛⲉⲥⲛⲏⲩ	-10555
▁ⲁⲡⲉⲧⲣⲟⲥ	-10556
▁ⲁⲩϣⲟⲟⲩⲉ	-10557
▁ⲁⲩϩⲓⲱⲛⲉ	-10558
▁ⲁⲩϫⲓⲧⲟⲩ	-10559
▁ⲁⲩⲑⲃⲃⲓⲟ	-10560
▁ⲁⲩⲙⲉⲉⲩⲉ	-10561
▁ⲁⲩⲟⲩⲱⲛϩ	-10562
▁ⲁⲩⲡⲉⲓⲑⲉ	-10563
▁ⲁⲩⲥⲟⲃⲧⲉ	-10564
▁ⲁⲭⲓⲙⲁⲁⲥ	-10565
▁ⲇⲉⲃⲃⲱⲣⲁ	-10566
▁ⲇⲓⲁⲑⲏⲕⲏ	-10567
▁ⲉϣⲡϩⲓⲥⲉ	-10568
▁ⲉϥϩⲁⲣⲉϩ	-10569
▁ⲉϥϭⲙϭⲟⲙ	-10570
▁ⲉϫⲛⲛⲧⲟϣ	-10571
▁ⲉϫⲛⲡⲕⲁϩ	-10572
▁ⲉϯⲛⲁⲃⲱⲕ	-10573
▁ⲉⲁϥϣⲱⲡⲉ	-10574
▁ⲉⲃⲁⲓⲑⲏⲗ	-10575
▁ⲉⲕϣⲁⲛⲉⲓ	-10576
▁ⲉⲕⲉϣⲱⲡⲉ	-10577
▁ⲉⲝⲉⲥⲧⲉⲓ	-10578
▁ⲉⲡⲁⲥⲟⲡⲥ	-10579
▁ⲉⲡⲅⲉⲛⲟⲥ	-10580
▁ⲉⲡⲉϣⲗⲏⲗ	-10581
▁ⲉⲡⲉⲥϩⲁⲓ	-10582
▁ⲉⲣⲉⲟⲩⲟⲛ	-10583
▁ⲉⲧϥⲉⲓⲣⲉ	-10584
▁ⲉⲧϩⲓϫⲱϥ	-10585
▁ⲉⲧϩⲙⲡⲉϥ	-10586
▁ⲉⲧϩⲛⲧⲡⲉ	-10587
▁ⲉⲧⲁⲕⲟⲟⲩ	-10588
▁ⲉⲧⲃⲉϫⲉⲁ	-10589
▁ⲉⲧⲉϥϩⲓⲏ	-10590
▁ⲉⲧⲕⲉⲓⲣⲉ	-10591
▁ⲉⲧⲙⲟⲟⲩⲧ	-10592
▁ⲉⲧⲛⲁϫⲱϩ	-10593
▁ⲉⲧⲧⲱⲟⲩⲛ	-10594
▁ⲉⲩϩⲁⲣⲉϩ	-10595
▁ⲉⲩⲑⲗⲓⲃⲉ	-10596
▁ⲉⲩⲥⲃⲧⲱⲧ	-10597
▁ⲗⲁⲍⲁⲣⲟⲥ	-10598
▁ⲙⲁⲣⲉⲧⲉⲕ	-10599
▁ⲙⲁⲣⲛⲡⲱⲧ	-10600
▁ⲙⲁⲣⲟⲩⲉⲓ	-10601
▁ⲙⲙⲙⲟⲁⲩⲱ	-10602
▁ⲙⲛⲕⲉⲟⲩⲁ	-10603
▁ⲙⲛⲛⲉⲩⲙⲁ	-10604
▁ⲙⲛⲡⲉⲧⲛⲁ	-10605
▁ⲙⲛⲥⲁⲗⲙⲁ	-10606
▁ⲙⲛⲥⲁⲟⲩⲗ	-10607
▁ⲙⲛⲥⲓⲇⲱⲛ	-10608
▁ⲙⲡⲉϥⲛⲁⲩ	-10609
▁ⲙⲡⲉⲓϩⲱⲃ	-10610
▁ⲙⲡⲉⲛⲙⲧⲟ	-10611
▁ⲙⲡⲣϣⲗⲁϩ	-10612
▁ⲙⲡⲣⲉⲙⲏⲧ	-10613
▁ⲙⲡⲥⲉⲉⲡⲉ	-10614
▁ⲙⲡⲥⲟⲫⲟⲥ	-10615
▁ⲛϥϩⲁⲣⲉϩ	-10616
▁ⲛϥⲙⲟⲟϣⲉ	-10617
▁ⲛϩⲟⲉⲓⲧⲉ	-10618
▁ⲛⲁϩⲁⲣⲉϩ	-10619
▁ⲛⲁⲟⲩⲱϣϥ	-10620
▁ⲛⲁⲭⲓⲕⲁⲙ	-10621
▁ⲛⲃⲁⲗϩⲏⲧ	-10622
▁ⲛⲉⲧϣⲓⲛⲉ	-10623
▁ⲛⲉⲧⲉⲛⲥⲉ	-10624
▁ⲛⲉⲧⲕⲱⲧⲉ	-10625
▁ⲛⲓⲉⲫⲑⲁⲉ	-10626
▁ⲛⲕⲟⲓⲛⲱⲛ	-10627
▁ⲛⲕⲟⲕⲕⲟⲥ	-10628
▁ⲛⲕⲣⲓⲧⲏⲥ	-10629
▁ⲛⲙⲓⲁⲕⲱⲃ	-10630
▁ⲛⲙⲡⲉⲧⲣⲁ	-10631
▁ⲛⲛⲉⲛⲧⲁⲓ	-10632
▁ⲛⲛⲟⲉⲙⲓⲛ	-10633
▁ⲛⲛⲣⲉϥϫⲓ	-10634
▁ⲛⲟⲩⲉⲃⲓⲱ	-10635
▁ⲛⲟⲩⲓⲉⲣⲟ	-10636
▁ⲛⲟⲩⲛⲟⲩⲃ	-10637
▁ⲛⲟⲩⲡⲏⲅⲏ	-10638
▁ⲛⲟⲩⲥⲟⲃⲧ	-10639
▁ⲛⲥⲉⲉⲓⲙⲉ	-10640
▁ⲛⲧⲁⲡⲣⲣⲟ	-10641
▁ⲛⲧⲉⲡⲗⲁⲝ	-10642
▁ⲛⲧⲉⲣⲉϥⲣ	-10643
▁ⲛⲧⲉⲩϭⲟⲙ	-10644
▁ⲛⲧⲛⲉⲓⲣⲉ	-10645
▁ⲟⲩⲁⲧϩⲏⲧ	-10646
▁ⲟⲩⲥⲟⲫⲟⲥ	-10647
▁ⲡϩⲉⲑⲛⲟⲥ	-10648
▁ⲡⲁⲥⲱⲧⲏⲣ	-10649
▁ⲡⲉϫⲉⲁⲡⲁ	-10650
▁ⲡⲉⲕϣⲁϫⲉ	-10651
▁ⲡⲉⲧϩⲓϫⲛ	-10652
▁ⲡⲉⲧϯⲥⲃⲱ	-10653
▁ⲡⲉⲧⲉⲙⲡϥ	-10654
▁ⲡⲉⲧⲟⲩⲱϣ	-10655
▁ⲥⲉⲛⲁⲥⲉⲓ	-10656
▁ⲥⲉⲛⲁⲱϫⲛ	-10657
▁ⲥⲉⲟⲩⲟⲛϩ	-10658
▁ⲥⲟⲗⲟⲙⲱⲛ	-10659
▁ⲧϩⲉⲗⲡⲓⲥ	-10660
▁ⲧⲁⲙⲓⲟⲟⲩ	-10661
▁ⲧⲁⲧⲁⲡⲣⲟ	-10662
▁ⲧⲉⲅⲣⲁⲫⲏ	-10663
▁ⲧⲉⲛⲉⲓⲙⲉ	-10664
▁ⲧⲉⲛⲧⲟⲗⲏ	-10665
▁ⲧⲉⲧⲛⲁϫⲓ	-10666
▁ⲧⲙⲛⲧⲙⲁⲓ	-10667
ⲁⲃⲓⲙⲉⲗⲉⲭ	-10668
ⲇⲟⲩⲙⲁⲓⲟⲥ	-10669
ⲓⲇⲟⲩⲙⲁⲓⲁ	-10670
ⲕⲉⲩⲛⲟⲩⲧⲉ	-10671
ⲙⲁⲛⲛⲕⲟⲧⲕ	-10672
ⲙⲛⲧϩⲙϩⲁⲗ	-10673
ⲙⲛⲧⲣⲉϥϫⲓ	-10674
ⲛⲁⲅⲕⲁⲓⲟⲛ	-10675
ⲛⲉϥⲉⲓⲟⲧⲉ	-10676
ⲛⲟⲩⲟⲩⲛⲟⲩ	-10677
ⲟⲣⲛⲏⲗⲓⲟⲥ	-10678
ⲡⲁⲣϩⲓⲥⲧⲁ	-10679
ⲡⲉϥⲣⲁⲥⲧⲉ	-10680
ⲡⲣⲟⲥⲫⲟⲣⲁ	-10681
ⲥⲡⲓⲣⲟⲟⲩⲉ	-10682
ⲥⲫⲣⲁⲅⲓⲍⲉ	-10683
▁ϩⲉⲛϣⲡⲏⲣⲉ	-10684
▁ϩⲙⲡⲉⲥϩⲏⲧ	-10685
▁ϩⲙⲡⲉⲩⲕⲁϩ	-10686
▁ϩⲛⲅⲁⲃⲁⲱⲛ	-10687
▁ϩⲛⲟⲩⲧⲁⲕⲟ	-10688
▁ϩⲛⲧⲟⲣⲓⲛⲏ	-10689
▁ϫⲉⲁϥϫⲟⲟⲥ	-10690
▁ϫⲉⲁⲓϣⲓⲛⲉ	-10691
▁ϫⲉⲧⲁⲯⲩⲭⲏ	-10692
▁ϫⲓⲛⲟⲩϫⲱⲙ	-10693
▁ϯϩⲉⲗⲡⲓⲍⲉ	-10694
▁ϯⲛⲁⲥⲙⲓⲛⲉ	-10695
▁ⲁϥⲁϣϣⲕⲁⲕ	-10696
▁ⲁϥⲧⲁⲙⲓⲟϥ	-10697
▁ⲁⲓⲁⲙⲁϩⲧⲉ	-10698
▁ⲁⲩϫⲓⲡⲟⲩⲱ	-10699
▁ⲇⲟⲕⲓⲙⲁⲍⲉ	-10700
▁ⲉϥⲉⲟⲩⲱⲛϩ	-10701
▁ⲉϥⲑⲃⲃⲓⲏⲩ	-10702
▁ⲉϫⲙⲡⲣⲱⲙⲉ	-10703
▁ⲉϫⲛⲧⲡⲏⲅⲏ	-10704
▁ⲉⲃⲏⲑⲗⲉⲉⲙ	-10705
▁ⲉⲃⲟⲗϩⲓⲧⲙ	-10706
▁ⲉⲛⲉⲧϣⲟⲟⲡ	-10707
▁ⲉⲛⲉⲩϣⲟⲟⲡ	-10708
▁ⲉⲡⲉϥⲉⲟⲟⲩ	-10709
▁ⲉⲡⲉⲓⲣⲁⲍⲉ	-10710
▁ⲉⲡⲉⲓⲣⲱⲙⲉ	-10711
▁ⲉⲡⲉⲩⲥⲟⲡⲥ	-10712
▁ⲉⲡⲓⲥⲧⲉⲩⲉ	-10713
▁ⲉⲥϣⲟⲩⲉⲓⲧ	-10714
▁ⲉⲥⲥⲟⲩⲧⲱⲛ	-10715
▁ⲉⲧⲕⲉⲉⲓⲗⲁ	-10716
▁ⲉⲧⲛϩⲏⲧⲟⲩ	-10717
▁ⲉⲧⲛⲁⲟⲩⲱⲙ	-10718
▁ⲉⲧⲣⲁϣⲱⲡⲉ	-10719
▁ⲉⲩⲣϣⲡⲏⲣⲉ	-10720
▁ⲕⲁⲑⲁⲣⲓⲍⲉ	-10721
▁ⲙⲁⲣⲉⲡⲟⲩⲁ	-10722
▁ⲙⲙⲉϩⲥⲛⲁⲩ	-10723
▁ⲙⲛⲟⲩϭⲱⲛⲧ	-10724
▁ⲙⲛⲟⲩⲙⲕⲁϩ	-10725
▁ⲙⲛⲟⲩⲥⲧⲱⲧ	-10726
▁ⲙⲛⲡⲉⲥϩⲁⲓ	-10727
▁ⲙⲡϩⲁⲅⲓⲟⲥ	-10728
▁ⲙⲡϩⲉⲃⲱⲱⲛ	-10729
▁ⲙⲡⲁⲛⲟⲙⲟⲥ	-10730
▁ⲙⲡⲉⲓⲁⲓⲱⲛ	-10731
▁ⲙⲡⲉⲕⲟⲩⲟⲓ	-10732
▁ⲙⲡⲉⲥϣⲏⲣⲉ	-10733
▁ⲙⲡⲉⲧⲛϩⲏⲧ	-10734
▁ⲙⲡⲣⲣⲡⲱⲃϣ	-10735
▁ⲙⲡⲣⲧⲣⲉⲟⲩ	-10736
▁ⲛϩⲉⲛϭⲗⲓⲗ	-10737
▁ⲛϫⲁⲥⲓϩⲏⲧ	-10738
▁ⲛϭⲣⲟⲟⲙⲡⲉ	-10739
▁ⲛⲁⲃⲟⲏⲑⲉⲓ	-10740
▁ⲛⲁⲣⲭⲏⲅⲟⲥ	-10741
▁ⲛⲁⲧⲥⲟⲟⲩⲛ	-10742
▁ⲛⲇⲓⲕⲁⲓⲟⲛ	-10743
▁ⲛⲉⲛⲉⲓⲟⲧⲉ	-10744
▁ⲛⲉⲟⲩⲛⲧⲁϥ	-10745
▁ⲛⲉⲩⲛⲟⲩⲧⲉ	-10746
▁ⲛⲉⲩⲥⲟⲟⲩⲛ	-10747
▁ⲛⲕⲁⲧⲏⲅⲟⲣ	-10748
▁ⲛⲙⲧⲉⲭⲏⲣⲁ	-10749
▁ⲛⲛⲁⲛⲟⲙⲓⲁ	-10750
▁ⲛⲛⲉⲓⲕⲟⲩⲓ	-10751
▁ⲛⲛⲉⲥϣⲏⲣⲉ	-10752
▁ⲛⲛⲉⲩϩⲓⲥⲉ	-10753
▁ⲛⲟⲩϩⲟⲙⲛⲧ	-10754
▁ⲛⲟⲩϫⲱⲱⲣⲉ	-10755
▁ⲛⲣⲉϥϯϩⲁⲡ	-10756
▁ⲛⲥϯⲛⲟⲩϥⲉ	-10757
▁ⲛⲥⲁⲧⲉⲥⲙⲏ	-10758
▁ⲛⲥⲉϩⲁⲣⲉϩ	-10759
▁ⲛⲥⲉⲥⲱⲟⲩϩ	-10760
▁ⲛⲧⲁⲓⲧⲁⲁϥ	-10761
▁ⲛⲧⲉϥⲥⲁⲣⲝ	-10762
▁ⲛⲧⲉⲗⲱⲛⲏⲥ	-10763
▁ⲛⲧⲉⲛϣⲏⲣⲉ	-10764
▁ⲛⲧⲉⲣⲉϥϫⲓ	-10765
▁ⲛⲧⲛⲟⲩϫⲁⲓ	-10766
▁ⲟⲩϩⲉⲑⲛⲟⲥ	-10767
▁ⲟⲩⲕⲣⲓⲧⲏⲥ	-10768
▁ⲡⲉⲕⲣⲓⲧⲏⲥ	-10769
▁ⲡⲉⲧⲛⲁϫⲣⲟ	-10770
▁ⲡⲉⲧⲛⲁⲱⲣⲕ	-10771
▁ⲡⲡⲉⲧϩⲟⲟⲩ	-10772
▁ⲥⲉⲛⲁϣⲁϫⲉ	-10773
▁ⲧϩⲟⲣⲁⲥⲓⲥ	-10774
▁ⲧⲁϩⲉⲗⲡⲓⲥ	-10775
▁ⲧⲉⲧⲛϣⲓⲛⲉ	-10776
▁ⲧⲉⲧⲛⲉⲓⲣⲉ	-10777
▁ⲧⲛⲛⲁϣⲱⲡⲉ	-10778
ⲙⲛⲧⲁⲧⲥⲱⲧⲙ	-10779
ⲙⲛⲧⲃⲁⲗϩⲏⲧ	-10780
ⲛⲁⲥⲥⲩⲣⲓⲟⲥ	-10781
ⲛⲧⲁⲧⲥⲟⲟⲩⲛ	-10782
ⲡⲁⲛϩⲟⲡⲗⲓⲁ	-10783
ϩⲉⲣⲁⲧⲧⲏⲩⲧⲛ	-10784
ϩⲩⲡⲁⲣⲭⲱⲛⲧⲁ	-10785
ϩⲩⲡⲟⲕⲣⲓⲧⲏⲥ	-10786
▁ϣⲁⲛⲧⲟⲩϫⲱⲕ	-10787
▁ϩⲉⲛϩⲓⲟⲟⲩⲉ	-10788
▁ϩⲓϫⲙⲡⲙⲟⲟⲩ	-10789
▁ϩⲓⲧⲙⲡϣⲁϫⲉ	-10790
▁ϩⲙⲡⲉⲕϭⲱⲛⲧ	-10791
▁ϩⲛⲛⲕⲁⲣⲡⲟⲥ	-10792
▁ϩⲛⲟⲩϣⲟϫⲛⲉ	-10793
▁ϩⲛⲧⲉϥⲟⲣⲅⲏ	-10794
▁ϩⲛⲧⲉⲛⲙⲏⲧⲉ	-10795
▁ϫⲉϥⲛⲁϣⲱⲡⲉ	-10796
▁ϫⲉⲙⲁⲧⲁⲙⲟⲓ	-10797
▁ϫⲉⲙⲡⲉⲣⲧⲣⲉ	-10798
▁ϫⲉⲛⲁⲓⲁⲧⲟⲩ	-10799
▁ⲁϥϫⲓⲙⲟⲉⲓⲧ	-10800
▁ⲁϥⲧⲁⲙⲓⲟⲟⲩ	-10801
▁ⲁϥⲧⲟⲩⲛⲟⲥϥ	-10802
▁ⲁⲥⲁϩⲉⲣⲁⲧⲥ	-10803
▁ⲁⲩⲛⲏⲥⲧⲉⲩⲉ	-10804
▁ⲁⲩⲡⲟⲗⲉⲙⲉⲓ	-10805
▁ⲉϥϣⲁⲛⲥⲱⲧⲙ	-10806
▁ⲉϥⲉⲟⲩⲁϩⲟⲩ	-10807
▁ⲉϩⲟⲩⲉⲣⲟⲟⲩ	-10808
▁ⲉϫⲙⲡⲁⲗⲁⲟⲥ	-10809
▁ⲉⲓⲱϩⲁⲛⲛⲏⲥ	-10810
▁ⲉⲛⲁϩⲓⲟⲟⲩⲉ	-10811
▁ⲉⲛⲧⲁϥϫⲟⲟⲩ	-10812
▁ⲉⲛⲧⲁⲩϣⲱϫⲡ	-10813
▁ⲉⲡⲉϥϫⲟⲉⲓⲥ	-10814
▁ⲉⲧⲉϥⲥϩⲓⲙⲉ	-10815
▁ⲉⲧⲉⲛⲉⲣⲅⲉⲓ	-10816
▁ⲉⲧⲉⲧⲛϣⲟⲟⲡ	-10817
▁ⲉⲧⲕⲓⲃⲱⲧⲟⲥ	-10818
▁ⲉⲧⲣⲉⲩⲉⲓⲣⲉ	-10819
▁ⲉⲩⲥⲧⲁⲑⲓⲟⲥ	-10820
▁ⲕⲁⲧⲁⲡϣⲁϫⲉ	-10821
▁ⲙⲙⲉⲧⲁⲛⲟⲓⲁ	-10822
▁ⲙⲛⲛⲓⲟⲩⲇⲁⲓ	-10823
▁ⲙⲛⲛⲥⲁⲧⲣⲉⲩ	-10824
▁ⲙⲛⲟⲩⲙⲏⲏϣⲉ	-10825
▁ⲙⲛⲡⲁϫⲟⲉⲓⲥ	-10826
▁ⲙⲛⲧϩⲁⲓⲃⲉⲥ	-10827
▁ⲙⲡⲁⲡⲛⲉⲩⲙⲁ	-10828
▁ⲙⲡⲁⲡⲟⲗⲗⲱⲛ	-10829
▁ⲙⲡⲉⲡϫⲟⲉⲓⲥ	-10830
▁ⲙⲡⲉⲡⲛⲟⲩⲧⲉ	-10831
▁ⲙⲡⲉⲧϩⲙⲟⲟⲥ	-10832
▁ⲙⲡⲉⲧⲛⲉⲓⲱⲧ	-10833
▁ⲙⲡⲣϣⲧⲟⲣⲧⲣ	-10834
▁ⲛϩⲉⲃⲣⲁⲓⲟⲥ	-10835
▁ⲛϭⲓⲃⲁⲣⲟⲩⲭ	-10836
▁ⲛϭⲓⲏⲥⲁⲓⲁⲥ	-10837
▁ⲛϭⲓⲛϣⲉⲉⲣⲉ	-10838
▁ⲛϭⲓⲡϩⲙϩⲁⲗ	-10839
▁ⲛⲁⲇⲣⲁⲁⲍⲁⲣ	-10840
▁ⲛⲃⲏⲑⲥⲁⲙⲏⲥ	-10841
▁ⲛⲉϥⲉⲛⲕⲟⲧⲕ	-10842
▁ⲛⲉⲧⲛⲉⲓⲟⲧⲉ	-10843
▁ⲛⲓⲉⲃⲟⲩⲥⲑⲉ	-10844
▁ⲛⲛⲁⲥⲡⲟⲧⲟⲩ	-10845
▁ⲛⲛⲉϥϣⲃⲉⲉⲣ	-10846
▁ⲛⲛⲉⲓⲇⲱⲗⲟⲛ	-10847
▁ⲛⲛⲉⲓⲡⲟⲗⲓⲥ	-10848
▁ⲛⲛⲉⲕϣⲡⲏⲣⲉ	-10849
▁ⲛⲛⲉⲟⲩⲟⲉⲓϣ	-10850
▁ⲛⲛⲉⲧⲛⲟⲩⲱⲙ	-10851
▁ⲛⲛⲉⲧⲧⲱⲟⲩⲛ	-10852
▁ⲛⲟⲩϩⲉⲗⲡⲓⲥ	-10853
▁ⲛⲟⲩϩⲟⲉⲓⲧⲉ	-10854
▁ⲛⲟⲩⲑⲗⲓⲯⲓⲥ	-10855
▁ⲛⲟⲩⲙⲛⲧⲣⲣⲟ	-10856
▁ⲛⲥⲁⲃⲃⲁⲧⲟⲛ	-10857
▁ⲛⲧϩⲟⲣⲁⲥⲓⲥ	-10858
▁ⲛⲧⲁϥⲟⲩⲱⲛϩ	-10859
▁ⲛⲧⲉϥⲥⲕⲏⲛⲏ	-10860
▁ⲛⲧⲉϥⲫⲓⲁⲗⲏ	-10861
▁ⲛⲧⲉⲕⲧⲁⲡⲣⲟ	-10862
▁ⲛⲧⲉⲣⲉϥⲟⲩⲱ	-10863
▁ⲛⲧⲉⲣⲓⲥⲱⲧⲙ	-10864
▁ⲛⲧⲉⲧⲛⲉⲓⲛⲉ	-10865
▁ⲛⲧⲕⲩⲣⲓⲁⲕⲏ	-10866
▁ⲟⲩⲁⲅⲅⲉⲗⲟⲥ	-10867
▁ⲟⲩⲛⲟⲙⲓⲙⲟⲛ	-10868
▁ⲡⲉϫⲉⲛⲣⲱⲙⲉ	-10869
▁ⲡⲉⲧⲁⲙⲁϩⲧⲉ	-10870
▁ⲡⲉⲧⲛⲁϣⲓⲛⲉ	-10871
▁ⲡⲕⲁⲣⲙⲏⲗⲟⲥ	-10872
▁ⲡⲥⲁⲃⲃⲁⲧⲟⲛ	-10873
▁ⲧⲉϥⲙⲛⲧⲣⲣⲟ	-10874
▁ⲧⲉⲕⲕⲗⲏⲥⲓⲁ	-10875
▁ⲧⲕⲟⲓⲃⲱⲧⲟⲥ	-10876
ⲓⲥⲣⲁⲏⲗⲓⲧⲏⲥ	-10877
ⲡⲣⲁⲓⲧⲱⲣⲓⲟⲛ	-10878
ⲧⲁⲗⲁⲓⲡⲱⲣⲟⲥ	-10879
▁ϩⲓⲧⲙⲡⲁⲉⲓⲱⲧ	-10880
▁ϩⲙⲡⲉϥⲧⲏⲏⲃⲉ	-10881
▁ϩⲙⲡⲉⲥⲡⲉⲣⲙⲁ	-10882
▁ϩⲛⲛⲉⲩⲡⲟⲗⲓⲥ	-10883
▁ϩⲛⲟⲩⲕⲓⲑⲁⲣⲁ	-10884
▁ⲉϥⲧⲁϣⲉⲟⲉⲓϣ	-10885
▁ⲉϩⲉⲛⲁⲅⲁⲑⲟⲛ	-10886
▁ⲉϩⲛⲡⲉⲧϩⲟⲟⲩ	-10887
▁ⲉⲧⲉⲧⲛϣⲁⲛⲧⲙ	-10888
▁ⲉⲧⲉⲧⲛⲉϣⲱⲡⲉ	-10889
▁ⲉⲧⲉⲧⲛⲙⲉⲉⲩⲉ	-10890
▁ⲉⲧⲣⲉⲧⲛⲉⲓⲙⲉ	-10891
▁ⲉⲩⲙⲉⲧⲁⲛⲟⲓⲁ	-10892
▁ⲕⲁⲧⲁⲡⲛⲟⲩⲧⲉ	-10893
▁ⲙⲙⲛⲧⲣⲙⲛϩⲏⲧ	-10894
▁ⲙⲛⲙⲡⲉⲧϩⲟⲟⲩ	-10895
▁ⲙⲛⲛϩⲏⲅⲉⲙⲱⲛ	-10896
▁ⲙⲛⲛⲉϥϣⲉⲉⲣⲉ	-10897
▁ⲙⲛⲛⲉⲩϣⲉⲉⲣⲉ	-10898
▁ⲙⲛⲟⲩⲛⲟϭⲛⲉϭ	-10899
▁ⲙⲡⲁⲧϣⲉⲗⲉⲉⲧ	-10900
▁ⲙⲡⲉⲓⲣⲁⲥⲙⲟⲥ	-10901
▁ⲙⲡⲟⲩϣϭⲙϭⲟⲙ	-10902
▁ⲛϩⲉⲛϭⲟⲟⲩⲛⲉ	-10903
▁ⲛϩⲉⲛⲁⲅⲁⲑⲟⲛ	-10904
▁ⲛϭⲓⲙⲱⲟⲩⲥⲏⲥ	-10905
▁ⲛϭⲓⲟⲩⲙⲏⲏϣⲉ	-10906
▁ⲛⲉϥⲁⲅⲅⲉⲗⲟⲥ	-10907
▁ⲛⲉⲧⲡⲓⲥⲧⲉⲩⲉ	-10908
▁ⲛⲉⲩⲥⲧⲁⲑⲓⲟⲥ	-10909
▁ⲛⲛⲉⲧⲛⲟⲩⲟⲙϥ	-10910
▁ⲛⲟⲩⲥⲁⲗⲡⲓⲅⲝ	-10911
▁ⲛⲧⲉⲕⲙⲛⲧⲣⲣⲟ	-10912
▁ⲛⲧⲉⲣⲉϥϭⲱϣⲧ	-10913
▁ⲛⲧⲉⲣⲉⲥⲥⲱⲧⲙ	-10914
▁ⲛⲧⲙⲛⲧⲟⲩⲏⲏⲃ	-10915
▁ⲡⲉϣⲁⲩⲙⲟⲩⲧⲉ	-10916
▁ⲡⲉϫⲉⲅⲉⲇⲉⲱⲛ	-10917
▁ⲡⲉϫⲉⲡⲁⲩⲗⲟⲥ	-10918
▁ⲡⲉⲧⲛⲁϩⲁⲣⲉϩ	-10919
▁ⲡⲉⲧⲛⲁⲙⲟⲟϣⲉ	-10920
▁ⲡⲉⲧⲟⲩⲙⲟⲩⲧⲉ	-10921
▁ⲡⲟⲓⲕⲟⲛⲟⲙⲟⲥ	-10922
▁ⲧⲙⲁⲅⲇⲁⲗⲏⲛⲏ	-10923
▁ⲧⲙⲛⲧⲣⲙⲛϩⲏⲧ	-10924
▁ϩⲛⲛⲉϥⲥⲡⲟⲧⲟⲩ	-10925
▁ϩⲛⲛⲉⲕϩⲓⲟⲟⲩⲉ	-10926
▁ϩⲛⲛⲉⲩϩⲓⲟⲟⲩⲉ	-10927
▁ϫⲉⲉⲣⲉⲡⲛⲟⲩⲧⲉ	-10928
▁ⲁϥⲡⲣⲟⲫⲏⲧⲉⲩⲉ	-10929
▁ⲉⲡⲉⲛⲧⲁϥϣⲱⲡⲉ	-10930
▁ⲉⲡⲉⲧϩⲓⲧⲟⲩⲱⲕ	-10931
▁ⲕⲁⲧⲁⲡⲉϥⲟⲩⲱϣ	-10932
▁ⲙⲛⲛⲉⲧⲛϣⲉⲉⲣⲉ	-10933
▁ⲙⲛⲛⲉⲧⲛⲉⲓⲟⲧⲉ	-10934
▁ⲙⲛⲛⲣⲉϥⲣⲛⲟⲃⲉ	-10935
▁ⲙⲡⲉϥⲥⲧⲁⲩⲣⲟⲥ	-10936
▁ⲙⲡⲉⲡⲣⲟⲫⲏⲧⲏⲥ	-10937
▁ⲛϭⲓϩⲉⲛⲙⲏⲏϣⲉ	-10938
▁ⲛϭⲓⲡⲗⲁⲕⲏⲧⲁⲥ	-10939
▁ⲛⲙⲡⲉⲧϣⲟⲩⲉⲓⲧ	-10940
▁ⲛⲛⲉⲛⲧⲁⲩϣⲱⲡⲉ	-10941
▁ⲛⲟⲩⲙⲛⲧⲙⲛⲧⲣⲉ	-10942
▁ⲛⲟⲩⲙⲛⲧⲣⲙⲙⲁⲟ	-10943
▁ⲛⲧⲁⲛⲁⲥⲧⲁⲥⲓⲥ	-10944
▁ⲛⲧⲉⲡⲉⲡⲛⲉⲩⲙⲁ	-10945
▁ⲛⲧⲉⲣⲉⲡϫⲟⲉⲓⲥ	-10946
▁ⲡⲓⲥⲕⲁⲣⲓⲱⲧⲏⲥ	-10947
ⲡⲣⲟⲥⲕⲁⲣⲧⲉⲣⲉⲓ	-10948
ⲧⲁⲇⲓⲕⲁⲓⲟⲥⲩⲛⲏ	-10949
▁............	-10950
▁ϩⲁⲧⲛⲧⲑⲁⲗⲁⲥⲥⲁ	-10951
▁ϩⲛⲛⲉϥⲙⲁⲑⲏⲧⲏⲥ	-10952
▁ϩⲛⲛⲉⲡⲣⲟⲫⲏⲧⲏⲥ	-10953
▁ϩⲛⲧⲙⲁⲕⲉⲇⲟⲛⲓⲁ	-10954
▁ϫⲓⲛⲧⲉϩⲟⲩⲉⲓⲧⲉ	-10955
▁ⲉⲛⲉⲕⲙⲛⲧⲙⲛⲧⲣⲉ	-10956
▁ⲉⲡⲉⲭⲉⲓⲙⲁⲣⲣⲟⲥ	-10957
▁ⲉⲣⲉⲡⲉⲧⲛⲁⲛⲟⲩϥ	-10958
▁ⲉⲧϩⲛⲛⲉⲕⲡⲟⲗⲓⲥ	-10959
▁ⲙⲛⲛⲥⲁϩⲉⲛϩⲟⲟⲩ	-10960
▁ⲙⲡⲉⲭⲉⲓⲙⲁⲣⲣⲟⲥ	-10961
▁ⲛϩⲟⲗⲟⲕⲁⲩⲧⲱⲙⲁ	-10962
▁ⲛϭⲓⲉⲩⲥⲧⲁⲑⲓⲟⲥ	-10963
▁ⲛⲛⲁⲗⲗⲟⲫⲩⲗⲗⲟⲥ	-10964
▁ⲛⲧⲉⲓⲡⲁⲣⲁⲃⲟⲗⲏ	-10965
▁ⲡⲉⲅⲣⲁⲙⲙⲁⲧⲉⲩⲥ	-10966
▁ⲡⲉⲡⲣⲟⲥⲏⲗⲩⲧⲟⲥ	-10967
▁ϩⲙⲡⲥⲩⲛϩⲉⲇⲣⲓⲟⲛ	-10968
▁ⲉϫⲛⲧⲟⲓⲕⲟⲩⲙⲉⲛⲏ	-10969
▁ⲙⲛⲧⲇⲓⲕⲁⲓⲟⲥⲩⲛⲏ	-10970
▁ⲙⲡⲡⲁⲛⲧⲟⲕⲣⲁⲧⲱⲣ	-10971
▁ⲛⲧⲁⲕⲗⲏⲣⲟⲛⲟⲙⲓⲁ	-10972
▁ⲛⲧⲉⲛⲁⲗⲗⲟⲫⲩⲗⲟⲥ	-10973
▁ⲡⲉⲥⲧⲣⲁⲧⲏⲗⲁⲧⲏⲥ	-10974
▁ϩⲛⲛⲉⲫⲁⲣⲓⲥⲥⲁⲓⲟⲥ	-10975
▁ⲙⲛⲡⲉϥⲥⲧⲣⲁⲧⲉⲩⲙⲁ	-10976
▁ⲛⲧⲉϥⲇⲓⲕⲁⲓⲟⲥⲩⲛⲏ	-10977
▁ⲛⲧⲉⲥⲁⲥⲭⲏⲙⲟⲥⲩⲛⲏ	-10978
▁...............	-10979
▁ϩⲛⲛⲉⲡⲣⲉⲥⲃⲩⲧⲉⲣⲟⲥ	-10980
▁ⲉⲡⲉⲑⲩⲥⲓⲁⲥⲧⲏⲣⲓⲟⲛ	-10981
ϣⲗ	-10982
ϫϭ	-10983
ϭϩ	-10984
▁ⲩ	-10985
ⲅⲟ	-10986
ⲓⲃ	-10987
ⲩⲗ	-10988
ⲩⲭ	-10989
ⲫⲑ	-10990
ⲭϩ	-10991
ⲱⲉ	-10992
···	-10993
ϣⲁⲗ	-10994
ϣⲉⲓ	-10995
ϣⲏϣ	-10996
ϩⲓⲱ	-10997
ϫⲓⲕ	-10998
ϫⲟⲓ	-10999
ϫⲣⲉ	-11000
ϭⲏⲩ	-11001
ϭⲓⲥ	-11002
ϭⲗⲟ	-11003
▁ϣⲙ	-11004
▁ϥϯ	-11005
▁ϥⲣ	-11006
▁ϩⲃ	-11007
▁ϭⲛ	-11008
▁ϯⲣ	-11009
▁ⲃⲃ	-11010
▁ⲉⲃ	-11011
▁ⲉⲅ	-11012
▁ⲟⲙ	-11013
▁ⲡⲛ	-11014
▁ⲣⲟ	-11015
▁ⲱⲅ	-11016
▁ⲱⲡ	-11017
ⲁⲡⲟ	-11018
ⲁⲩⲉ	-11019
ⲃⲁϩ	-11020
ⲃⲁⲕ	-11021
ⲃⲏⲥ	-11022
ⲃⲗⲁ	-11023
ⲃⲧⲉ	-11024
ⲅⲁⲅ	-11025
ⲇⲁⲇ	-11026
ⲉⲛⲉ	-11027
ⲉⲧⲉ	-11028
ⲍⲉⲗ	-11029
ⲍⲏⲃ	-11030
ⲑⲙⲥ	-11031
ⲕⲉϥ	-11032
ⲕⲣⲙ	-11033
ⲗⲁⲃ	-11034
ⲗⲉϥ	-11035
ⲗⲉⲁ	-11036
ⲙⲉⲧ	-11037
ⲙⲱⲑ	-11038
ⲛⲁⲧ	-11039
ⲛⲓⲝ	-11040
ⲟⲗⲕ	-11041
ⲟⲧⲓ	-11042
ⲟⲧⲡ	-11043
ⲡⲏⲡ	-11044
ⲡⲟⲓ	-11045
ⲡⲥⲁ	-11046
ⲡⲱⲕ	-11047
ⲣϣⲱ	-11048
ⲥⲓⲟ	-11049
ⲥⲥⲁ	-11050
ⲥⲧⲟ	-11051
ⲥⲧⲩ	-11052
ⲥⲧⲱ	-11053
ⲧⲉϩ	-11054
ⲧⲉϭ	-11055
ⲧⲉⲡ	-11056
ⲧⲓⲙ	-11057
ⲧⲟⲉ	-11058
ⲧⲥⲃ	-11059
ⲧⲱϥ	-11060
ⲭⲟⲩ	-11061
ⲱϣⲧ	-11062
ⲱⲛⲁ	-11063
ⲱⲧϥ	-11064
ϣⲙⲏⲛ	-11065
ϣⲟⲡⲕ	-11066
ϥϭⲓϫ	-11067
ϥⲟϭϥ	-11068
ϥⲟⲧⲕ	-11069
ϩⲁⲣϣ	-11070
ϩⲁⲧⲛ	-11071
ϩⲉⲧⲃ	-11072
ϩⲏⲣⲱ	-11073
ϩⲓϩⲏ	-11074
ϩⲛⲁⲕ	-11075
ϩⲟⲟⲣ	-11076
ϩⲧⲏⲛ	-11077
ϫⲡⲟⲥ	-11078
ϭⲛⲁⲧ	-11079
ϭⲛⲧϥ	-11080
ϭⲟⲗϫ	-11081
ϭⲟⲛⲧ	-11082
▁ϩⲁⲏ	-11083
▁ϩⲓⲏ	-11084
▁ϩⲓⲣ	-11085
▁ϩⲣⲏ	-11086
▁ϫⲡⲓ	-11087
▁ϯⲡⲉ	-11088
▁ⲁⲣⲉ	-11089
▁ⲁⲩϫ	-11090
▁ⲃⲉⲣ	-11091
▁ⲇⲁⲛ	-11092
▁ⲏϩⲛ	-11093
▁ⲕⲟⲗ	-11094
▁ⲙⲙⲙ	-11095
▁ⲙⲛϩ	-11096
▁ⲙⲛϯ	-11097
▁ⲙⲛⲫ	-11098
▁ⲛϫⲱ	-11099
▁ⲛⲉϭ	-11100
▁ⲛⲉⲁ	-11101
▁ⲛⲡⲉ	-11102
▁ⲛⲱⲃ	-11103
▁ⲡⲁⲡ	-11104
▁ⲡⲉⲡ	-11105
▁ⲣⲱϥ	-11106
▁ⲣⲱⲧ	-11107
▁ⲥⲁⲃ	-11108
▁ⲧⲏⲙ	-11109
▁ⲧⲏⲩ	-11110
▁ⲧⲛⲁ	-11111
ⲁⲛⲟⲛ	-11112
ⲃⲁⲁⲗ	-11113
ⲃⲗϫⲉ	-11114
ⲅⲟⲣⲁ	-11115
ⲇⲟⲩⲣ	-11116
ⲉⲧⲡⲱ	-11117
ⲑⲓⲏⲗ	-11118
ⲓⲥⲃⲱ	-11119
ⲓⲥⲱⲛ	-11120
ⲕⲏⲣⲡ	-11121
ⲕⲓⲟⲥ	-11122
ⲕⲗϫⲉ	-11123
ⲕⲗⲗⲉ	-11124
ⲕⲟⲡⲏ	-11125
ⲗϩⲱⲃ	-11126
ⲗϯⲗⲉ	-11127
ⲗⲉⲓⲁ	-11128
ⲗⲏⲧⲁ	-11129
ⲗⲙⲱⲛ	-11130
ⲗⲟⲉⲓ	-11131
ⲗⲩⲡⲓ	-11132
ⲙⲉϩⲙ	-11133
ⲙⲉⲧⲁ	-11134
ⲙⲡⲣⲟ	-11135
ⲛⲟϭⲥ	-11136
ⲟϭⲟⲩ	-11137
ⲟⲟⲙⲉ	-11138
ⲟⲣϩϥ	-11139
ⲟⲩⲁⲥ	-11140
ⲟⲩⲟϩ	-11141
ⲡϩⲁⲧ	-11142
ⲡϩⲱⲃ	-11143
ⲡⲉⲩⲉ	-11144
ⲡⲓⲣⲉ	-11145
ⲡⲣⲏϣ	-11146
ⲡⲧⲉⲓ	-11147
ⲣⲁⲫⲏ	-11148
ⲣⲙϩⲏ	-11149
ⲣⲩⲫⲏ	-11150
ⲣⲱⲁⲥ	-11151
ⲥⲓⲛⲉ	-11152
ⲥⲙⲙⲉ	-11153
ⲥⲟⲃϩ	-11154
ⲥⲧⲟⲓ	-11155
ⲥⲱⲗⲡ	-11156
ⲥⲱⲱⲡ	-11157
ⲧⲁⲁⲛ	-11158
ⲧⲁⲍⲉ	-11159
ⲧⲃⲃⲉ	-11160
ⲧⲃⲉⲥ	-11161
ⲧⲓϫⲱ	-11162
ⲧⲙⲉϣ	-11163
ⲧⲟϭⲕ	-11164
ⲧⲟⲩⲛ	-11165
ⲩⲑⲣⲁ	-11166
ⲭⲏⲙⲁ	-11167
ϩⲁⲗⲓⲁ	-11168
ϩⲉⲗⲟⲥ	-11169
ϩⲏⲡⲁⲣ	-11170
ϩⲙⲡⲙⲁ	-11171
ϩⲟⲃⲥϥ	-11172
ϩⲟⲙⲟⲩ	-11173
ϩⲟⲣⲙⲏ	-11174
ϩⲟⲣⲟⲥ	-11175
ϩⲣⲁⲛⲧ	-11176
ϫⲓⲥⲙⲏ	-11177
ϫⲟⲟⲣⲉ	-11178
ϫⲟⲩⲧⲏ	-11179
ϫⲡⲓⲟⲕ	-11180
ϭⲁⲉⲓⲟ	-11181
ϭⲓⲛⲉⲓ	-11182
ϭⲗⲟⲧⲉ	-11183
ϭⲟⲙϭⲙ	-11184
ϯϩⲧⲏⲕ	-11185
▁ϣϭⲟⲙ	-11186
▁ϣⲁⲧⲉ	-11187
▁ϣⲟⲙⲧ	-11188
▁ϥϩⲏⲛ	-11189
▁ϥⲛⲁⲩ	-11190
▁ϩⲓⲙⲉ	-11191
▁ϩⲓⲱⲧ	-11192
▁ϩⲗⲟϭ	-11193
▁ϩⲛⲙⲙ	-11194
▁ϩⲟⲛϥ	-11195
▁ϩⲣⲁⲩ	-11196
▁ϩⲧⲏⲩ	-11197
▁ϫⲉⲁⲗ	-11198
▁ϫⲉⲙⲙ	-11199
▁ϫⲉⲣⲉ	-11200
▁ϫⲡⲓⲉ	-11201
▁ϫⲱⲟⲩ	-11202
▁ϭⲣⲱϩ	-11203
▁ϯϩⲁⲡ	-11204
▁ⲁϥϣⲓ	-11205
▁ⲁϥϭⲉ	-11206
▁ⲁϥⲃⲟ	-11207
▁ⲁϥⲑⲙ	-11208
▁ⲁϥⲙⲁ	-11209
▁ⲁϥⲟⲩ	-11210
▁ⲁϥⲥⲁ	-11211
▁ⲁϥⲥⲃ	-11212
▁ⲁϫⲓϥ	-11213
▁ⲁⲓⲕⲁ	-11214
▁ⲁⲓⲥⲁ	-11215
▁ⲁⲓⲥⲱ	-11216
▁ⲁⲛⲁϥ	-11217
▁ⲁⲛⲁⲓ	-11218
▁ⲁⲛⲉⲥ	-11219
▁ⲁⲩϭⲉ	-11220
▁ⲁⲩⲡⲉ	-11221
▁ⲉϣϣⲉ	-11222
▁ⲉϣⲁⲥ	-11223
▁ⲉϥϩⲙ	-11224
▁ⲉϥⲕⲱ	-11225
▁ⲉϥⲟⲩ	-11226
▁ⲉⲅⲉⲑ	-11227
▁ⲉⲑⲁⲣ	-11228
▁ⲉⲕⲧⲙ	-11229
▁ⲉⲙⲉⲥ	-11230
▁ⲉⲙⲡⲁ	-11231
▁ⲉⲙⲡⲓ	-11232
▁ⲉⲛⲉϫ	-11233
▁ⲉⲡϫⲓ	-11234
▁ⲉⲡⲁⲣ	-11235
▁ⲉⲣⲉⲙ	-11236
▁ⲉⲣⲏⲥ	-11237
▁ⲉⲣⲛⲉ	-11238
▁ⲉⲧⲕⲁ	-11239
▁ⲉⲱⲛϩ	-11240
▁ⲕⲣⲟϥ	-11241
▁ⲕⲧⲟⲕ	-11242
▁ⲙⲛⲅⲁ	-11243
▁ⲙⲛⲛⲛ	-11244
▁ⲙⲛⲥⲁ	-11245
▁ⲙⲡϥⲉ	-11246
▁ⲙⲡϩⲁ	-11247
▁ⲙⲡϩⲉ	-11248
▁ⲛϣϥⲉ	-11249
▁ⲛϣⲱⲥ	-11250
▁ⲛϩⲁⲗ	-11251
▁ⲛϩⲧⲟ	-11252
▁ⲛⲁⲓⲥ	-11253
▁ⲛⲅⲉⲑ	-11254
▁ⲛⲅⲗⲟ	-11255
▁ⲛⲉϥⲉ	-11256
▁ⲛⲉⲓⲁ	-11257
▁ⲛⲕⲁⲓ	-11258
▁ⲛⲕⲟⲧ	-11259
▁ⲛⲛⲉⲡ	-11260
▁ⲛⲛⲛⲁ	-11261
▁ⲛⲛⲣⲙ	-11262
▁ⲛⲟϫϥ	-11263
▁ⲛⲟⲩⲓ	-11264
▁ⲛⲟⲩⲛ	-11265
▁ⲛⲥⲏⲩ	-11266
▁ⲛⲥⲛⲁ	-11267
▁ⲛⲥⲧⲩ	-11268
▁ⲛⲧⲛⲁ	-11269
▁ⲟⲩⲏⲛ	-11270
▁ⲡⲕⲓⲛ	-11271
▁ⲡⲱⲣϫ	-11272
▁ⲣⲁⲧⲕ	-11273
▁ⲣⲱϣⲉ	-11274
▁ⲣⲱⲕϩ	-11275
▁ⲥⲁⲣⲝ	-11276
▁ⲥⲓⲃⲁ	-11277
▁ⲥⲱⲃⲉ	-11278
▁ⲧⲁⲁⲕ	-11279
▁ⲧⲉϥⲉ	-11280
▁ⲧⲛϫⲱ	-11281
▁ⲧⲥⲁⲃ	-11282
ⲁⲣⲉⲧⲏ	-11283
ⲃⲁϣⲟⲣ	-11284
ⲃⲁⲧⲟⲥ	-11285
ⲅⲁⲙⲟⲥ	-11286
ⲅⲓⲥⲧⲁ	-11287
ⲅⲣⲁⲙⲁ	-11288
ⲇⲟⲅⲙⲁ	-11289
ⲉⲓⲉⲓⲃ	-11290
ⲉⲛⲧⲟⲩ	-11291
ⲑⲙⲕⲟϥ	-11292
ⲓⲙⲟⲟⲩ	-11293
ⲓⲙⲟⲩⲑ	-11294
ⲕⲁⲧⲟⲣ	-11295
ⲕⲉⲣⲏⲧ	-11296
ⲕⲓⲱⲟⲩ	-11297
ⲕⲟⲛⲥϥ	-11298
ⲕⲩⲣⲓⲁ	-11299
ⲕⲱⲛⲓⲁ	-11300
ⲗⲁⲓⲟⲛ	-11301
ⲗⲉⲝⲁⲛ	-11302
ⲙⲁⲛⲛⲁ	-11303
ⲙⲙⲱⲁⲃ	-11304
ⲛϩⲏⲧⲥ	-11305
ⲛⲁϩⲃⲉ	-11306
ⲛⲁⲙⲟⲣ	-11307
ⲛⲉⲣⲏⲧ	-11308
ⲛⲟⲩⲏⲗ	-11309
ⲛⲱⲛⲛⲁ	-11310
ⲟⲗⲩⲙⲁ	-11311
ⲟⲟⲩⲧⲛ	-11312
ⲟⲩⲛⲧⲉ	-11313
ⲟⲩⲱⲛⲧ	-11314
ⲡⲉϥⲙⲁ	-11315
ⲡⲉϥⲛⲁ	-11316
ⲡⲉⲓⲗⲏ	-11317
ⲡⲏⲥⲥⲉ	-11318
ⲡⲓⲃⲟⲩ	-11319
ⲡⲓⲥⲧⲏ	-11320
ⲡⲟⲣϫⲛ	-11321
ⲡⲱⲱⲣⲉ	-11322
ⲣⲁⲃⲓⲁ	-11323
ⲣⲁⲃⲱⲑ	-11324
ⲣⲁⲛⲁⲕ	-11325
ⲣⲁⲛⲁⲩ	-11326
ⲣⲙⲗⲁϩ	-11327
ⲣⲟⲙⲟⲥ	-11328
ⲥⲁⲙⲩⲥ	-11329
ⲥⲁⲛⲛⲁ	-11330
ⲥⲁⲧⲃⲉ	-11331
ⲥⲁⲫⲁⲧ	-11332
ⲥⲟⲛϩϥ	-11333
ⲥⲧⲩⲗⲏ	-11334
ⲧⲁϩⲥϥ	-11335
ⲧⲁⲓⲟⲩ	-11336
ⲧⲁⲗⲟⲥ	-11337
ⲧⲁⲣⲱⲑ	-11338
ⲧⲁⲧⲏⲥ	-11339
ⲧⲉⲓϩⲉ	-11340
ⲧⲉⲧⲛⲟ	-11341
ⲧⲏⲣⲉⲓ	-11342
ⲧⲏⲣⲟⲩ	-11343
ⲧⲏⲥⲓⲥ	-11344
ⲧⲓⲛⲟⲥ	-11345
ⲧⲛⲟϣϥ	-11346
ⲧⲟⲩⲛⲁ	-11347
ⲧⲟⲩⲟⲕ	-11348
ⲧⲟⲩⲱⲙ	-11349
ⲧⲟⲫⲉⲗ	-11350
ⲧⲣⲓⲁⲥ	-11351
ⲧⲥⲛⲕⲟ	-11352
ⲫⲣⲁⲑⲁ	-11353
ⲭⲙⲁⲗⲱ	-11354
ⲭⲟⲩⲥⲓ	-11355
ϣⲟⲣⲡⲟⲩ	-11356
ϣⲥⲛϩⲏⲧ	-11357
ϩⲉⲣⲁⲧϥ	-11358
ϩⲕⲟⲉⲓⲧ	-11359
ϩⲣϣⲓⲣⲉ	-11360
ϫⲟⲩⲱⲧⲉ	-11361
ϭⲁⲃϩⲏⲧ	-11362
ϭⲓⲛⲱⲛϩ	-11363
ϯⲛⲁⲁⲁϥ	-11364
ϯⲟⲩⲃⲏⲓ	-11365
▁ϥϭⲱϣⲧ	-11366
▁ϥⲛⲁⲕⲁ	-11367
▁ϥⲟⲧⲟⲩ	-11368
▁ϩⲁϩⲁϩ	-11369
▁ϩⲁϩⲉⲛ	-11370
▁ϩⲁⲧⲏⲛ	-11371
▁ϩⲓϩⲉⲛ	-11372
▁ϩⲓϫⲛⲡ	-11373
▁ϩⲓⲡⲥⲁ	-11374
▁ϩⲓⲧⲉⲛ	-11375
▁ϩⲓⲱⲱⲛ	-11376
▁ϩⲛϯⲟⲩ	-11377
▁ϩⲛⲅⲁⲓ	-11378
▁ϩⲛⲙⲁⲥ	-11379
▁ϩⲛⲛⲁⲅ	-11380
▁ϩⲛⲡⲉϥ	-11381
▁ϩⲛⲡⲉⲕ	-11382
▁ϩⲛⲣⲱⲓ	-11383
▁ϩⲛⲣⲱⲕ	-11384
▁ϩⲩⲡⲟⲙ	-11385
▁ϫⲉⲁⲛⲣ	-11386
▁ϫⲉⲁⲩϯ	-11387
▁ϫⲉⲃⲱⲗ	-11388
▁ϫⲉⲕⲁⲛ	-11389
▁ϫⲉⲛⲁⲥ	-11390
▁ϫⲉⲡⲉⲛ	-11391
▁ϫⲓⲛⲉϥ	-11392
▁ϫⲓⲟⲟⲣ	-11393
▁ϫⲓⲧⲟⲩ	-11394
▁ϫⲛⲟⲩϥ	-11395
▁ϫⲱⲱⲣⲉ	-11396
▁ⲁϣⲕⲁⲕ	-11397
▁ⲁϥϫⲣⲟ	-11398
▁ⲁϥⲁⲁⲩ	-11399
▁ⲁϥⲟⲩⲱ	-11400
▁ⲁⲓⲟⲩⲱ	-11401
▁ⲁⲓⲣⲟⲩ	-11402
▁ⲁⲓⲱⲣⲕ	-11403
▁ⲁⲛⲅⲟⲩ	-11404
▁ⲁⲩⲙⲉϩ	-11405
▁ⲁⲩⲥⲱⲕ	-11406
▁ⲉϣⲁⲩⲥ	-11407
▁ⲉϥϩⲏⲛ	-11408
▁ⲉϥϩⲙⲡ	-11409
▁ⲉϥϩⲱⲡ	-11410
▁ⲉϥⲉϭⲱ	-11411
▁ⲉϥⲛⲁⲥ	-11412
▁ⲉϩⲣⲁⲥ	-11413
▁ⲉϫⲓⲧⲥ	-11414
▁ⲉϫⲛϩⲛ	-11415
▁ⲉϫⲟⲟϥ	-11416
▁ⲉⲁϥⲕⲁ	-11417
▁ⲉⲁϥⲕⲱ	-11418
▁ⲉⲓⲛⲁⲣ	-11419
▁ⲉⲓⲛⲏⲩ	-11420
▁ⲉⲕⲉϥⲓ	-11421
▁ⲉⲕⲛⲁⲣ	-11422
▁ⲉⲗⲓⲁⲃ	-11423
▁ⲉⲡⲓⲥⲁ	-11424
▁ⲉⲡⲱⲣϫ	-11425
▁ⲉⲥⲏⲗⲱ	-11426
▁ⲉⲥⲓⲱⲛ	-11427
▁ⲉⲥⲙⲉϩ	-11428
▁ⲉⲥⲛⲏϫ	-11429
▁ⲉⲥⲟⲟϥ	-11430
▁ⲉⲧⲃⲃⲟ	-11431
▁ⲉⲧⲃⲏⲧ	-11432
▁ⲉⲧⲉⲛⲉ	-11433
▁ⲉⲧⲥⲛⲁ	-11434
▁ⲉⲧⲱⲃϩ	-11435
▁ⲉⲩϫⲏⲕ	-11436
▁ⲉⲩⲛⲁϣ	-11437
▁ⲉⲩⲱⲛⲉ	-11438
▁ⲕⲉⲓⲣⲉ	-11439
▁ⲕⲩⲣⲟⲥ	-11440
▁ⲙⲉⲗⲟⲥ	-11441
▁ⲙⲉⲥⲧⲉ	-11442
▁ⲙⲙⲁⲁⲩ	-11443
▁ⲙⲙⲏⲧⲉ	-11444
▁ⲙⲙⲱⲟⲩ	-11445
▁ⲙⲛϩⲙⲉ	-11446
▁ⲙⲛⲛⲕⲉ	-11447
▁ⲙⲛⲡⲟⲩ	-11448
▁ⲙⲟϣⲧϥ	-11449
▁ⲙⲡϣⲏⲓ	-11450
▁ⲙⲡϣⲱⲙ	-11451
▁ⲙⲡⲉϥϯ	-11452
▁ⲙⲡⲉⲓⲥ	-11453
▁ⲙⲡⲉⲧⲟ	-11454
▁ⲙⲡⲉⲧⲣ	-11455
▁ⲙⲡⲓⲛⲉ	-11456
▁ⲙⲡⲥⲱϣ	-11457
▁ⲙⲡⲧⲁⲡ	-11458
▁ⲛϣⲙϣⲉ	-11459
▁ⲛϣⲱϫⲡ	-11460
▁ⲛϥⲧⲣⲉ	-11461
▁ⲛϩⲉⲛⲕ	-11462
▁ⲛϫⲓⲥⲉ	-11463
▁ⲛϫⲟⲟⲥ	-11464
▁ⲛϫⲣⲟⲡ	-11465
▁ⲛϭⲓⲙⲁ	-11466
▁ⲛⲁⲛⲁϣ	-11467
▁ⲛⲁⲛⲁⲛ	-11468
▁ⲛⲁⲥⲉⲓ	-11469
▁ⲛⲁⲥⲱⲣ	-11470
▁ⲛⲁⲱⲥⲕ	-11471
▁ⲛⲃⲗϫⲉ	-11472
▁ⲛⲉϥϩⲙ	-11473
▁ⲛⲉⲛⲕⲁ	-11474
▁ⲛⲉⲡⲏⲡ	-11475
▁ⲛⲉⲥⲟⲩ	-11476
▁ⲛⲉⲧϫⲓ	-11477
▁ⲛⲉⲧⲏⲡ	-11478
▁ⲛⲉⲩⲏⲓ	-11479
▁ⲛⲓⲉⲣⲟ	-11480
▁ⲛⲕⲉⲉⲥ	-11481
▁ⲛⲕⲟⲣⲉ	-11482
▁ⲛⲙⲙⲟⲛ	-11483
▁ⲛⲛϩⲟϥ	-11484
▁ⲛⲛⲁⲣⲭ	-11485
▁ⲛⲛⲉⲧϯ	-11486
▁ⲛⲟⲩϣⲓ	-11487
▁ⲛⲟⲩϩⲙ	-11488
▁ⲛⲟⲩϫⲟ	-11489
▁ⲛⲟⲩⲥⲁ	-11490
▁ⲛⲥⲁⲗⲁ	-11491
▁ⲛⲥⲁⲥⲁ	-11492
▁ⲛⲥⲟϭⲛ	-11493
▁ⲛⲥⲱⲙⲁ	-11494
▁ⲛⲥⲱⲧⲉ	-11495
▁ⲛⲧⲁⲕⲟ	-11496
▁ⲛⲧⲉⲕⲉ	-11497
▁ⲛⲧⲉⲧⲁ	-11498
▁ⲛⲧⲙⲡⲁ	-11499
▁ⲛⲱⲃⲏⲗ	-11500
▁ⲟⲛⲧⲱⲥ	-11501
▁ⲟⲩϩⲧⲟ	-11502
▁ⲟⲩⲁⲁⲕ	-11503
▁ⲟⲩⲃⲏⲩ	-11504
▁ⲟⲩⲏⲟⲩ	-11505
▁ⲟⲩⲙⲁⲥ	-11506
▁ⲟⲩⲙⲟⲩ	-11507
▁ⲟⲩⲛⲧⲕ	-11508
▁ⲟⲩⲧⲱⲕ	-11509
▁ⲡϣⲓⲡⲉ	-11510
▁ⲡϩⲓⲥⲉ	-11511
▁ⲡⲁϩⲣⲉ	-11512
▁ⲡⲁⲃⲁⲗ	-11513
▁ⲡⲁⲣⲁⲡ	-11514
▁ⲡⲉϣⲁⲩ	-11515
▁ⲡⲉϫⲉⲛ	-11516
▁ⲡⲉϫⲡⲟ	-11517
▁ⲡⲉⲧϫⲟ	-11518
▁ⲡⲟⲗⲓⲥ	-11519
▁ⲡⲥⲱⲧⲡ	-11520
▁ⲥⲁϩⲟⲩ	-11521
▁ⲥⲁϩⲱϥ	-11522
▁ⲥⲉⲉⲡⲉ	-11523
▁ⲥⲙⲛⲧϥ	-11524
▁ⲥⲟⲃⲧⲉ	-11525
▁ⲥⲟⲧⲡϥ	-11526
▁ⲧⲁϩⲟⲕ	-11527
▁ⲧⲉⲓϩⲉ	-11528
▁ⲧⲉⲧⲛϯ	-11529
▁ⲧⲟⲩⲱϥ	-11530
▁ⲧⲡⲏⲅⲏ	-11531
▁ⲧⲥⲱⲛⲉ	-11532
▁ⲫⲁⲣⲁⲱ	-11533
▁ⲭⲣⲉⲓⲁ	-11534
ⲁⲇⲓⲕⲓⲁ	-11535
ⲁⲓⲧⲏⲙⲁ	-11536
ⲅⲅⲉⲗⲓⲁ	-11537
ⲅⲉⲓⲣⲟⲥ	-11538
ⲇⲁⲛⲓⲏⲗ	-11539
ⲇⲁⲣⲓⲟⲛ	-11540
ⲇⲣⲁⲉⲓⲛ	-11541
ⲑⲁⲣⲥⲓⲥ	-11542
ⲑⲃⲃⲓⲟⲓ	-11543
ⲑⲉⲛⲉⲓⲁ	-11544
ⲑⲓⲁⲣⲓⲙ	-11545
ⲕⲉϩⲟⲟⲩ	-11546
ⲕⲗⲏⲧⲟⲥ	-11547
ⲕⲟⲕⲕⲟⲥ	-11548
ⲕⲟⲡⲣⲓⲁ	-11549
ⲗⲉϭⲗⲱϭ	-11550
ⲙⲁⲥⲧⲓⲝ	-11551
ⲙⲙⲉⲗⲟⲥ	-11552
ⲙⲛⲕⲏⲙⲉ	-11553
ⲙⲟⲕϩⲟⲩ	-11554
ⲙⲟⲟⲩⲧⲕ	-11555
ⲙⲟⲧⲛⲉⲥ	-11556
ⲛⲁⲣⲓⲟⲛ	-11557
ⲛⲟⲙⲟⲑⲉ	-11558
ⲛⲟⲩⲱϣϥ	-11559
ⲟⲩⲉϣⲟⲩ	-11560
ⲟⲩⲛϭⲟⲙ	-11561
ⲟⲩⲟϣⲃⲉ	-11562
ⲟⲩⲥⲙⲟⲩ	-11563
ⲟⲩⲥⲛⲟϥ	-11564
ⲡⲉⲥϩⲁⲓ	-11565
ⲡⲓⲕⲁⲗⲓ	-11566
ⲣⲁⲛⲓⲟⲛ	-11567
ⲣⲁⲛⲛⲟⲥ	-11568
ⲣⲏϫⲛⲟⲩ	-11569
ⲣⲟⲟⲩⲛⲉ	-11570
ⲣⲧⲩⲣⲟⲥ	-11571
ⲣⲭⲏⲅⲟⲥ	-11572
ⲥⲓⲕⲉⲣⲁ	-11573
ⲥⲟⲧⲃⲉϥ	-11574
ⲧⲁϫⲣⲟϥ	-11575
ⲧⲁⲇⲓⲟⲛ	-11576
ⲧⲁⲉⲓⲟⲩ	-11577
ⲧⲁⲗϭⲟⲓ	-11578
ⲧⲁⲗⲗⲟⲥ	-11579
ⲧⲁⲛϩⲟⲛ	-11580
ⲧⲛⲟⲉⲓⲕ	-11581
ⲧⲟⲟⲃⲟⲩ	-11582
ⲧⲣⲟⲭⲟⲥ	-11583
ⲧⲥⲟⲫⲓⲁ	-11584
ⲧⲩⲣⲓⲟⲛ	-11585
ⲩⲧⲉϩⲛⲉ	-11586
ⲭⲁⲗⲁⲍⲁ	-11587
ϣⲟⲩⲥⲟⲟⲩ	-11588
ϩⲉⲣϣⲓⲣⲉ	-11589
▁ϣⲁϥⲃⲱⲕ	-11590
▁ϥⲛⲁⲡⲱⲧ	-11591
▁ϩⲁⲡⲗⲱⲥ	-11592
▁ϩⲉⲗⲡⲓⲥ	-11593
▁ϩⲓϫⲛⲛⲉ	-11594
▁ϩⲙⲡϩⲁⲉ	-11595
▁ϩⲙⲡϩⲱⲡ	-11596
▁ϩⲙⲡⲛⲁⲩ	-11597
▁ϩⲙⲡⲣⲣⲟ	-11598
▁ϩⲛϩⲉⲛⲉ	-11599
▁ϩⲛϩⲏⲧⲥ	-11600
▁ϩⲛⲛⲧⲟϣ	-11601
▁ϫⲉⲁⲕⲕⲱ	-11602
▁ϫⲉⲉⲓⲥⲁ	-11603
▁ϫⲉⲕⲁⲁⲧ	-11604
▁ϫⲉⲙⲉⲣⲉ	-11605
▁ϫⲉⲛⲧⲁⲛ	-11606
▁ϫⲉⲟⲩⲇⲉ	-11607
▁ϫⲉⲟⲩⲙⲉ	-11608
▁ϫⲉⲡⲕⲁϩ	-11609
▁ϫⲉⲣⲱⲙⲉ	-11610
▁ϫⲉⲥϩⲁⲓ	-11611
▁ϫⲉⲥⲁϩⲉ	-11612
▁ϫⲓⲉⲟⲟⲩ	-11613
▁ϯⲛⲁⲕⲧⲟ	-11614
▁ϯⲛⲁⲕⲱⲧ	-11615
▁ϯⲟⲩⲁⲁⲃ	-11616
▁ⲁϥϥⲱϭⲉ	-11617
▁ⲁϥϩⲓⲥⲉ	-11618
▁ⲁϥϭⲉⲡⲏ	-11619
▁ⲁϥϯⲥⲃⲱ	-11620
▁ⲁϥⲁⲣⲛⲁ	-11621
▁ⲁϥⲙⲓϣⲉ	-11622
▁ⲁϥⲣⲱⲕϩ	-11623
▁ⲁϥⲧⲁϩⲉ	-11624
▁ⲁϥⲧⲃⲃⲟ	-11625
▁ⲁⲓϩⲓⲥⲉ	-11626
▁ⲁⲓϫⲡⲟⲕ	-11627
▁ⲁⲓⲟⲩⲱⲙ	-11628
▁ⲁⲓⲡⲁϩⲧ	-11629
▁ⲁⲓⲣⲓⲙⲉ	-11630
▁ⲁⲓⲥⲁⲁⲕ	-11631
▁ⲁⲕⲉⲓⲙⲉ	-11632
▁ⲁⲛϣⲁϫⲉ	-11633
▁ⲁⲛϣⲗⲏⲗ	-11634
▁ⲁⲣⲓϩⲱⲃ	-11635
▁ⲁⲣⲓⲡⲁⲓ	-11636
▁ⲁⲥⲕⲟⲧⲥ	-11637
▁ⲁⲥⲕⲧⲟⲥ	-11638
▁ⲁⲥⲧⲁⲙⲉ	-11639
▁ⲁⲧⲁϭⲟⲙ	-11640
▁ⲁⲧⲥⲱⲧⲙ	-11641
▁ⲁⲩϭⲱⲣϭ	-11642
▁ⲁⲩⲛⲧⲟⲩ	-11643
▁ⲁⲩⲧⲁⲁϥ	-11644
▁ⲁⲩⲭⲁⲗⲁ	-11645
▁ⲅⲁⲗⲁⲁⲇ	-11646
▁ⲉϥϣⲟⲩⲟ	-11647
▁ⲉϥⲉⲙⲟⲩ	-11648
▁ⲉϥⲛϩⲟⲧ	-11649
▁ⲉϩⲓⲟⲩⲉ	-11650
▁ⲉϫⲓϩⲁⲡ	-11651
▁ⲉϯⲉⲓⲣⲉ	-11652
▁ⲉⲕϣⲁⲛⲧ	-11653
▁ⲉⲙⲛⲡⲉⲧ	-11654
▁ⲉⲙⲟⲟⲛⲉ	-11655
▁ⲉⲛϭⲱϣⲧ	-11656
▁ⲉⲛⲉⲥⲱⲥ	-11657
▁ⲉⲛⲉⲩⲏⲓ	-11658
▁ⲉⲝⲉⲥⲧⲓ	-11659
▁ⲉⲡⲉⲓⲥⲁ	-11660
▁ⲉⲡⲉⲓⲱⲧ	-11661
▁ⲉⲡⲙⲁⲥⲉ	-11662
▁ⲉⲡⲟⲩⲏⲓ	-11663
▁ⲉⲡⲟⲩⲱϣ	-11664
▁ⲉⲣⲉⲟⲩⲥ	-11665
▁ⲉⲣⲗⲁⲁⲩ	-11666
▁ⲉⲣⲟⲩϩⲉ	-11667
▁ⲉⲥⲁⲟⲩⲗ	-11668
▁ⲉⲥⲟⲩⲏⲩ	-11669
▁ⲉⲧϣⲙϣⲉ	-11670
▁ⲉⲧϩⲛⲧⲁ	-11671
▁ⲉⲧⲁⲩⲗⲏ	-11672
▁ⲉⲧⲃⲏⲧϥ	-11673
▁ⲉⲧⲉⲙⲡϥ	-11674
▁ⲉⲧⲉⲧⲛϯ	-11675
▁ⲉⲧⲟⲩϫⲟ	-11676
▁ⲉⲧⲣⲉⲛⲉ	-11677
▁ⲉⲧⲣⲉⲩϯ	-11678
▁ⲉⲩⲙⲟⲟⲛ	-11679
▁ⲉⲩⲙⲧⲟⲛ	-11680
▁ⲉⲩⲛϭⲟⲙ	-11681
▁ⲉⲩⲛⲁϫⲓ	-11682
▁ⲉⲩⲟⲩⲟϫ	-11683
▁ⲉⲩⲥⲟⲃⲕ	-11684
▁ⲉⲩⲥⲟⲡⲥ	-11685
▁ⲉⲩⲥⲟⲣⲙ	-11686
▁ⲉⲩⲧⲱⲣⲡ	-11687
▁ⲏϣⲟⲙⲛⲧ	-11688
▁ⲓⲉⲥⲥⲁⲓ	-11689
▁ⲕⲛⲁⲛⲁⲩ	-11690
▁ⲙⲙⲁⲁϫⲉ	-11691
▁ⲙⲛⲛⲉⲧⲟ	-11692
▁ⲙⲛⲛⲥⲱⲓ	-11693
▁ⲙⲡϣⲱϫⲡ	-11694
▁ⲙⲡϫⲁⲓⲉ	-11695
▁ⲙⲡϫⲓⲥⲉ	-11696
▁ⲙⲡⲁⲡⲟⲧ	-11697
▁ⲙⲡⲃⲉⲕⲉ	-11698
▁ⲙⲡⲃⲏⲙⲁ	-11699
▁ⲙⲡⲉⲥⲏⲓ	-11700
▁ⲙⲡⲉⲥⲟⲩ	-11701
▁ⲙⲡⲕⲟⲩⲓ	-11702
▁ⲙⲡⲣⲧⲣⲁ	-11703
▁ⲙⲡⲣⲱⲣⲕ	-11704
▁ⲙⲡⲥⲱⲛⲧ	-11705
▁ⲙⲡⲥⲱⲧⲉ	-11706
▁ⲛϥϫⲟⲟⲩ	-11707
▁ⲛϥϭⲱϣⲧ	-11708
▁ⲛϥⲕⲁⲁϥ	-11709
▁ⲛϥⲕⲟⲧϥ	-11710
▁ⲛϩⲁⲣⲉϩ	-11711
▁ⲛϩⲉⲛϣⲉ	-11712
▁ⲛϩⲛⲛⲟϭ	-11713
▁ⲛϫⲓⲟⲟⲣ	-11714
▁ⲛϫⲟⲩⲱⲧ	-11715
▁ⲛϭⲓⲡⲉⲛ	-11716
▁ⲛϭⲓⲡⲙⲁ	-11717
▁ⲛⲁϩⲙⲟⲩ	-11718
▁ⲛⲁϭⲱⲗⲡ	-11719
▁ⲛⲁϯϩⲏⲩ	-11720
▁ⲛⲁⲕⲧⲟϥ	-11721
▁ⲛⲁⲙⲙⲁⲛ	-11722
▁ⲛⲁⲙⲛⲱⲛ	-11723
▁ⲛⲁⲣⲱⲕϩ	-11724
▁ⲛⲃⲗⲗⲁⲕ	-11725
▁ⲛⲅϣⲁϫⲉ	-11726
▁ⲛⲅϣⲓⲛⲉ	-11727
▁ⲛⲅⲕⲁⲁϥ	-11728
▁ⲛⲅⲟⲩⲱϣ	-11729
▁ⲛⲉⲕⲃⲁⲗ	-11730
▁ⲛⲉⲛⲧⲁⲓ	-11731
▁ⲛⲉⲛⲧⲁⲛ	-11732
▁ⲛⲉⲧⲛⲁⲩ	-11733
▁ⲛⲉⲩϭⲓϫ	-11734
▁ⲛⲉⲩⲛⲁⲩ	-11735
▁ⲛⲉⲩⲛⲟⲩ	-11736
▁ⲛⲛⲉϣⲁⲩ	-11737
▁ⲛⲛⲉⲩⲙⲁ	-11738
▁ⲛⲛⲉⲫⲑⲁ	-11739
▁ⲛⲛⲏⲥⲟⲥ	-11740
▁ⲛⲟⲩⲟϩⲉ	-11741
▁ⲛⲟⲩⲟⲃϣ	-11742
▁ⲛⲟⲩⲥⲙⲏ	-11743
▁ⲛⲣⲙⲙⲙⲉ	-11744
▁ⲛⲣⲙⲣⲁϣ	-11745
▁ⲛⲥⲁϩⲟⲩ	-11746
▁ⲛⲥⲁⲇⲱⲕ	-11747
▁ⲛⲥⲁⲛⲉⲧ	-11748
▁ⲛⲥⲁⲡⲡⲓ	-11749
▁ⲛⲥⲁⲧϩⲉ	-11750
▁ⲛⲥⲁⲫⲁⲛ	-11751
▁ⲛⲥⲉⲛⲁϯ	-11752
▁ⲛⲥⲉⲱϫⲛ	-11753
▁ⲛⲥⲓⲇⲱⲛ	-11754
▁ⲛⲧⲁϥϩⲉ	-11755
▁ⲛⲧⲁⲝⲓⲥ	-11756
▁ⲛⲧⲁⲡⲣⲟ	-11757
▁ⲛⲧⲁⲥⲉⲓ	-11758
▁ⲛⲧⲁⲩϫⲓ	-11759
▁ⲛⲧⲉⲕⲙⲉ	-11760
▁ⲛⲧⲉⲡⲣⲟ	-11761
▁ⲛⲧⲉⲣⲉⲕ	-11762
▁ⲛⲧⲉⲧⲉϥ	-11763
▁ⲟⲩⲉⲟⲟⲩ	-11764
▁ⲟⲩⲕⲁⲕⲉ	-11765
▁ⲟⲩⲛⲟⲩⲃ	-11766
▁ⲟⲩⲛⲧⲁⲩ	-11767
▁ⲟⲩⲟⲩⲱϣ	-11768
▁ⲟⲩⲥⲛⲟϥ	-11769
▁ⲟⲩⲧⲱⲟⲩ	-11770
▁ⲟⲩⲯⲩⲭⲏ	-11771
▁ⲡⲁⲉⲟⲟⲩ	-11772
▁ⲡⲁⲣⲭⲓⲥ	-11773
▁ⲡⲉϣⲗⲏⲗ	-11774
▁ⲡⲉϫⲉⲛⲁ	-11775
▁ⲡⲉϫⲉⲡⲉ	-11776
▁ⲡⲉⲓⲕⲉⲧ	-11777
▁ⲡⲉⲙⲗⲁϩ	-11778
▁ⲡⲉⲛϩⲏⲧ	-11779
▁ⲡⲉⲧⲉⲧⲛ	-11780
▁ⲡⲉⲧⲕⲧⲟ	-11781
▁ⲡⲥⲟⲟⲩⲛ	-11782
▁ⲣϫⲟⲉⲓⲥ	-11783
▁ⲥⲁϩⲱⲱϥ	-11784
▁ⲥⲉⲉⲓⲣⲉ	-11785
▁ⲧⲉϥⲁⲡⲉ	-11786
▁ⲫⲏⲥⲧⲟⲥ	-11787
ⲁⲣⲓⲥⲧⲟⲛ	-11788
ⲇⲓⲕⲁⲓⲱⲥ	-11789
ⲉⲝⲟⲩⲥⲓⲁ	-11790
ⲕⲉϩⲙϩⲁⲗ	-11791
ⲕⲉⲫⲁⲗⲓⲥ	-11792
ⲗⲓⲥⲁⲃⲉⲧ	-11793
ⲗⲟⲩⲗⲱⲟⲩ	-11794
ⲙⲉⲥⲓⲧⲏⲥ	-11795
ⲙⲛⲧⲉⲓⲱⲧ	-11796
ⲙⲛⲧⲣⲉϥⲣ	-11797
ⲛⲁⲥⲉⲃⲏⲥ	-11798
ⲛⲉⲕϣⲏⲣⲉ	-11799
ⲛⲉⲧϩⲟⲟⲩ	-11800
ⲟⲣⲓⲛⲑⲟⲥ	-11801
ⲟⲩⲟⲛϩⲟⲩ	-11802
ⲡⲁϫⲟⲉⲓⲥ	-11803
ⲡⲉϥⲥⲱⲙⲁ	-11804
ⲡⲏⲗⲁⲓⲟⲛ	-11805
ⲥⲁⲛϩⲟⲩⲛ	-11806
ⲥⲃⲧⲱⲧⲟⲩ	-11807
ⲧⲁⲛϩⲟⲟⲩ	-11808
ⲧⲁⲛϩⲟⲩⲧ	-11809
ⲧⲉⲛⲯⲩⲭⲏ	-11810
ⲭⲓⲇⲟⲫⲉⲗ	-11811
ⲭⲓⲙⲁⲣⲟⲥ	-11812
ϣⲁⲛⲧϩⲧⲏϥ	-11813
ϩⲣⲁⲛⲧⲓⲍⲉ	-11814
ϫⲉⲡϫⲟⲉⲓⲥ	-11815
ϫⲟⲩⲧⲁϥⲧⲉ	-11816
▁ϥⲛⲁⲟⲩⲱϩ	-11817
▁ϩⲁϩⲟⲙⲛⲧ	-11818
▁ϩⲁⲡⲉϩⲕⲟ	-11819
▁ϩⲓϫⲛϩⲉⲛ	-11820
▁ϩⲓⲧⲛϩⲁϩ	-11821
▁ϩⲙⲡϣⲏⲣⲉ	-11822
▁ϩⲙⲡⲁⲗⲁⲥ	-11823
▁ϩⲙⲡⲥⲁϣϥ	-11824
▁ϩⲙⲡⲥⲃⲃⲉ	-11825
▁ϩⲙⲡⲧⲣⲉⲕ	-11826
▁ϩⲛⲛⲟⲩⲱϣ	-11827
▁ϩⲛⲛⲧⲉⲧⲛ	-11828
▁ϩⲛⲟⲩϩⲕⲟ	-11829
▁ϩⲛⲟⲩⲏⲣⲡ	-11830
▁ϩⲛⲟⲩⲡⲁϣ	-11831
▁ϩⲛⲥⲟⲫⲓⲁ	-11832
▁ϩⲛⲧⲁⲥⲙⲏ	-11833
▁ϫⲉϩⲛⲟⲩϯ	-11834
▁ϫⲉⲁⲛⲓⲛⲉ	-11835
▁ϫⲉⲁⲩⲉⲓⲥ	-11836
▁ϫⲉⲉⲣⲉⲟⲩ	-11837
▁ϫⲉⲉⲩϣⲁⲛ	-11838
▁ϫⲉⲙⲁⲣⲉⲛ	-11839
▁ϫⲉⲙⲁⲣⲟⲛ	-11840
▁ϫⲉⲙⲛⲛⲥⲁ	-11841
▁ϫⲉⲛϣⲏⲣⲉ	-11842
▁ϫⲉⲛⲟⲩⲧⲉ	-11843
▁ϫⲉⲟⲩⲛⲧⲉ	-11844
▁ϯⲗⲟⲩⲗⲁⲓ	-11845
▁ϯⲛⲁⲉⲓⲙⲉ	-11846
▁ϯⲛⲁⲟⲩⲱϩ	-11847
▁ⲁϥϣⲟⲡⲟⲩ	-11848
▁ⲁϥϣⲟⲣϣⲣ	-11849
▁ⲁϥϩⲁⲣⲉϩ	-11850
▁ⲁϥϫⲟⲟⲩϥ	-11851
▁ⲁϥⲉⲛⲧⲟⲩ	-11852
▁ⲁϥⲑⲃⲃⲓⲟ	-11853
▁ⲁϥⲗⲩⲡⲉⲓ	-11854
▁ⲁϥⲛⲉϩⲥⲉ	-11855
▁ⲁϥⲧⲁⲙⲓⲉ	-11856
▁ⲁϥⲧⲃⲃⲟϥ	-11857
▁ⲁϥⲧⲟⲩϫⲟ	-11858
▁ⲁϥⲧⲱⲱⲃⲉ	-11859
▁ⲁⲓⲑⲃⲃⲓⲟ	-11860
▁ⲁⲓⲛⲟⲩϫⲉ	-11861
▁ⲁⲓⲟⲩⲱⲛϩ	-11862
▁ⲁⲓⲣϩⲗⲗⲟ	-11863
▁ⲁⲛϩⲙⲟⲟⲥ	-11864
▁ⲁⲛⲧⲱⲟⲩⲛ	-11865
▁ⲁⲡⲉⲩϩⲏⲧ	-11866
▁ⲁⲥⲡⲁϩⲧⲥ	-11867
▁ⲁⲧⲉⲧⲛⲕⲁ	-11868
▁ⲁⲩϭⲙϭⲟⲙ	-11869
▁ⲃⲏⲑⲗⲉⲉⲙ	-11870
▁ⲇⲓⲕⲁⲓⲟⲥ	-11871
▁ⲉϥϣⲁⲛϩⲉ	-11872
▁ⲉϥϭⲟⲟⲗⲉ	-11873
▁ⲉϥϯⲉⲟⲟⲩ	-11874
▁ⲉϥⲉⲧⲁⲁⲩ	-11875
▁ⲉϥⲕⲣⲓⲛⲉ	-11876
▁ⲉϥⲟⲩⲟϣϥ	-11877
▁ⲉϥⲟⲩⲱⲛϩ	-11878
▁ⲉϥⲧⲛⲧⲱⲛ	-11879
▁ⲉϫⲙⲡⲣⲁⲛ	-11880
▁ⲉϫⲙⲡⲣⲣⲟ	-11881
▁ⲉⲁⲙⲁϩⲧⲉ	-11882
▁ⲉⲓⲛⲟⲩϫⲉ	-11883
▁ⲉⲕⲉⲟⲩⲱⲙ	-11884
▁ⲉⲙⲛϫⲃⲓⲛ	-11885
▁ⲉⲙⲛⲛⲟⲃⲉ	-11886
▁ⲉⲛⲉϩⲟⲟⲩ	-11887
▁ⲉⲛⲉⲥⲛⲏⲩ	-11888
▁ⲉⲛⲉⲧⲉⲣⲉ	-11889
▁ⲉⲛⲙⲟⲟϣⲉ	-11890
▁ⲉⲛⲛⲁⲃⲱⲕ	-11891
▁ⲉⲡⲉϥⲕⲁϩ	-11892
▁ⲉⲡⲉⲓⲕⲣⲟ	-11893
▁ⲉⲡⲉⲥⲛⲟϥ	-11894
▁ⲉⲡⲉⲧⲣⲟⲥ	-11895
▁ⲉⲣⲉⲛⲃⲁⲗ	-11896
▁ⲉⲣⲉⲛⲉⲧⲛ	-11897
▁ⲉⲥⲟⲩⲟⲃϣ	-11898
▁ⲉⲧϩⲙⲡⲉⲕ	-11899
▁ⲉⲧϭⲟⲟⲗⲉ	-11900
▁ⲉⲧⲟⲩⲟⲛϩ	-11901
▁ⲉⲧⲣⲁⲃⲱⲕ	-11902
▁ⲉⲧⲣⲉϥϭⲱ	-11903
▁ⲉⲧⲣⲉⲧⲛⲁ	-11904
▁ⲉⲧⲣⲉⲩϫⲓ	-11905
▁ⲉⲧⲥⲃⲧⲱⲧ	-11906
▁ⲉⲩϭⲟⲟⲗⲉ	-11907
▁ⲉⲩⲉϣⲙϣⲉ	-11908
▁ⲉⲩⲛⲁⲣⲟⲩ	-11909
▁ⲉⲩⲟⲩⲟⲃϣ	-11910
▁ⲉⲩⲥⲁϩⲟⲩ	-11911
▁ⲉⲩⲥⲟⲟⲩⲛ	-11912
▁ⲕⲁⲑⲓⲥⲧⲁ	-11913
▁ⲕⲁⲧⲁϯⲙⲉ	-11914
▁ⲙⲁⲧⲟⲩϫⲉ	-11915
▁ⲙⲙⲉⲗⲭⲱⲗ	-11916
▁ⲙⲛⲛⲉϣⲁⲩ	-11917
▁ⲙⲛⲛⲧⲉⲧⲛ	-11918
▁ⲙⲛⲡϩⲏⲕⲉ	-11919
▁ⲙⲛⲡⲙⲟⲟⲩ	-11920
▁ⲙⲛⲡⲛⲟⲩⲃ	-11921
▁ⲙⲛⲥⲓⲗⲁⲥ	-11922
▁ⲙⲛⲫⲁⲣⲁⲱ	-11923
▁ⲙⲡⲁⲉⲟⲟⲩ	-11924
▁ⲙⲡⲁⲟⲉⲓⲕ	-11925
▁ⲙⲡⲁⲧϥⲉⲓ	-11926
▁ⲙⲡⲉϥϩⲁⲡ	-11927
▁ⲙⲡⲉϥⲟϩⲉ	-11928
▁ⲙⲡⲉⲛϩⲏⲧ	-11929
▁ⲙⲡⲉⲟⲩⲟⲛ	-11930
▁ⲙⲡⲉⲧⲥⲏϭ	-11931
▁ⲙⲡⲕⲉⲟⲩⲁ	-11932
▁ⲛϥⲛⲕⲟⲧⲕ	-11933
▁ⲛϩⲉⲗⲡⲓⲥ	-11934
▁ⲛϩⲉⲛⲱⲛⲉ	-11935
▁ⲛϭⲁⲙⲟⲩⲗ	-11936
▁ⲛϭⲓⲡⲉⲧⲛ	-11937
▁ⲛϭⲓⲡⲕⲁϩ	-11938
▁ⲛϭⲓⲡⲣⲁⲛ	-11939
▁ⲛϭⲓⲧⲉⲧⲛ	-11940
▁ⲛⲁϣⲟⲟⲩⲉ	-11941
▁ⲛⲁⲉⲓⲟⲧⲉ	-11942
▁ⲛⲁⲉⲣⲙⲱⲛ	-11943
▁ⲛⲁⲙⲟⲟⲛⲉ	-11944
▁ⲛⲁⲭⲓⲇⲱⲃ	-11945
▁ⲛⲃⲁⲓⲑⲏⲗ	-11946
▁ⲛⲃⲟⲭⲟⲣⲓ	-11947
▁ⲛⲅϩⲙⲟⲟⲥ	-11948
▁ⲛⲅⲉⲛⲏⲙⲁ	-11949
▁ⲛⲅⲙⲟⲩⲧⲉ	-11950
▁ⲛⲅⲟⲩⲁϩⲕ	-11951
▁ⲛⲅⲥⲙⲓⲛⲉ	-11952
▁ⲛⲅⲧⲱⲟⲩⲛ	-11953
▁ⲛⲉϥⲉⲓⲣⲉ	-11954
▁ⲛⲉⲧϩⲓϫⲙ	-11955
▁ⲛⲉⲧⲉⲧⲛⲟ	-11956
▁ⲛⲉⲧⲛϭⲓϫ	-11957
▁ⲛⲉⲧⲛⲃⲁⲗ	-11958
▁ⲛⲉⲩⲛⲟⲃⲉ	-11959
▁ⲛⲉⲩⲥⲱⲧⲙ	-11960
▁ⲛⲓⲉⲫⲟⲛⲏ	-11961
▁ⲛⲕⲁⲡⲛⲟⲥ	-11962
▁ⲛⲕⲉⲣⲱⲙⲉ	-11963
▁	-11964
ⲉ	-11965
ⲛ	-11966
ⲁ	-11967
ⲟ	-11968
ⲧ	-11969
ⲩ	-11970
ⲙ	-11971
ⲓ	-11972
ⲡ	-11973
ⲥ	-11974
ϩ	-11975
ⲣ	-11976
ⲱ	-11977
ϥ	-11978
ⲏ	-11979
ϫ	-11980
ⲕ	-11981
ϣ	-11982
ⲗ	-11983
ⲃ	-11984
.	-11985
ⲇ	-11986
ϭ	-11987
ⲅ	-11988
ϯ	-11989
ⲑ	-11990
·	-11991
ⲭ	-11992
ⲫ	-11993
ⲍ	-11994
ⲯ	-11995
ⲝ	-11996
